{
  "version": "1.0",
  "truncation": null,
  "padding": null,
  "added_tokens": [
    {
      "id": 0,
      "special": true,
      "content": "[UNK]",
      "single_word": false,
      "lstrip": false,
      "rstrip": false,
      "normalized": false
    },
    {
      "id": 1,
      "special": true,
      "content": "[CLS]",
      "single_word": false,
      "lstrip": false,
      "rstrip": false,
      "normalized": false
    },
    {
      "id": 2,
      "special": true,
      "content": "[SEP]",
      "single_word": false,
      "lstrip": false,
      "rstrip": false,
      "normalized": false
    },
    {
      "id": 3,
      "special": true,
      "content": "[PAD]",
      "single_word": false,
      "lstrip": false,
      "rstrip": false,
      "normalized": false
    },
    {
      "id": 4,
      "special": true,
      "content": "[MASK]",
      "single_word": false,
      "lstrip": false,
      "rstrip": false,
      "normalized": false
    }
  ],
  "normalizer": {
    "type": "BertNormalizer",
    "clean_text": true,
    "handle_chinese_chars": true,
    "strip_accents": null,
    "lowercase": true
  },
  "pre_tokenizer": {
    "type": "BertPreTokenizer"
  },
  "post_processor": null,
  "decoder": {
    "type": "WordPiece",
    "prefix": "##",
    "cleanup": true
  },
  "model": {
    "type": "WordPiece",
    "unk_token": "[UNK]",
    "continuing_subword_prefix": "##",
    "max_input_chars_per_word": 100,
    "vocab": {
      "[UNK]": 0,
      "[CLS]": 1,
      "[SEP]": 2,
      "[PAD]": 3,
      "[MASK]": 4,
      "!": 5,
      "\"": 6,
      "#": 7,
      "$": 8,
      "%": 9,
      "&": 10,
      "'": 11,
      "(": 12,
      ")": 13,
      "*": 14,
      "+": 15,
      ",": 16,
      "-": 17,
      ".": 18,
      "/": 19,
      "0": 20,
      "1": 21,
      "2": 22,
      "3": 23,
      "4": 24,
      "5": 25,
      "6": 26,
      "7": 27,
      "8": 28,
      "9": 29,
      ":": 30,
      ";": 31,
      "<": 32,
      "=": 33,
      ">": 34,
      "?": 35,
      "@": 36,
      "[": 37,
      "\\": 38,
      "]": 39,
      "^": 40,
      "_": 41,
      "`": 42,
      "a": 43,
      "b": 44,
      "c": 45,
      "d": 46,
      "e": 47,
      "f": 48,
      "g": 49,
      "h": 50,
      "i": 51,
      "j": 52,
      "k": 53,
      "l": 54,
      "m": 55,
      "n": 56,
      "o": 57,
      "p": 58,
      "q": 59,
      "r": 60,
      "s": 61,
      "t": 62,
      "u": 63,
      "v": 64,
      "w": 65,
      "x": 66,
      "y": 67,
      "z": 68,
      "{": 69,
      "|": 70,
      "}": 71,
      "~": 72,
      "##r": 73,
      "##a": 74,
      "##y": 75,
      "##f": 76,
      "##e": 77,
      "##l": 78,
      "##g": 79,
      "##s": 80,
      "##7": 81,
      "##2": 82,
      "##8": 83,
      "##4": 84,
      "##9": 85,
      "##5": 86,
      "##6": 87,
      "##1": 88,
      "##0": 89,
      "##3": 90,
      "##d": 91,
      "##h": 92,
      "##m": 93,
      "##p": 94,
      "##i": 95,
      "##o": 96,
      "##t": 97,
      "##c": 98,
      "##v": 99,
      "##x": 100,
      "##n": 101,
      "##b": 102,
      "##u": 103,
      "##k": 104,
      "##w": 105,
      "##z": 106,
      "##q": 107,
      "##j": 108,
      "##at": 109,
      "##in": 110,
      "##pe": 111,
      "di": 112,
      "##et": 113,
      "##on": 114,
      "##bg": 115,
      "dbg": 116,
      "##ine": 117,
      "##tr": 118,
      "##al": 119,
      "##ion": 120,
      "##dat": 121,
      "##ct": 122,
      "##co": 123,
      "line": 124,
      "##le": 125,
      "i8": 126,
      "sco": 127,
      "scope": 128,
      "##oc": 129,
      "##64": 130,
      "##32": 131,
      "##loc": 132,
      "##ol": 133,
      "str": 134,
      "##data": 135,
      "##um": 136,
      "##adata": 137,
      "in": 138,
      "met": 139,
      "metadata": 140,
      "##uct": 141,
      "struct": 142,
      "col": 143,
      "##umn": 144,
      "column": 145,
      "i64": 146,
      "diloc": 147,
      "##re": 148,
      "i32": 149,
      "##nd": 150,
      "##ation": 151,
      "dilocation": 152,
      "##ype": 153,
      "##me": 154,
      "##er": 155,
      "ta": 156,
      "##all": 157,
      "call": 158,
      "if": 159,
      "##ile": 160,
      "##ue": 161,
      "bf": 162,
      "##ab": 163,
      "tag": 164,
      "##id": 165,
      "11": 166,
      "bfd": 167,
      "file": 168,
      "10": 169,
      "##as": 170,
      "##ame": 171,
      "##el": 172,
      "##mp": 173,
      "##ex": 174,
      "##nt": 175,
      "##ig": 176,
      "##oid": 177,
      "void": 178,
      "12": 179,
      "##ign": 180,
      "##line": 181,
      "end": 182,
      "##ss": 183,
      "name": 184,
      "val": 185,
      "##abel": 186,
      "label": 187,
      "value": 188,
      "al": 189,
      "inline": 190,
      "inlinedat": 191,
      "##lv": 192,
      "##lvm": 193,
      "llvm": 194,
      "##ou": 195,
      "##it": 196,
      "align": 197,
      "15": 198,
      "##iz": 199,
      "##16": 200,
      "##ress": 201,
      "14": 202,
      "##ed": 203,
      "##exp": 204,
      "##ression": 205,
      "##expression": 206,
      "13": 207,
      "16": 208,
      "diexpression": 209,
      "##or": 210,
      "##st": 211,
      "##ad": 212,
      "##12": 213,
      "##ize": 214,
      "##10": 215,
      "##en": 216,
      "19": 217,
      "22": 218,
      "dw": 219,
      "17": 220,
      "##ment": 221,
      "##17": 222,
      "pre": 223,
      "##etype": 224,
      "##ele": 225,
      "##14": 226,
      "##18": 227,
      "18": 228,
      "##iv": 229,
      "get": 230,
      "size": 231,
      "##15": 232,
      "##aa": 233,
      "##19": 234,
      "##13": 235,
      "20": 236,
      "tb": 237,
      "tbaa": 238,
      "type": 239,
      "24": 240,
      "ad": 241,
      "##ptr": 242,
      "add": 243,
      "lo": 244,
      "##ound": 245,
      "##element": 246,
      "getelement": 247,
      "getelementptr": 248,
      "##type": 249,
      "th": 250,
      "inb": 251,
      "##ounds": 252,
      "inbounds": 253,
      "23": 254,
      "st": 255,
      "bas": 256,
      "##mb": 257,
      "##der": 258,
      "basetype": 259,
      "con": 260,
      "##ived": 261,
      "dider": 262,
      "##ivedtype": 263,
      "diderivedtype": 264,
      "64": 265,
      "then": 266,
      "##ds": 267,
      "##20": 268,
      "##55": 269,
      "##ff": 270,
      "##60": 271,
      "load": 272,
      "el": 273,
      "preds": 274,
      "##38": 275,
      "##24": 276,
      "##68": 277,
      "br": 278,
      "to": 279,
      "##39": 280,
      "##70": 281,
      "##50": 282,
      "##ar": 283,
      "##29": 284,
      "##54": 285,
      "##34": 286,
      "##74": 287,
      "##30": 288,
      "##28": 289,
      "cmp": 290,
      "dist": 291,
      "distin": 292,
      "distinct": 293,
      "##69": 294,
      "me": 295,
      "##59": 296,
      "##78": 297,
      "tr": 298,
      "##79": 299,
      "##58": 300,
      "ar": 301,
      "##od": 302,
      "i1": 303,
      "##mber": 304,
      "member": 305,
      "se": 306,
      "##ul": 307,
      "##set": 308,
      "##ction": 309,
      "off": 310,
      "offset": 311,
      "true": 312,
      "##66": 313,
      "##22": 314,
      "##se": 315,
      "##35": 316,
      "elf": 317,
      "29": 318,
      "##37": 319,
      "for": 320,
      "##84": 321,
      "##cmp": 322,
      "ex": 323,
      "##36": 324,
      "section": 325,
      "##ic": 326,
      "##56": 327,
      "##80": 328,
      "##ull": 329,
      "icmp": 330,
      "##77": 331,
      "ph": 332,
      "en": 333,
      "##11": 334,
      "##26": 335,
      "30": 336,
      "##57": 337,
      "##lock": 338,
      "##40": 339,
      "re": 340,
      "##27": 341,
      "##hs": 342,
      "##89": 343,
      "##ical": 344,
      "##ody": 345,
      "body": 346,
      "entr": 347,
      "##ter": 348,
      "un": 349,
      "##ag": 350,
      "##able": 351,
      "##block": 352,
      "##lex": 353,
      "dilex": 354,
      "##icalblock": 355,
      "dilexicalblock": 356,
      "entry": 357,
      "##49": 358,
      "##25": 359,
      "##var": 360,
      "##ub": 361,
      "##ra": 362,
      "##33": 363,
      "##48": 364,
      "lhs": 365,
      "27": 366,
      "##il": 367,
      "28": 368,
      "##67": 369,
      "##ast": 370,
      "ptr": 371,
      "##00": 372,
      "##ore": 373,
      "##an": 374,
      "pr": 375,
      "cond": 376,
      "##99": 377,
      "is": 378,
      "##lag": 379,
      "de": 380,
      "##ink": 381,
      "##fo": 382,
      "eq": 383,
      "32": 384,
      "##44": 385,
      "##iable": 386,
      "addr": 387,
      "inc": 388,
      "##52": 389,
      "##alvar": 390,
      "##alvariable": 391,
      "##90": 392,
      "26": 393,
      "store": 394,
      "phi": 395,
      "link": 396,
      "##ac": 397,
      "##82": 398,
      "sw": 399,
      "info": 400,
      "##and": 401,
      "##76": 402,
      "##86": 403,
      "dilocalvariable": 404,
      "##31": 405,
      "sy": 406,
      "##itc": 407,
      "##de": 408,
      "25": 409,
      "##ext": 410,
      "arg": 411,
      "##ot": 412,
      "##88": 413,
      "co": 414,
      "land": 415,
      "##un": 416,
      "##ray": 417,
      "##23": 418,
      "array": 419,
      "##ate": 420,
      "##ool": 421,
      "##53": 422,
      "sh": 423,
      "##94": 424,
      "fal": 425,
      "false": 426,
      "34": 427,
      "tob": 428,
      "tobool": 429,
      "40": 430,
      "has": 431,
      "null": 432,
      "##72": 433,
      "bitc": 434,
      "bitcast": 435,
      "##ut": 436,
      "##96": 437,
      "op": 438,
      "##51": 439,
      "hash": 440,
      "##ing": 441,
      "non": 442,
      "##tern": 443,
      "exit": 444,
      "or": 445,
      "##ternal": 446,
      "##21": 447,
      "##04": 448,
      "##97": 449,
      "##null": 450,
      "nonnull": 451,
      "##98": 452,
      "i16": 453,
      "sub": 454,
      "##75": 455,
      "and": 456,
      "##idx": 457,
      "##name": 458,
      "ret": 459,
      "##65": 460,
      "##pr": 461,
      "arrayidx": 462,
      "##62": 463,
      "internal": 464,
      "conv": 465,
      "##ack": 466,
      "flag": 467,
      "21": 468,
      "tail": 469,
      "bb": 470,
      "##up": 471,
      "wh": 472,
      "dat": 473,
      "cle": 474,
      "##73": 475,
      "data": 476,
      "else": 477,
      "flags": 478,
      "while": 479,
      "dis": 480,
      "##08": 481,
      "##46": 482,
      "##he": 483,
      "##oin": 484,
      "##rg": 485,
      "##09": 486,
      "##63": 487,
      "##45": 488,
      "##47": 489,
      "##87": 490,
      "##43": 491,
      "##92": 492,
      "##95": 493,
      "reloc": 494,
      "##42": 495,
      "##mbol": 496,
      "##07": 497,
      "##named": 498,
      "unnamed": 499,
      "##06": 500,
      "clean": 501,
      "cleanup": 502,
      "symbol": 503,
      "bu": 504,
      "##83": 505,
      "disub": 506,
      "##85": 507,
      "##61": 508,
      "##ode": 509,
      "##71": 510,
      "##93": 511,
      "dif": 512,
      "poin": 513,
      "##02": 514,
      "const": 515,
      "targ": 516,
      "00": 517,
      "##91": 518,
      "target": 519,
      "42": 520,
      "lor": 521,
      "##41": 522,
      "do": 523,
      "##out": 524,
      "50": 525,
      "pointer": 526,
      "38": 527,
      "comp": 528,
      "li": 529,
      "39": 530,
      "##dec": 531,
      "78": 532,
      "diflag": 533,
      "54": 534,
      "##ang": 535,
      "##05": 536,
      "36": 537,
      "priv": 538,
      "##ant": 539,
      "##ent": 540,
      "private": 541,
      "##op": 542,
      "id": 543,
      "##81": 544,
      "37": 545,
      "##03": 546,
      "constant": 547,
      "##dr": 548,
      "loc": 549,
      "ind": 550,
      "48": 551,
      "##igned": 552,
      "next": 553,
      "##ble": 554,
      "35": 555,
      "qu": 556,
      "##og": 557,
      "##int": 558,
      "##ator": 559,
      "quot": 560,
      "##lt": 561,
      "##os": 562,
      "44": 563,
      "##ader": 564,
      "33": 565,
      "idx": 566,
      "##ge": 567,
      "##umer": 568,
      "49": 569,
      "##def": 570,
      "##end": 571,
      "##signed": 572,
      "ob": 573,
      "128": 574,
      "types": 575,
      "##umerator": 576,
      "dien": 577,
      "dienumerator": 578,
      "##unsigned": 579,
      "isunsigned": 580,
      "##ers": 581,
      "table": 582,
      "70": 583,
      "ab": 584,
      "i2": 585,
      "##rout": 586,
      "union": 587,
      "##inetype": 588,
      "disubrout": 589,
      "disubroutinetype": 590,
      "52": 591,
      "##ch": 592,
      "local": 593,
      "##ap": 594,
      "##ind": 595,
      "##rit": 596,
      "##01": 597,
      "##fd": 598,
      "69": 599,
      "##ure": 600,
      "at": 601,
      "31": 602,
      "##header": 603,
      "incdec": 604,
      "217": 605,
      "47": 606,
      "preheader": 607,
      "60": 608,
      "obj": 609,
      "106": 610,
      "print": 611,
      "46": 612,
      "sym": 613,
      "##lo": 614,
      "end82": 615,
      "132": 616,
      "len": 617,
      "212": 618,
      "164": 619,
      "58": 620,
      "##fi": 621,
      "io": 622,
      "##elect": 623,
      "fun": 624,
      "select": 625,
      "lc": 626,
      "extr": 627,
      "string": 628,
      "59": 629,
      "##ime": 630,
      "##onent": 631,
      "57": 632,
      "component": 633,
      "43": 634,
      "opt": 635,
      "##ssa": 636,
      "tdata": 637,
      "lcssa": 638,
      "ep": 639,
      "##bit": 640,
      "##386": 641,
      "56": 642,
      "##angle": 643,
      "256": 644,
      "##ree": 645,
      "ele": 646,
      "##comp": 647,
      "45": 648,
      "attr": 649,
      "ns": 650,
      "210": 651,
      "79": 652,
      "back": 653,
      "epil": 654,
      "##i8": 655,
      "abfd": 656,
      "p0": 657,
      "##eld": 658,
      "p0i8": 659,
      "##ve": 660,
      "##om": 661,
      "def": 662,
      "214": 663,
      "##osit": 664,
      "255": 665,
      "ch": 666,
      "218": 667,
      "215": 668,
      "ne": 669,
      "dicomp": 670,
      "dem": 671,
      "110": 672,
      "demangle": 673,
      "shl": 674,
      "80": 675,
      "element": 676,
      "##field": 677,
      "##val": 678,
      "##im": 679,
      "##bitfield": 680,
      "diflagbitfield": 681,
      "extradata": 682,
      "219": 683,
      "rel": 684,
      "out": 685,
      "##pec": 686,
      "216": 687,
      "stack": 688,
      "i4": 689,
      "##ition": 690,
      "##ositetype": 691,
      "dicompositetype": 692,
      "##am": 693,
      "elements": 694,
      "213": 695,
      "68": 696,
      "76": 697,
      "232": 698,
      "option": 699,
      "77": 700,
      "nsw": 701,
      "function": 702,
      "##ur": 703,
      "##es": 704,
      "##inition": 705,
      "##local": 706,
      "65": 707,
      "##read": 708,
      "##ay": 709,
      "62": 710,
      "coff": 711,
      "iv": 712,
      "buff": 713,
      "192": 714,
      "##ef": 715,
      "mul": 716,
      "##put": 717,
      "isdef": 718,
      "islocal": 719,
      "isdefinition": 720,
      "zext": 721,
      "##opt": 722,
      "##vars": 723,
      "254": 724,
      "indvars": 725,
      "quote": 726,
      "set": 727,
      "99": 728,
      "74": 729,
      "53": 730,
      "xor": 731,
      "##wt": 732,
      "spec": 733,
      "##non": 734,
      "unit": 735,
      "crit": 736,
      "state": 737,
      "##odes": 738,
      "list": 739,
      "##bu": 740,
      "##lu": 741,
      "##rr": 742,
      "90": 743,
      "264": 744,
      "read": 745,
      "err": 746,
      "67": 747,
      "sr": 748,
      "72": 749,
      "##ized": 750,
      "backend": 751,
      "84": 752,
      "dec": 753,
      "89": 754,
      "##ined": 755,
      "55": 756,
      "##ram": 757,
      "lr": 758,
      "cac": 759,
      "##ogram": 760,
      "##wind": 761,
      "##sh": 762,
      "ed": 763,
      "##imized": 764,
      "isopt": 765,
      "isoptimized": 766,
      "41": 767,
      "##gt": 768,
      "retval": 769,
      "edge": 770,
      "100": 771,
      "cache": 772,
      "274": 773,
      "##oun": 774,
      "##ained": 775,
      "retained": 776,
      "66": 777,
      "thread": 778,
      "noun": 779,
      "nounwind": 780,
      "##ount": 781,
      "63": 782,
      "ope": 783,
      "attrs": 784,
      "88": 785,
      "114": 786,
      "250": 787,
      "anon": 788,
      "109": 789,
      "##yn": 790,
      "##size": 791,
      "##program": 792,
      "##nodes": 793,
      "scopeline": 794,
      "disubprogram": 795,
      "retainednodes": 796,
      "##oto": 797,
      "count": 798,
      "##ope": 799,
      "##pl": 800,
      "270": 801,
      "##ctor": 802,
      "##prom": 803,
      "idxprom": 804,
      "node": 805,
      "119": 806,
      "75": 807,
      "85": 808,
      "buf": 809,
      "i3": 810,
      "i386": 811,
      "120": 812,
      "options": 813,
      "##proto": 814,
      "##typed": 815,
      "diflagproto": 816,
      "diflagprototyped": 817,
      "51": 818,
      "dyn": 819,
      "sec": 820,
      "##str": 821,
      "94": 822,
      "320": 823,
      "structure": 824,
      "##sc": 825,
      "73": 826,
      "139": 827,
      "104": 828,
      "118": 829,
      "96": 830,
      "ct": 831,
      "##oa": 832,
      "##ref": 833,
      "258": 834,
      "i10": 835,
      "##bug": 836,
      "130": 837,
      "exp": 838,
      "##etime": 839,
      "87": 840,
      "lif": 841,
      "lifetime": 842,
      "71": 843,
      "268": 844,
      "224": 845,
      "98": 846,
      "epilog": 847,
      "ma": 848,
      "##unc": 849,
      "define": 850,
      "82": 851,
      "sroa": 852,
      "160": 853,
      "108": 854,
      "##tab": 855,
      "86": 856,
      "##vec": 857,
      "cast": 858,
      "shr": 859,
      "rhs": 860,
      "220": 861,
      "##wtable": 862,
      "uwtable": 863,
      "rela": 864,
      "##117": 865,
      "97": 866,
      "cont": 867,
      "0a": 868,
      "##rand": 869,
      "loop": 870,
      "mem": 871,
      "operand": 872,
      "92": 873,
      "##ke": 874,
      "310": 875,
      "107": 876,
      "##lob": 877,
      "284": 878,
      "83": 879,
      "260": 880,
      "93": 881,
      "vers": 882,
      "##art": 883,
      "num": 884,
      "294": 885,
      "ds": 886,
      "259": 887,
      "266": 888,
      "##alloc": 889,
      "760": 890,
      "tree": 891,
      "debug": 892,
      "fr": 893,
      "190": 894,
      "355": 895,
      "trunc": 896,
      "ult": 897,
      "177": 898,
      "152": 899,
      "269": 900,
      "129": 901,
      "150": 902,
      "ext": 903,
      "124": 904,
      "199": 905,
      "buffers": 906,
      "102": 907,
      "134": 908,
      "und": 909,
      "784": 910,
      "buffersize": 911,
      "no": 912,
      "95": 913,
      "quoting": 914,
      "318": 915,
      "##eam": 916,
      "arch": 917,
      "144": 918,
      "140": 919,
      "##128": 920,
      "dso": 921,
      "180": 922,
      "116": 923,
      "424": 924,
      "##ser": 925,
      "undef": 926,
      "alloc": 927,
      "##sl": 928,
      "##344": 929,
      "280": 930,
      "##130": 931,
      "##py": 932,
      "1020": 933,
      "112": 934,
      "149": 935,
      "ctx": 936,
      "##ial": 937,
      "shdr": 938,
      "##ym": 939,
      "127": 940,
      "384": 941,
      "start": 942,
      "deref": 943,
      "##509": 944,
      "i5": 945,
      "##shr": 946,
      "154": 947,
      "##ly": 948,
      "##ce": 949,
      "148": 950,
      "##293": 951,
      "mat": 952,
      "cmp1": 953,
      "158": 954,
      "##192": 955,
      "200": 956,
      "105": 957,
      "289": 958,
      "char": 959,
      "##xit": 960,
      "##ppe": 961,
      "loope": 962,
      "348": 963,
      "loopexit": 964,
      "noc": 965,
      "output": 966,
      "159": 967,
      "##709": 968,
      "170": 969,
      "244": 970,
      "122": 971,
      "##apt": 972,
      "126": 973,
      "nl": 974,
      "nocapt": 975,
      "nocapture": 976,
      "174": 977,
      "230": 978,
      "138": 979,
      "free": 980,
      "bin": 981,
      "240": 982,
      "169": 983,
      "put": 984,
      "##igh": 985,
      "204": 986,
      "146": 987,
      "278": 988,
      "xvec": 989,
      "zer": 990,
      "145": 991,
      "117": 992,
      "208": 993,
      "512": 994,
      "x86": 995,
      "##no": 996,
      "7835": 997,
      "189": 998,
      "566": 999,
      "279": 1000,
      "##144": 1001,
      "156": 1002,
      "##itch": 1003,
      "236": 1004,
      "168": 1005,
      "var": 1006,
      "##136": 1007,
      "113": 1008,
      "137": 1009,
      "switch": 1010,
      "179": 1011,
      "209": 1012,
      "##147": 1013,
      "61": 1014,
      "184": 1015,
      "##157": 1016,
      "115": 1017,
      "##ck": 1018,
      "249": 1019,
      "574": 1020,
      "call1": 1021,
      "by": 1022,
      "123": 1023,
      "not": 1024,
      "238": 1025,
      "error": 1026,
      "##unt": 1027,
      "133": 1028,
      "##100": 1029,
      "sext": 1030,
      "plu": 1031,
      "##159": 1032,
      "##121": 1033,
      "arraydec": 1034,
      "arraydecay": 1035,
      "##pi": 1036,
      "166": 1037,
      "136": 1038,
      "index": 1039,
      "194": 1040,
      "##ult": 1041,
      "178": 1042,
      "147": 1043,
      "us": 1044,
      "cmp2": 1045,
      "lshr": 1046,
      "##info": 1047,
      "##154": 1048,
      "##135": 1049,
      "324": 1050,
      "325": 1051,
      "argp": 1052,
      "##139": 1053,
      "##150": 1054,
      "##320": 1055,
      "248": 1056,
      "##146": 1057,
      "##ip": 1058,
      "stat": 1059,
      "226": 1060,
      "ev": 1061,
      "157": 1062,
      "##105": 1063,
      "##148": 1064,
      "pe": 1065,
      "##142": 1066,
      "##120": 1067,
      "gn": 1068,
      "##184": 1069,
      "##131": 1070,
      "dpi": 1071,
      "##cc": 1072,
      "as": 1073,
      "##133": 1074,
      "##195": 1075,
      "version": 1076,
      "##197": 1077,
      "end2": 1078,
      "then2": 1079,
      "##180": 1080,
      "plt": 1081,
      "##126": 1082,
      "##189": 1083,
      "##age": 1084,
      "##122": 1085,
      "165": 1086,
      "##are": 1087,
      "##mm": 1088,
      "prol": 1089,
      "##193": 1090,
      "237": 1091,
      "229": 1092,
      "##ok": 1093,
      "##101": 1094,
      "103": 1095,
      "##ias": 1096,
      "##127": 1097,
      "##199": 1098,
      "##155": 1099,
      "appe": 1100,
      "##129": 1101,
      "308": 1102,
      "clear": 1103,
      "188": 1104,
      "append": 1105,
      "198": 1106,
      "gr": 1107,
      "##con": 1108,
      "##134": 1109,
      "##urn": 1110,
      "704": 1111,
      "172": 1112,
      "##123": 1113,
      "ssl": 1114,
      "##124": 1115,
      "##153": 1116,
      "##104": 1117,
      "##125": 1118,
      "##152": 1119,
      "i6": 1120,
      "##107": 1121,
      "176": 1122,
      "142": 1123,
      "esc": 1124,
      "##138": 1125,
      "162": 1126,
      "##141": 1127,
      "227": 1128,
      "##140": 1129,
      "167": 1130,
      "768": 1131,
      "125": 1132,
      "##rite": 1133,
      "##137": 1134,
      "##111": 1135,
      "##143": 1136,
      "##191": 1137,
      "##167": 1138,
      "dire": 1139,
      "##176": 1140,
      "pend": 1141,
      "##108": 1142,
      "argsize": 1143,
      "evp": 1144,
      "580": 1145,
      "257": 1146,
      "234": 1147,
      "##th": 1148,
      "380": 1149,
      "##ver": 1150,
      "243": 1151,
      "##182": 1152,
      "df": 1153,
      "##169": 1154,
      "##106": 1155,
      "i24": 1156,
      "##160": 1157,
      "##158": 1158,
      "he": 1159,
      "##149": 1160,
      "187": 1161,
      "##itial": 1162,
      "##109": 1163,
      "245": 1164,
      "ve": 1165,
      "239": 1166,
      "121": 1167,
      "##175": 1168,
      "##rc": 1169,
      "pending": 1170,
      "##171": 1171,
      "##179": 1172,
      "##296": 1173,
      "new": 1174,
      "155": 1175,
      "##183": 1176,
      "##uw": 1177,
      "##323": 1178,
      "end4": 1179,
      "##102": 1180,
      "nuw": 1181,
      "##ell": 1182,
      "dig": 1183,
      "##103": 1184,
      "##161": 1185,
      "163": 1186,
      "##188": 1187,
      "##145": 1188,
      "##163": 1189,
      "##170": 1190,
      "223": 1191,
      "##ty": 1192,
      "##151": 1193,
      "197": 1194,
      "##165": 1195,
      "##oup": 1196,
      "##168": 1197,
      "195": 1198,
      "288": 1199,
      "return": 1200,
      "##ape": 1201,
      "##156": 1202,
      "##181": 1203,
      "##count": 1204,
      "##172": 1205,
      "phdr": 1206,
      "gnu": 1207,
      "##194": 1208,
      "decl": 1209,
      "135": 1210,
      "206": 1211,
      "rs": 1212,
      "##177": 1213,
      "##only": 1214,
      "225": 1215,
      "div": 1216,
      "196": 1217,
      "##295": 1218,
      "186": 1219,
      "##162": 1220,
      "228": 1221,
      "##397": 1222,
      "##174": 1223,
      "##648": 1224,
      "##190": 1225,
      "fast": 1226,
      "233": 1227,
      "##187": 1228,
      "143": 1229,
      "175": 1230,
      "##186": 1231,
      "dc": 1232,
      "207": 1233,
      "shell": 1234,
      "##221": 1235,
      "reg": 1236,
      "eh": 1237,
      "##185": 1238,
      "##len": 1239,
      "##303": 1240,
      "##395": 1241,
      "##281": 1242,
      "ho": 1243,
      "##299": 1244,
      "##ach": 1245,
      "##302": 1246,
      "267": 1247,
      "202": 1248,
      "##166": 1249,
      "##196": 1250,
      "182": 1251,
      "##ight": 1252,
      "131": 1253,
      "plus": 1254,
      "454": 1255,
      "448": 1256,
      "core": 1257,
      "##593": 1258,
      "cmp3": 1259,
      "group": 1260,
      "escape": 1261,
      "readonly": 1262,
      "fastcc": 1263,
      "349": 1264,
      "##603": 1265,
      "##aarg": 1266,
      "##791": 1267,
      "vaarg": 1268,
      "##304": 1269,
      "##322": 1270,
      "##644": 1271,
      "##178": 1272,
      "##of": 1273,
      "buffer": 1274,
      "director": 1275,
      "##izer": 1276,
      "##itializer": 1277,
      "##198": 1278,
      "filename": 1279,
      "##oinitializer": 1280,
      "zeroinitializer": 1281,
      "##173": 1282,
      "##282": 1283,
      "buil": 1284,
      "wor": 1285,
      "##ma": 1286,
      "##ide": 1287,
      "ucon": 1288,
      "ke": 1289,
      "getx": 1290,
      "##328": 1291,
      "uconst": 1292,
      "153": 1293,
      "directory": 1294,
      "##lobalvariable": 1295,
      "diglobalvariable": 1296,
      "205": 1297,
      "typedef": 1298,
      "##ive": 1299,
      "##500": 1300,
      "222": 1301,
      "##352": 1302,
      "##plit": 1303,
      "##329": 1304,
      "##326": 1305,
      "##387": 1306,
      "content": 1307,
      "slt": 1308,
      "242": 1309,
      "173": 1310,
      "##292": 1311,
      "input": 1312,
      "##n1": 1313,
      "write": 1314,
      "##200": 1315,
      "##ib": 1316,
      "##223": 1317,
      "asn1": 1318,
      "##204": 1319,
      "298": 1320,
      "stream": 1321,
      "##ave": 1322,
      "##325": 1323,
      "185": 1324,
      "##203": 1325,
      "##383": 1326,
      "lef": 1327,
      "left": 1328,
      "last": 1329,
      "##348": 1330,
      "rsrc": 1331,
      "right": 1332,
      "ver": 1333,
      "contents": 1334,
      "##324": 1335,
      "##542": 1336,
      "81": 1337,
      "193": 1338,
      "copy": 1339,
      "235": 1340,
      "330": 1341,
      "##362": 1342,
      "##text": 1343,
      "ro": 1344,
      "917": 1345,
      "cur": 1346,
      "##641": 1347,
      "##399": 1348,
      "91": 1349,
      "101": 1350,
      "##ort": 1351,
      "fi": 1352,
      "##340": 1353,
      "548": 1354,
      "##356": 1355,
      "##351": 1356,
      "##389": 1357,
      "##291": 1358,
      "##227": 1359,
      "map": 1360,
      "##390": 1361,
      "##222": 1362,
      "340": 1363,
      "##287": 1364,
      "##384": 1365,
      "390": 1366,
      "##688": 1367,
      "##ux": 1368,
      "203": 1369,
      "##365": 1370,
      "##372": 1371,
      "cmp4": 1372,
      "##202": 1373,
      "##263": 1374,
      "sc": 1375,
      "1174": 1376,
      "##321": 1377,
      "##271": 1378,
      "##283": 1379,
      "##391": 1380,
      "379": 1381,
      "##702": 1382,
      "##342": 1383,
      "1014": 1384,
      "354": 1385,
      "##201": 1386,
      "max": 1387,
      "##308": 1388,
      "##286": 1389,
      "##301": 1390,
      "##ls": 1391,
      "##602": 1392,
      "378": 1393,
      "##273": 1394,
      "##ow": 1395,
      "246": 1396,
      "##288": 1397,
      "277": 1398,
      "183": 1399,
      "##290": 1400,
      "##388": 1401,
      "sgt": 1402,
      "##592": 1403,
      "##305": 1404,
      "##685": 1405,
      "##375": 1406,
      "##208": 1407,
      "##345": 1408,
      "##207": 1409,
      "##343": 1410,
      "unr": 1411,
      "##225": 1412,
      "##643": 1413,
      "are": 1414,
      "##300": 1415,
      "##298": 1416,
      "##low": 1417,
      "##ault": 1418,
      "##327": 1419,
      "##376": 1420,
      "##333": 1421,
      "##get": 1422,
      "1024": 1423,
      "##557": 1424,
      "##284": 1425,
      "02": 1426,
      "##392": 1427,
      "##346": 1428,
      "576": 1429,
      "##398": 1430,
      "fp": 1431,
      "##heck": 1432,
      "##249": 1433,
      "seg": 1434,
      "##297": 1435,
      "##382": 1436,
      "then3": 1437,
      "default": 1438,
      "##640": 1439,
      "##iter": 1440,
      "713": 1441,
      "##696": 1442,
      "##353": 1443,
      "##306": 1444,
      "##285": 1445,
      "call2": 1446,
      "544": 1447,
      "then10": 1448,
      "##649": 1449,
      "##amic": 1450,
      "##551": 1451,
      "aout": 1452,
      "##357": 1453,
      "##695": 1454,
      "##608": 1455,
      "putx": 1456,
      "expr": 1457,
      "match": 1458,
      "code": 1459,
      "##693": 1460,
      "##ere": 1461,
      "comm": 1462,
      "##te": 1463,
      "##307": 1464,
      "370": 1465,
      "##361": 1466,
      "##647": 1467,
      "##646": 1468,
      "##309": 1469,
      "##341": 1470,
      "247": 1471,
      "##331": 1472,
      "##373": 1473,
      "vector": 1474,
      "make": 1475,
      "##251": 1476,
      "796": 1477,
      "##205": 1478,
      "dynamic": 1479,
      "##642": 1480,
      "265": 1481,
      "note": 1482,
      "##252": 1483,
      "##607": 1484,
      "##393": 1485,
      "##771": 1486,
      "##261": 1487,
      "1540": 1488,
      "##289": 1489,
      "##504": 1490,
      "##206": 1491,
      "##385": 1492,
      "##604": 1493,
      "##599": 1494,
      "458": 1495,
      "time": 1496,
      "##its": 1497,
      "##ans": 1498,
      "##226": 1499,
      "##790": 1500,
      "alloca": 1501,
      "##663": 1502,
      "##262": 1503,
      "hol": 1504,
      "##280": 1505,
      "##347": 1506,
      "##377": 1507,
      "##507": 1508,
      "##key": 1509,
      "##mt": 1510,
      "423": 1511,
      "##381": 1512,
      "1107": 1513,
      "##396": 1514,
      "##371": 1515,
      "par": 1516,
      "##ie": 1517,
      "##276": 1518,
      "external": 1519,
      "##349": 1520,
      "##394": 1521,
      "##gettext": 1522,
      "600": 1523,
      "split": 1524,
      "640": 1525,
      "over": 1526,
      "697": 1527,
      "x509": 1528,
      "##508": 1529,
      "##253": 1530,
      "##272": 1531,
      "##600": 1532,
      "##sert": 1533,
      "ugt": 1534,
      "lineno": 1535,
      "##209": 1536,
      "dcgettext": 1537,
      "##363": 1538,
      "##601": 1539,
      "358": 1540,
      "block": 1541,
      "606": 1542,
      "##380": 1543,
      "374": 1544,
      "##275": 1545,
      "111": 1546,
      "##367": 1547,
      "##240": 1548,
      "orig": 1549,
      "gp": 1550,
      "##547": 1551,
      "790": 1552,
      "##686": 1553,
      "262": 1554,
      "655": 1555,
      "##246": 1556,
      "290": 1557,
      "##690": 1558,
      "##699": 1559,
      "##265": 1560,
      "##247": 1561,
      "ft": 1562,
      "##548": 1563,
      "##681": 1564,
      "hdr": 1565,
      "insert": 1566,
      "745": 1567,
      "root": 1568,
      "##645": 1569,
      "##784": 1570,
      "yy": 1571,
      "end6": 1572,
      "716": 1573,
      "##ain": 1574,
      "res": 1575,
      "480": 1576,
      "##506": 1577,
      "sink": 1578,
      "##arg": 1579,
      "lang": 1580,
      "399": 1581,
      "end3": 1582,
      "##248": 1583,
      "i9": 1584,
      "then4": 1585,
      "sections": 1586,
      "##691": 1587,
      "##ist": 1588,
      "##242": 1589,
      "##505": 1590,
      "##late": 1591,
      "252": 1592,
      "##590": 1593,
      "##706": 1594,
      "base": 1595,
      "##597": 1596,
      "389": 1597,
      "292": 1598,
      "##698": 1599,
      "1626": 1600,
      "319": 1601,
      "##550": 1602,
      "fa": 1603,
      "##501": 1604,
      "##683": 1605,
      "##us": 1606,
      "312": 1607,
      "718": 1608,
      "##684": 1609,
      "##798": 1610,
      "##781": 1611,
      "##241": 1612,
      "##561": 1613,
      "##694": 1614,
      "##wto": 1615,
      "howto": 1616,
      "mb": 1617,
      "##alias": 1618,
      "##572": 1619,
      "##294": 1620,
      "##576": 1621,
      "##680": 1622,
      "##707": 1623,
      "##ignum": 1624,
      "##788": 1625,
      "286": 1626,
      "##782": 1627,
      "##787": 1628,
      "end7": 1629,
      "304": 1630,
      "##mat": 1631,
      "##575": 1632,
      "1570": 1633,
      "##795": 1634,
      "word": 1635,
      "##796": 1636,
      "bignum": 1637,
      "2286": 1638,
      "##558": 1639,
      "glob": 1640,
      "400": 1641,
      "##783": 1642,
      "##503": 1643,
      "##692": 1644,
      "tls": 1645,
      "noalias": 1646,
      "##687": 1647,
      "##502": 1648,
      "##sym": 1649,
      "314": 1650,
      "i40": 1651,
      "i7": 1652,
      "end8": 1653,
      "##flow": 1654,
      "##267": 1655,
      "cmp5": 1656,
      "got": 1657,
      "##563": 1658,
      "##785": 1659,
      "##rel": 1660,
      "3428": 1661,
      "overflow": 1662,
      "739": 1663,
      "##243": 1664,
      "##ages": 1665,
      "##701": 1666,
      "3429": 1667,
      "##609": 1668,
      "##yle": 1669,
      "##708": 1670,
      "##ibut": 1671,
      "712": 1672,
      "540": 1673,
      "##775": 1674,
      "##ep": 1675,
      "##541": 1676,
      "##596": 1677,
      "##746": 1678,
      "##780": 1679,
      "segment": 1680,
      "##606": 1681,
      "##745": 1682,
      "le": 1683,
      "##562": 1684,
      "##682": 1685,
      "##544": 1686,
      "##799": 1687,
      "##545": 1688,
      "##749": 1689,
      "4039": 1690,
      "##792": 1691,
      "mer": 1692,
      "##555": 1693,
      "315": 1694,
      "##540": 1695,
      "end1": 1696,
      "##605": 1697,
      "##244": 1698,
      "##595": 1699,
      "##776": 1700,
      "10616": 1701,
      "##697": 1702,
      "attribut": 1703,
      "##598": 1704,
      "##794": 1705,
      "5661": 1706,
      "##704": 1707,
      "344": 1708,
      "##gth": 1709,
      "##700": 1710,
      "5344": 1711,
      "##554": 1712,
      "4709": 1713,
      "dfa": 1714,
      "cl": 1715,
      "5260": 1716,
      "##589": 1717,
      "##559": 1718,
      "##553": 1719,
      "832": 1720,
      "iter": 1721,
      "500": 1722,
      "##struct": 1723,
      "##797": 1724,
      "pkey": 1725,
      "##552": 1726,
      "##689": 1727,
      "##789": 1728,
      "589": 1729,
      "##786": 1730,
      "695": 1731,
      "##747": 1732,
      "429": 1733,
      "declare": 1734,
      "context": 1735,
      "min": 1736,
      "then1": 1737,
      "fmt": 1738,
      "##742": 1739,
      "##665": 1740,
      "##591": 1741,
      "449": 1742,
      "##546": 1743,
      "26443": 1744,
      "32293": 1745,
      "##245": 1746,
      "##587": 1747,
      "mp": 1748,
      "300": 1749,
      "check": 1750,
      "##594": 1751,
      "2240": 1752,
      "##661": 1753,
      "780": 1754,
      "##666": 1755,
      "strtab": 1756,
      "9117": 1757,
      "##556": 1758,
      "313": 1759,
      "##743": 1760,
      "##571": 1761,
      "style": 1762,
      "##741": 1763,
      "##573": 1764,
      "##565": 1765,
      "709": 1766,
      "##705": 1767,
      "global": 1768,
      "317": 1769,
      "cmp8": 1770,
      "##543": 1771,
      "##523": 1772,
      "##777": 1773,
      "pc": 1774,
      "##580": 1775,
      "##662": 1776,
      "##744": 1777,
      "##ect": 1778,
      "sl": 1779,
      "##521": 1780,
      "##740": 1781,
      "##772": 1782,
      "##567": 1783,
      "then7": 1784,
      "##ors": 1785,
      "##581": 1786,
      "trans": 1787,
      "##586": 1788,
      "335": 1789,
      "unre": 1790,
      "##585": 1791,
      "276": 1792,
      "##549": 1793,
      "area": 1794,
      "##667": 1795,
      "##773": 1796,
      "794": 1797,
      "316": 1798,
      "vma": 1799,
      "##ered": 1800,
      "te": 1801,
      "stab": 1802,
      "715": 1803,
      "##583": 1804,
      "151": 1805,
      "then5": 1806,
      "1032": 1807,
      "func": 1808,
      "##793": 1809,
      "##703": 1810,
      "call3": 1811,
      "call4": 1812,
      "##748": 1813,
      "##back": 1814,
      "##588": 1815,
      "##584": 1816,
      "merge": 1817,
      "##ingle": 1818,
      "single": 1819,
      "296": 1820,
      "##582": 1821,
      "end9": 1822,
      "aut": 1823,
      "tok": 1824,
      "end10": 1825,
      "src": 1826,
      "##print": 1827,
      "cmp6": 1828,
      "save": 1829,
      "272": 1830,
      "oth": 1831,
      "499": 1832,
      "end5": 1833,
      "encount": 1834,
      "encountered": 1835,
      "dir": 1836,
      "##if": 1837,
      "bi": 1838,
      "init": 1839,
      "##arf": 1840,
      "other": 1841,
      "dwarf": 1842,
      "##oper": 1843,
      "484": 1844,
      "549": 1845,
      "length": 1846,
      "order": 1847,
      "##edge": 1848,
      "684": 1849,
      "##act": 1850,
      "gen": 1851,
      "440": 1852,
      "##oint": 1853,
      "key": 1854,
      "##printf": 1855,
      "789": 1856,
      "575": 1857,
      "token": 1858,
      "##ils": 1859,
      "memc": 1860,
      "relocs": 1861,
      "##stream": 1862,
      "7841": 1863,
      "dst": 1864,
      "459": 1865,
      "1620": 1866,
      "callback": 1867,
      "meth": 1868,
      "wide": 1869,
      "##utils": 1870,
      "auth": 1871,
      "##rst": 1872,
      "difile": 1873,
      "##762": 1874,
      "##ber": 1875,
      "299": 1876,
      "##672": 1877,
      "proper": 1878,
      "960": 1879,
      "275": 1880,
      "##ackages": 1881,
      "end12": 1882,
      "708": 1883,
      "##rge": 1884,
      "##her": 1885,
      "##merge": 1886,
      "builds": 1887,
      "849": 1888,
      "749": 1889,
      "##lush": 1890,
      "2300": 1891,
      "chain": 1892,
      "int": 1893,
      "header": 1894,
      "412": 1895,
      "808": 1896,
      "282": 1897,
      "490": 1898,
      "math": 1899,
      "##toint": 1900,
      "ptrtoint": 1901,
      "253": 1902,
      "489": 1903,
      "gener": 1904,
      "302": 1905,
      "##675": 1906,
      "##ert": 1907,
      "sp": 1908,
      "##achable": 1909,
      "##our": 1910,
      "##ies": 1911,
      "590": 1912,
      "look": 1913,
      "350": 1914,
      "mod": 1915,
      "frame": 1916,
      "76022": 1917,
      "unreachable": 1918,
      "cip": 1919,
      "2280": 1920,
      "181": 1921,
      "800": 1922,
      "##is": 1923,
      "1280": 1924,
      "2299": 1925,
      "desc": 1926,
      "##ange": 1927,
      "799": 1928,
      "161": 1929,
      "513": 1930,
      "263": 1931,
      "918": 1932,
      "1564": 1933,
      "2539": 1934,
      "447": 1935,
      "inf": 1936,
      "i49": 1937,
      "332": 1938,
      "##map": 1939,
      "diglobalvariableexpression": 1940,
      "cipher": 1941,
      "309": 1942,
      "273": 1943,
      "394": 1944,
      "from": 1945,
      "534": 1946,
      "415": 1947,
      "then6": 1948,
      "can": 1949,
      "##ld": 1950,
      "ec": 1951,
      "618": 1952,
      "##ass": 1953,
      "##struction": 1954,
      "##765": 1955,
      "07": 1956,
      "instruction": 1957,
      "1168": 1958,
      "287": 1959,
      "##676": 1960,
      "855": 1961,
      "then12": 1962,
      "949": 1963,
      "##865": 1964,
      "i12": 1965,
      "##idd": 1966,
      "599": 1967,
      "end15": 1968,
      "cmp7": 1969,
      "##673": 1970,
      "##andle": 1971,
      "504": 1972,
      "171": 1973,
      "end13": 1974,
      "first": 1975,
      "388": 1976,
      "524": 1977,
      "be": 1978,
      "bits": 1979,
      "494": 1980,
      "rem": 1981,
      "328": 1982,
      "141": 1983,
      "stor": 1984,
      "992": 1985,
      "storage": 1986,
      "number": 1987,
      "01": 1988,
      "find": 1989,
      "tobool2": 1990,
      "560": 1991,
      "ref": 1992,
      "##cket": 1993,
      "717": 1994,
      "1004": 1995,
      "896": 1996,
      "rl": 1997,
      "need": 1998,
      "tobool1": 1999,
      "##671": 2000,
      "444": 2001,
      "329": 2002,
      "295": 2003,
      "##itmp": 2004,
      "phitmp": 2005,
      "1000": 2006,
      "360": 2007,
      "used": 2008,
      "bucket": 2009,
      "359": 2010,
      "##821": 2011,
      "ctype": 2012,
      "lib": 2013,
      "call5": 2014,
      "i48": 2015,
      "lookup": 2016,
      "signed": 2017,
      "890": 2018,
      "fmtstream": 2019,
      "address": 2020,
      "method": 2021,
      "##tes": 2022,
      "338": 2023,
      "940": 2024,
      "1120": 2025,
      "##721": 2026,
      "rpl": 2027,
      "then9": 2028,
      "307": 2029,
      "231": 2030,
      "191": 2031,
      "authors": 2032,
      "04": 2033,
      "1600": 2034,
      "then8": 2035,
      "##763": 2036,
      "724": 2037,
      "flush": 2038,
      "720": 2039,
      "##pt": 2040,
      "##842": 2041,
      "303": 2042,
      "699": 2043,
      "bio": 2044,
      "##861": 2045,
      "fail": 2046,
      "285": 2047,
      "5744": 2048,
      "generic": 2049,
      "##oll": 2050,
      "cr": 2051,
      "##pos": 2052,
      "memcpy": 2053,
      "517": 2054,
      "##841": 2055,
      "283": 2056,
      "##az": 2057,
      "201": 2058,
      "2332": 2059,
      "211": 2060,
      "700": 2061,
      "543": 2062,
      "swap": 2063,
      "archive": 2064,
      "515": 2065,
      "##astate": 2066,
      "546": 2067,
      "221": 2068,
      "2250": 2069,
      "##ms": 2070,
      "htab": 2071,
      "lay": 2072,
      "417": 2073,
      "##play": 2074,
      "i14": 2075,
      "##hdr": 2076,
      "297": 2077,
      "proc": 2078,
      "storemerge": 2079,
      "766": 2080,
      "dfastate": 2081,
      "439": 2082,
      "738": 2083,
      "520": 2084,
      "fin": 2085,
      "end14": 2086,
      "364": 2087,
      "889": 2088,
      "ent": 2089,
      "1102": 2090,
      "2229": 2091,
      "##ase": 2092,
      "464": 2093,
      "840": 2094,
      "878": 2095,
      "934": 2096,
      "false2": 2097,
      "##ndx": 2098,
      "true2": 2099,
      "900": 2100,
      "object": 2101,
      "tmp": 2102,
      "1080": 2103,
      "##cur": 2104,
      "989": 2105,
      "sign": 2106,
      "2164": 2107,
      "##que": 2108,
      "416": 2109,
      "619": 2110,
      "display": 2111,
      "455": 2112,
      "396": 2113,
      "899": 2114,
      "757": 2115,
      "fl": 2116,
      "result": 2117,
      "293": 2118,
      "568": 2119,
      "880": 2120,
      "byte": 2121,
      "398": 2122,
      "2264": 2123,
      "std": 2124,
      "alias": 2125,
      "306": 2126,
      "339": 2127,
      "conv2": 2128,
      "pat": 2129,
      "1664": 2130,
      "old": 2131,
      "epilog593": 2132,
      "ehdr": 2133,
      "368": 2134,
      "attribute": 2135,
      "936": 2136,
      "laz": 2137,
      "lazy": 2138,
      "592": 2139,
      "519": 2140,
      "884": 2141,
      "##ory": 2142,
      "##packages": 2143,
      "otherpackages": 2144,
      "property": 2145,
      "call21": 2146,
      "quotearg": 2147,
      "1119": 2148,
      "740": 2149,
      "prev": 2150,
      "##ess": 2151,
      "1312": 2152,
      "getx32": 2153,
      "##ust": 2154,
      "1638": 2155,
      "584": 2156,
      "2232": 2157,
      "cp": 2158,
      "em": 2159,
      "##890": 2160,
      "##761": 2161,
      "1088": 2162,
      "mode": 2163,
      "i44": 2164,
      "2474": 2165,
      "end17": 2166,
      "format": 2167,
      "##ask": 2168,
      "va": 2169,
      "##ouble": 2170,
      "cmp10": 2171,
      "i19": 2172,
      "2350": 2173,
      "1344": 2174,
      "fprintf": 2175,
      "head": 2176,
      "sig": 2177,
      "command": 2178,
      "##ark": 2179,
      "handle": 2180,
      "1152": 2181,
      "symtab": 2182,
      "438": 2183,
      "680": 2184,
      "double": 2185,
      "565": 2186,
      "strlen": 2187,
      "528": 2188,
      "1559": 2189,
      "1310": 2190,
      "end20": 2191,
      "##ith": 2192,
      "1610": 2193,
      "460": 2194,
      "fts": 2195,
      "690": 2196,
      "1299": 2197,
      "498": 2198,
      "##823": 2199,
      "cmp9": 2200,
      "sizeof": 2201,
      "369": 2202,
      "479": 2203,
      "pad": 2204,
      "1216": 2205,
      "334": 2206,
      "691": 2207,
      "420": 2208,
      "432": 2209,
      "the": 2210,
      "639": 2211,
      "##gin": 2212,
      "729": 2213,
      "process": 2214,
      "1040": 2215,
      "##ong": 2216,
      "1499": 2217,
      "1048": 2218,
      "939": 2219,
      "rele": 2220,
      "putx32": 2221,
      "1159": 2222,
      "327": 2223,
      "##buf": 2224,
      "1408": 2225,
      "2420": 2226,
      "1340": 2227,
      "750": 2228,
      "##849": 2229,
      "##gep": 2230,
      "798": 2231,
      "then13": 2232,
      "514": 2233,
      "i13": 2234,
      "241": 2235,
      "call10": 2236,
      "469": 2237,
      "419": 2238,
      "386": 2239,
      "2432": 2240,
      "ou": 2241,
      "1010": 2242,
      "532": 2243,
      "##sec": 2244,
      "mpz": 2245,
      "430": 2246,
      "##mon": 2247,
      "call8": 2248,
      "##807": 2249,
      "##481": 2250,
      "##ative": 2251,
      "wc": 2252,
      "backedge": 2253,
      "974": 2254,
      "i18": 2255,
      "668": 2256,
      "##sion": 2257,
      "550": 2258,
      "734": 2259,
      "printing": 2260,
      "ld": 2261,
      "##vers": 2262,
      "820": 2263,
      "mark": 2264,
      "570": 2265,
      "1038": 2266,
      "##ved": 2267,
      "434": 2268,
      "516": 2269,
      "510": 2270,
      "midd": 2271,
      "middle": 2272,
      "436": 2273,
      "05": 2274,
      "md": 2275,
      "828": 2276,
      "tm": 2277,
      "706": 2278,
      "714": 2279,
      "##sz": 2280,
      "2048": 2281,
      "470": 2282,
      "1728": 2283,
      "call6": 2284,
      "1440": 2285,
      "end11": 2286,
      "779": 2287,
      "980": 2288,
      "322": 2289,
      "niter": 2290,
      "624": 2291,
      "990": 2292,
      "1240": 2293,
      "2454": 2294,
      "syment": 2295,
      "versym": 2296,
      "2239": 2297,
      "slot": 2298,
      "555": 2299,
      "608": 2300,
      "i17": 2301,
      "397": 2302,
      "604": 2303,
      "617": 2304,
      "305": 2305,
      "984": 2306,
      "curre": 2307,
      "##spec": 2308,
      "2540": 2309,
      "bb3": 2310,
      "neg": 2311,
      "465": 2312,
      "518": 2313,
      "352": 2314,
      "569": 2315,
      "938": 2316,
      "sce": 2317,
      "scev": 2318,
      "temp": 2319,
      "594": 2320,
      "##487": 2321,
      "##488": 2322,
      "357": 2323,
      "fd": 2324,
      "common": 2325,
      "1290": 2326,
      "1084": 2327,
      "844": 2328,
      "bytes": 2329,
      "670": 2330,
      "759": 2331,
      "669": 2332,
      "ass": 2333,
      "870": 2334,
      "818": 2335,
      "650": 2336,
      "1140": 2337,
      "1284": 2338,
      "2747": 2339,
      "gc": 2340,
      "418": 2341,
      "474": 2342,
      "450": 2343,
      "##486": 2344,
      "1099": 2345,
      "##493": 2346,
      "323": 2347,
      "1500": 2348,
      "current": 2349,
      "##863": 2350,
      "end16": 2351,
      "410": 2352,
      "constu": 2353,
      "high": 2354,
      "468": 2355,
      "##char": 2356,
      "##ssion": 2357,
      "428": 2358,
      "frag": 2359,
      "up": 2360,
      "##stack": 2361,
      "##none": 2362,
      "538": 2363,
      "##load": 2364,
      "2230": 2365,
      "readnone": 2366,
      "with": 2367,
      "558": 2368,
      "i38": 2369,
      "coreutils": 2370,
      "bb2": 2371,
      "##arch": 2372,
      "27042": 2373,
      "on": 2374,
      "scevgep": 2375,
      "869": 2376,
      "##894": 2377,
      "open": 2378,
      "##ash": 2379,
      "inflate": 2380,
      "3554": 2381,
      "744": 2382,
      "376": 2383,
      "994": 2384,
      "dis386": 2385,
      "10960": 2386,
      "##888": 2387,
      "730": 2388,
      "1190": 2389,
      "527": 2390,
      "2718": 2391,
      "728": 2392,
      "end18": 2393,
      "point": 2394,
      "pp": 2395,
      "507": 2396,
      "##mpty": 2397,
      "1186": 2398,
      "337": 2399,
      "839": 2400,
      "1249": 2401,
      "478": 2402,
      "932": 2403,
      "body2": 2404,
      "cmp11": 2405,
      "1078": 2406,
      "536": 2407,
      "864": 2408,
      "251": 2409,
      "679": 2410,
      "2712": 2411,
      "##aw": 2412,
      "3555": 2413,
      "1090": 2414,
      "1200": 2415,
      "281": 2416,
      "outer": 2417,
      "##elf": 2418,
      "1067": 2419,
      "755": 2420,
      "1069": 2421,
      "336": 2422,
      "copyload": 2423,
      "660": 2424,
      "2234": 2425,
      "##state": 2426,
      "496": 2427,
      "1556": 2428,
      "950": 2429,
      "##ire": 2430,
      "##885": 2431,
      "824": 2432,
      "879": 2433,
      "2269": 2434,
      "1780": 2435,
      "empty": 2436,
      "call7": 2437,
      "##843": 2438,
      "##ource": 2439,
      "614": 2440,
      "2049": 2441,
      "2757": 2442,
      "1149": 2443,
      "404": 2444,
      "778": 2445,
      "##862": 2446,
      "694": 2447,
      "##list": 2448,
      "1199": 2449,
      "1890": 2450,
      "1018": 2451,
      "##lude": 2452,
      "03": 2453,
      "819": 2454,
      "i34": 2455,
      "##version": 2456,
      "689": 2457,
      "1589": 2458,
      "timespec": 2459,
      "999": 2460,
      "1532": 2461,
      "##sent": 2462,
      "2418": 2463,
      "##ir": 2464,
      "719": 2465,
      "##ond": 2466,
      "2244": 2467,
      "816": 2468,
      "356": 2469,
      "609": 2470,
      "cmp12": 2471,
      "mach": 2472,
      "632": 2473,
      "1189": 2474,
      "5434": 2475,
      "##407": 2476,
      "91745": 2477,
      "relax": 2478,
      "cmp14": 2479,
      "564": 2480,
      "1089": 2481,
      "3487": 2482,
      "382": 2483,
      "argv": 2484,
      "nodes": 2485,
      "834": 2486,
      "4246": 2487,
      "##lose": 2488,
      "4858": 2489,
      "1049": 2490,
      "769": 2491,
      "5421": 2492,
      "1480": 2493,
      "vec": 2494,
      "long": 2495,
      "1128": 2496,
      "1180": 2497,
      "cie": 2498,
      "##uf": 2499,
      "529": 2500,
      "sa": 2501,
      "919": 2502,
      "770": 2503,
      "relent": 2504,
      "##404": 2505,
      "1070": 2506,
      "symbols": 2507,
      "1124": 2508,
      "entry1": 2509,
      "6569": 2510,
      "929": 2511,
      "##445": 2512,
      "636": 2513,
      "748": 2514,
      "1999": 2515,
      "7041": 2516,
      "ftsent": 2517,
      "##ace": 2518,
      "hold": 2519,
      "466": 2520,
      "elf32": 2521,
      "815": 2522,
      "have": 2523,
      "alignment": 2524,
      "1134": 2525,
      "##845": 2526,
      "then14": 2527,
      "2119": 2528,
      "554": 2529,
      "977": 2530,
      "##402": 2531,
      "345": 2532,
      "959": 2533,
      "1650": 2534,
      "1536": 2535,
      "610": 2536,
      "968": 2537,
      "1100": 2538,
      "dt": 2539,
      "arrayidx2": 2540,
      "804": 2541,
      "##132": 2542,
      "628": 2543,
      "recur": 2544,
      "509": 2545,
      "11911": 2546,
      "732": 2547,
      "mask": 2548,
      "964": 2549,
      "607": 2550,
      "1259": 2551,
      "##one": 2552,
      "memset": 2553,
      "924": 2554,
      "620": 2555,
      "782": 2556,
      "1380": 2557,
      "elf64": 2558,
      "tobool4": 2559,
      "508": 2560,
      "1094": 2561,
      "1117": 2562,
      "26512": 2563,
      "1055": 2564,
      "2112": 2565,
      "##idth": 2566,
      "09": 2567,
      "579": 2568,
      "943": 2569,
      "99228": 2570,
      "i20": 2571,
      "559": 2572,
      "483": 2573,
      "3488": 2574,
      "cre": 2575,
      "1132": 2576,
      "1400": 2577,
      "33576": 2578,
      "813": 2579,
      "1549": 2580,
      "2121": 2581,
      "2249": 2582,
      "##844": 2583,
      "377": 2584,
      "698": 2585,
      "678": 2586,
      "1568": 2587,
      "##aux": 2588,
      "##483": 2589,
      "497": 2590,
      "1920": 2591,
      "##ps": 2592,
      "613": 2593,
      "statement": 2594,
      "539": 2595,
      "629": 2596,
      "1490": 2597,
      "954": 2598,
      "947": 2599,
      "1844": 2600,
      "814": 2601,
      "conv16": 2602,
      "930": 2603,
      "683": 2604,
      "291": 2605,
      "##off": 2606,
      "1289": 2607,
      "1130": 2608,
      "854": 2609,
      "1160": 2610,
      "i39": 2611,
      "args": 2612,
      "958": 2613,
      "437": 2614,
      "912": 2615,
      "compat": 2616,
      "1349": 2617,
      "2399": 2618,
      "mult": 2619,
      "405": 2620,
      "674": 2621,
      "1578": 2622,
      "wind": 2623,
      "409": 2624,
      "758": 2625,
      "920": 2626,
      "##881": 2627,
      "830": 2628,
      "pare": 2629,
      "944": 2630,
      "variable": 2631,
      "i23": 2632,
      "477": 2633,
      "1449": 2634,
      "special": 2635,
      "2270": 2636,
      "915": 2637,
      "612": 2638,
      "615": 2639,
      "##482": 2640,
      "78478": 2641,
      "414": 2642,
      "##847": 2643,
      "634": 2644,
      "##okie": 2645,
      "979": 2646,
      "then11": 2647,
      "810": 2648,
      "1699": 2649,
      "366": 2650,
      "467": 2651,
      "##num": 2652,
      "cookie": 2653,
      "##887": 2654,
      "838": 2655,
      "1064": 2656,
      "2199": 2657,
      "860": 2658,
      "829": 2659,
      "parent": 2660,
      "##848": 2661,
      "807": 2662,
      "406": 2663,
      "1924": 2664,
      "969": 2665,
      "1474": 2666,
      "1612": 2667,
      "1472": 2668,
      "343": 2669,
      "##ek": 2670,
      "parse": 2671,
      "333": 2672,
      "parser": 2673,
      "##800": 2674,
      "928": 2675,
      "2318": 2676,
      "664": 2677,
      "1390": 2678,
      "##ard": 2679,
      "408": 2680,
      "1228": 2681,
      "1614": 2682,
      "530": 2683,
      "1034": 2684,
      "i29": 2685,
      "window": 2686,
      "1046": 2687,
      "ptr2": 2688,
      "1389": 2689,
      "1177": 2690,
      "then15": 2691,
      "1899": 2692,
      "1178": 2693,
      "##wn": 2694,
      "1300": 2695,
      "710": 2696,
      "2926": 2697,
      "##405": 2698,
      "needed": 2699,
      "908": 2700,
      "i30": 2701,
      "del": 2702,
      "end22": 2703,
      "1599": 2704,
      "1560": 2705,
      "326": 2706,
      "638": 2707,
      "1799": 2708,
      "1900": 2709,
      "387": 2710,
      "cmp17": 2711,
      "i50": 2712,
      "4045": 2713,
      "7978": 2714,
      "630": 2715,
      "823": 2716,
      "898": 2717,
      "4256": 2718,
      "1234": 2719,
      "1489": 2720,
      "1874": 2721,
      "pos": 2722,
      "1068": 2723,
      "422": 2724,
      "malloc": 2725,
      "tobool3": 2726,
      "bound": 2727,
      "##ix": 2728,
      "2984": 2729,
      "##883": 2730,
      "567": 2731,
      "1278": 2732,
      "894": 2733,
      "##494": 2734,
      "cmp13": 2735,
      "858": 2736,
      "955": 2737,
      "1969": 2738,
      "##core": 2739,
      "1455": 2740,
      "868": 2741,
      "##801": 2742,
      "413": 2743,
      "411": 2744,
      "callbacks": 2745,
      "width": 2746,
      "2360": 2747,
      "prof": 2748,
      "vn": 2749,
      "##400": 2750,
      "1464": 2751,
      "978": 2752,
      "1212": 2753,
      "24811": 2754,
      "else2": 2755,
      "1789": 2756,
      "use": 2757,
      "774": 2758,
      "1258": 2759,
      "4259": 2760,
      "self": 2761,
      "end19": 2762,
      "then16": 2763,
      "##803": 2764,
      "ite": 2765,
      "1884": 2766,
      "970": 2767,
      "add2": 2768,
      "conf": 2769,
      "sre": 2770,
      "##805": 2771,
      "4791": 2772,
      "##sp": 2773,
      "bb1": 2774,
      "271": 2775,
      "i37": 2776,
      "##463": 2777,
      "entries": 2778,
      "cmp16": 2779,
      "1028": 2780,
      "1529": 2781,
      "win": 2782,
      "an": 2783,
      "##485": 2784,
      "533": 2785,
      "1184": 2786,
      "##804": 2787,
      "##ob": 2788,
      "817": 2789,
      "1790": 2790,
      "06": 2791,
      "then20": 2792,
      "1015": 2793,
      "2174": 2794,
      "1074": 2795,
      "body4": 2796,
      "874": 2797,
      "914": 2798,
      "syms": 2799,
      "location": 2800,
      "346": 2801,
      "1359": 2802,
      "then19": 2803,
      "850": 2804,
      "1889": 2805,
      "##4967": 2806,
      "5266": 2807,
      "1370": 2808,
      "1717": 2809,
      "then17": 2810,
      "##808": 2811,
      "1110": 2812,
      "1339": 2813,
      "1517": 2814,
      "2000": 2815,
      "##ower": 2816,
      "1912": 2817,
      "zero": 2818,
      "raw": 2819,
      "385": 2820,
      "##ymbol": 2821,
      "1834": 2822,
      "filepos": 2823,
      "1129": 2824,
      "1539": 2825,
      "pn": 2826,
      "strcmp": 2827,
      "plugin": 2828,
      "578": 2829,
      "1054": 2830,
      "812": 2831,
      "261": 2832,
      "##443": 2833,
      "1214": 2834,
      "1250": 2835,
      "1964": 2836,
      "1629": 2837,
      "457": 2838,
      "call11": 2839,
      "1700": 2840,
      "1684": 2841,
      "end21": 2842,
      "1154": 2843,
      "errno": 2844,
      "797": 2845,
      "1724": 2846,
      "1019": 2847,
      "1419": 2848,
      "597": 2849,
      "937": 2850,
      "1415": 2851,
      "then18": 2852,
      "##ary": 2853,
      "2688": 2854,
      "598": 2855,
      "1714": 2856,
      "i54": 2857,
      "2746": 2858,
      "1009": 2859,
      "gpoll": 2860,
      "aux": 2861,
      "exitc": 2862,
      "exitcond": 2863,
      "recursion": 2864,
      "##ild": 2865,
      "347": 2866,
      "1879": 2867,
      "1378": 2868,
      "1534": 2869,
      "1115": 2870,
      "367": 2871,
      "2200": 2872,
      "##806": 2873,
      "5667": 2874,
      "916": 2875,
      "##409": 2876,
      "1618": 2877,
      "##stat": 2878,
      "10637": 2879,
      "1520": 2880,
      "pret": 2881,
      "1268": 2882,
      "build": 2883,
      "xtr": 2884,
      "end24": 2885,
      "1984": 2886,
      "5422": 2887,
      "1135": 2888,
      "365": 2889,
      "10622": 2890,
      "memory": 2891,
      "1749": 2892,
      "##ift": 2893,
      "426": 2894,
      "1830": 2895,
      "1439": 2896,
      "call9": 2897,
      "1779": 2898,
      "1204": 2899,
      "1948": 2900,
      "487": 2901,
      "537": 2902,
      "777": 2903,
      "1460": 2904,
      "create": 2905,
      "1379": 2906,
      "valid": 2907,
      "dest": 2908,
      "76011": 2909,
      "2176": 2910,
      "4294967": 2911,
      "1524": 2912,
      "1554": 2913,
      "1430": 2914,
      "item": 2915,
      "1158": 2916,
      "1384": 2917,
      "1079": 2918,
      "1044": 2919,
      "1309": 2920,
      "xtra": 2921,
      "375": 2922,
      "747": 2923,
      "1164": 2924,
      "1150": 2925,
      "1840": 2926,
      "2099": 2927,
      "unlock": 2928,
      "1118": 2929,
      "1913": 2930,
      "1800": 2931,
      "xtraiter": 2932,
      "1114": 2933,
      "1012": 2934,
      "low": 2935,
      "1318": 2936,
      "1869": 2937,
      "696": 2938,
      "end25": 2939,
      "1059": 2940,
      "##896": 2941,
      "mon": 2942,
      "1198": 2943,
      "##ec": 2944,
      "1555": 2945,
      "1368": 2946,
      "vern": 2947,
      "435": 2948,
      "opa": 2949,
      "cond1": 2950,
      "1949": 2951,
      "opaque": 2952,
      "##461": 2953,
      "##802": 2954,
      "##809": 2955,
      "522": 2956,
      "1410": 2957,
      "1858": 2958,
      "1350": 2959,
      "910": 2960,
      "##unk": 2961,
      "1424": 2962,
      "##898": 2963,
      "1315": 2964,
      "501": 2965,
      "1868": 2966,
      "handler": 2967,
      "764": 2968,
      "add4": 2969,
      "1229": 2970,
      "1660": 2971,
      "1210": 2972,
      "1459": 2973,
      "1050": 2974,
      "1478": 2975,
      "attributes": 2976,
      "1958": 2977,
      "596": 2978,
      "1558": 2979,
      "1658": 2980,
      "654": 2981,
      "1628": 2982,
      "2449": 2983,
      "1428": 2984,
      "913": 2985,
      "2400": 2986,
      "32299": 2987,
      "26500": 2988,
      "787": 2989,
      "506": 2990,
      "809": 2991,
      "909": 2992,
      "conv19": 2993,
      "pretty": 2994,
      "362": 2995,
      "1504": 2996,
      "##840": 2997,
      "1332": 2998,
      "754": 2999,
      "1619": 3000,
      "1239": 3001,
      "i28": 3002,
      "542": 3003,
      "1030": 3004,
      "1399": 3005,
      "##406": 3006,
      "311": 3007,
      "vd": 3008,
      "mangle": 3009,
      "1639": 3010,
      "strm": 3011,
      "status": 3012,
      "1470": 3013,
      "1932": 3014,
      "1654": 3015,
      "1170": 3016,
      "1155": 3017,
      "1230": 3018,
      "template": 3019,
      "1016": 3020,
      "1928": 3021,
      "##osition": 3022,
      "547": 3023,
      "1839": 3024,
      "final": 3025,
      "##408": 3026,
      "##891": 3027,
      "sk": 3028,
      "926": 3029,
      "fde": 3030,
      "1254": 3031,
      "1093": 3032,
      "1112": 3033,
      "of": 3034,
      "1519": 3035,
      "minus": 3036,
      "full": 3037,
      "627": 3038,
      "1369": 3039,
      "2114": 3040,
      "859": 3041,
      "1224": 3042,
      "888": 3043,
      "456": 3044,
      "##uc": 3045,
      "##895": 3046,
      "##ak": 3047,
      "1317": 3048,
      "i15": 3049,
      "11030": 3050,
      "1039": 3051,
      "622": 3052,
      "806": 3053,
      "1005": 3054,
      "1659": 3055,
      "1017": 3056,
      "1113": 3057,
      "2218": 3058,
      "1429": 3059,
      "##897": 3060,
      "642": 3061,
      "1060": 3062,
      "2368": 3063,
      "##403": 3064,
      "805": 3065,
      "586": 3066,
      "342": 3067,
      "526": 3068,
      "1013": 3069,
      "1634": 3070,
      "1338": 3071,
      "1828": 3072,
      "ib": 3073,
      "1006": 3074,
      "include": 3075,
      "##893": 3076,
      "##401": 3077,
      "666": 3078,
      "1116": 3079,
      "402": 3080,
      "1058": 3081,
      "441": 3082,
      "2080": 3083,
      "1655": 3084,
      "1670": 3085,
      "1179": 3086,
      "726": 3087,
      "1712": 3088,
      "##112": 3089,
      "1829": 3090,
      "1215": 3091,
      "1939": 3092,
      "##899": 3093,
      "##malloc": 3094,
      "2115": 3095,
      "unlocked": 3096,
      "1495": 3097,
      "1528": 3098,
      "per": 3099,
      "1479": 3100,
      "1792": 3101,
      "1754": 3102,
      "1624": 3103,
      "##119": 3104,
      "##846": 3105,
      "482": 3106,
      "2619": 3107,
      "1194": 3108,
      "1420": 3109,
      "cmp18": 3110,
      "1260": 3111,
      "395": 3112,
      "71896": 3113,
      "877": 3114,
      "extra": 3115,
      "1374": 3116,
      "1594": 3117,
      "war": 3118,
      "407": 3119,
      "imm": 3120,
      "##to": 3121,
      "1450": 3122,
      "##ated": 3123,
      "616": 3124,
      "737": 3125,
      "1454": 3126,
      "1917": 3127,
      "1615": 3128,
      "1394": 3129,
      "2090": 3130,
      "words": 3131,
      "904": 3132,
      "1217": 3133,
      "1022": 3134,
      "1279": 3135,
      "71695": 3136,
      "pcrel": 3137,
      "lin": 3138,
      "call12": 3139,
      "1959": 3140,
      "658": 3141,
      "1768": 3142,
      "11058": 3143,
      "1269": 3144,
      "1538": 3145,
      "495": 3146,
      "587": 3147,
      "enco": 3148,
      "1219": 3149,
      "1690": 3150,
      "08": 3151,
      "##debug": 3152,
      "71302": 3153,
      "681": 3154,
      "363": 3155,
      "1029": 3156,
      "1270": 3157,
      "1778": 3158,
      "595": 3159,
      "##gn": 3160,
      "1220": 3161,
      "mangled": 3162,
      "tobool6": 3163,
      "1679": 3164,
      "1360": 3165,
      "##892": 3166,
      "996": 3167,
      "71320": 3168,
      "1850": 3169,
      "2359": 3170,
      "2349": 3171,
      "1264": 3172,
      "1196": 3173,
      "1514": 3174,
      "1550": 3175,
      "393": 3176,
      "69568": 3177,
      "1760": 3178,
      "verdef": 3179,
      "69603": 3180,
      "70221": 3181,
      "442": 3182,
      "1856": 3183,
      "power": 3184,
      "848": 3185,
      "948": 3186,
      "767": 3187,
      "1950": 3188,
      "end27": 3189,
      "2419": 3190,
      "warn": 3191,
      "4268": 3192,
      "2450": 3193,
      "2334": 3194,
      "2379": 3195,
      "1144": 3196,
      "1096": 3197,
      "linux": 3198,
      "i22": 3199,
      "1864": 3200,
      "1849": 3201,
      "427": 3202,
      "1590": 3203,
      "659": 3204,
      "1434": 3205,
      "1715": 3206,
      "010": 3207,
      "1246": 3208,
      "2378": 3209,
      "abb": 3210,
      "end26": 3211,
      "##realloc": 3212,
      "372": 3213,
      "1364": 3214,
      "##rev": 3215,
      "502": 3216,
      "1169": 3217,
      "1417": 3218,
      "2426": 3219,
      "3159": 3220,
      "2439": 3221,
      "2028": 3222,
      "637": 3223,
      "1138": 3224,
      "1008": 3225,
      "1238": 3226,
      "1304": 3227,
      "1930": 3228,
      "2108": 3229,
      "add3": 3230,
      "fil": 3231,
      "1968": 3232,
      "2384": 3233,
      "##pper": 3234,
      "1870": 3235,
      "1929": 3236,
      "end23": 3237,
      "677": 3238,
      "1740": 3239,
      "1854": 3240,
      "7296": 3241,
      "tv": 3242,
      "short": 3243,
      "##md": 3244,
      "652": 3245,
      "cond2": 3246,
      "gpollfd": 3247,
      "702": 3248,
      "488": 3249,
      "588": 3250,
      "close": 3251,
      "1819": 3252,
      "1404": 3253,
      "392": 3254,
      "1255": 3255,
      "2428": 3256,
      "1274": 3257,
      "1878": 3258,
      "1244": 3259,
      "1739": 3260,
      "2070": 3261,
      "text": 3262,
      "body6": 3263,
      "1448": 3264,
      "keep": 3265,
      "688": 3266,
      "1719": 3267,
      "2214": 3268,
      "486": 3269,
      "2438": 3270,
      "##addr": 3271,
      "1494": 3272,
      "1574": 3273,
      "1657": 3274,
      "1755": 3275,
      "layout": 3276,
      "end28": 3277,
      "body18": 3278,
      "1617": 3279,
      "676": 3280,
      "425": 3281,
      "2259": 3282,
      "1518": 3283,
      "2254": 3284,
      "##b128": 3285,
      "conv7": 3286,
      "1810": 3287,
      "##497": 3288,
      "1412": 3289,
      "1176": 3290,
      "##491": 3291,
      "1414": 3292,
      "2018": 3293,
      "inc2": 3294,
      "476": 3295,
      "range": 3296,
      "1784": 3297,
      "577": 3298,
      "847": 3299,
      "##114": 3300,
      "735": 3301,
      "1218": 3302,
      "1512": 3303,
      "997": 3304,
      "2079": 3305,
      "2113": 3306,
      "gep": 3307,
      "1104": 3308,
      "1940": 3309,
      "1354": 3310,
      "1630": 3311,
      "2010": 3312,
      "2030": 3313,
      "2038": 3314,
      "2339": 3315,
      "1579": 3316,
      "1938": 3317,
      "end34": 3318,
      "1213": 3319,
      "##444": 3320,
      "##ctx": 3321,
      "2560": 3322,
      "1438": 3323,
      "##492": 3324,
      "sub15": 3325,
      "1468": 3326,
      "1668": 3327,
      "1334": 3328,
      "1530": 3329,
      "625": 3330,
      "1047": 3331,
      "1645": 3332,
      "2310": 3333,
      "relative": 3334,
      "2315": 3335,
      "786": 3336,
      "1513": 3337,
      "##plt": 3338,
      "2370": 3339,
      "ptr25": 3340,
      "##ssl": 3341,
      "1764": 3342,
      "1730": 3343,
      "361": 3344,
      "826": 3345,
      "2255": 3346,
      "1632": 3347,
      "3030": 3348,
      "1035": 3349,
      "1109": 3350,
      "535": 3351,
      "1980": 3352,
      "bn": 3353,
      "1136": 3354,
      "2335": 3355,
      "##ypt": 3356,
      "475": 3357,
      "##498": 3358,
      "1915": 3359,
      "2017": 3360,
      "assert": 3361,
      "2458": 3362,
      "10625": 3363,
      "1232": 3364,
      "2020": 3365,
      "2464": 3366,
      "7946": 3367,
      "2058": 3368,
      "1832": 3369,
      "##118": 3370,
      "obstack": 3371,
      "446": 3372,
      "493": 3373,
      "1955": 3374,
      "abbrev": 3375,
      "2265": 3376,
      "then24": 3377,
      "1235": 3378,
      "562": 3379,
      "1970": 3380,
      "1469": 3381,
      "1758": 3382,
      "1358": 3383,
      "1072": 3384,
      "1308": 3385,
      "1815": 3386,
      "2558": 3387,
      "1966": 3388,
      "1769": 3389,
      "chunk": 3390,
      "1584": 3391,
      "623": 3392,
      "1818": 3393,
      "##496": 3394,
      "##date": 3395,
      "1510": 3396,
      "649": 3397,
      "1188": 3398,
      "pred": 3399,
      "722": 3400,
      "funcinfo": 3401,
      "3028": 3402,
      "clang": 3403,
      "1416": 3404,
      "printf": 3405,
      "373": 3406,
      "i27": 3407,
      "2340": 3408,
      "1669": 3409,
      "cmp15": 3410,
      "2089": 3411,
      "body3": 3412,
      "1689": 3413,
      "##untime": 3414,
      "572": 3415,
      "user": 3416,
      "runtime": 3417,
      "2274": 3418,
      "2354": 3419,
      "1319": 3420,
      "1997": 3421,
      "1732": 3422,
      "2440": 3423,
      "##div": 3424,
      "788": 3425,
      "1678": 3426,
      "flo": 3427,
      "all": 3428,
      "##unit": 3429,
      "##uff": 3430,
      "1205": 3431,
      "2024": 3432,
      "2078": 3433,
      "2084": 3434,
      "1330": 3435,
      "2059": 3436,
      "true6": 3437,
      "3046": 3438,
      "705": 3439,
      "2015": 3440,
      "fragment": 3441,
      "2490": 3442,
      "##va": 3443,
      "##hex": 3444,
      "2460": 3445,
      "2064": 3446,
      "682": 3447,
      "##wd": 3448,
      "2469": 3449,
      "453": 3450,
      "hook": 3451,
      "2068": 3452,
      "462": 3453,
      "##alt": 3454,
      "2552": 3455,
      "1045": 3456,
      "1604": 3457,
      "2453": 3458,
      "float": 3459,
      "2120": 3460,
      "##ums": 3461,
      "2267": 3462,
      "556": 3463,
      "##110": 3464,
      "cmp19": 3465,
      "2132": 3466,
      "p6": 3467,
      "1458": 3468,
      "1313": 3469,
      "2110": 3470,
      "slotvec": 3471,
      "473": 3472,
      "2129": 3473,
      "2455": 3474,
      "792": 3475,
      "2212": 3476,
      "2014": 3477,
      "1718": 3478,
      "1314": 3479,
      "ign": 3480,
      "1922": 3481,
      "1978": 3482,
      "1640": 3483,
      "1355": 3484,
      "1139": 3485,
      "armap": 3486,
      "1432": 3487,
      "492": 3488,
      "998": 3489,
      "##cl": 3490,
      "1066": 3491,
      "2314": 3492,
      "1644": 3493,
      "1108": 3494,
      "1838": 3495,
      "##490": 3496,
      "1734": 3497,
      "##442": 3498,
      "call15": 3499,
      "672": 3500,
      "canon": 3501,
      "2312": 3502,
      "2290": 3503,
      "1248": 3504,
      "1824": 3505,
      "1316": 3506,
      "2054": 3507,
      "exact": 3508,
      "631": 3509,
      "1855": 3510,
      "bk": 3511,
      "648": 3512,
      "1910": 3513,
      "746": 3514,
      "1056": 3515,
      "846": 3516,
      "1484": 3517,
      "2260": 3518,
      "emi": 3519,
      "##0000": 3520,
      "1616": 3521,
      "1812": 3522,
      "1516": 3523,
      "1677": 3524,
      "##495": 3525,
      "1666": 3526,
      "2139": 3527,
      "1848": 3528,
      "2116": 3529,
      "1125": 3530,
      "1569": 3531,
      "2304": 3532,
      "2032": 3533,
      "program": 3534,
      "503": 3535,
      "2055": 3536,
      "2380": 3537,
      "511": 3538,
      "2430": 3539,
      "1694": 3540,
      "i25": 3541,
      "2317": 3542,
      "433": 3543,
      "1860": 3544,
      "907": 3545,
      "935": 3546,
      "945": 3547,
      "##447": 3548,
      "xmalloc": 3549,
      "##file": 3550,
      "##115": 3551,
      "pk": 3552,
      "2117": 3553,
      "1989": 3554,
      "putx16": 3555,
      "1729": 3556,
      "1710": 3557,
      "1209": 3558,
      "names": 3559,
      "1680": 3560,
      "1716": 3561,
      "##499": 3562,
      "1127": 3563,
      "2330": 3564,
      "##113": 3565,
      "525": 3566,
      "2016": 3567,
      "2389": 3568,
      "i26": 3569,
      "1674": 3570,
      "2374": 3571,
      "2268": 3572,
      "1750": 3573,
      "abort": 3574,
      "##116": 3575,
      "##tin": 3576,
      "2470": 3577,
      "736": 3578,
      "2319": 3579,
      "1287": 3580,
      "644": 3581,
      "1077": 3582,
      "call13": 3583,
      "731": 3584,
      "1613": 3585,
      "1667": 3586,
      "1148": 3587,
      "1294": 3588,
      "1738": 3589,
      "1919": 3590,
      "##sn": 3591,
      "dup": 3592,
      "1418": 3593,
      "child": 3594,
      "2413": 3595,
      "756": 3596,
      "585": 3597,
      "1774": 3598,
      "2754": 3599,
      "2417": 3600,
      "mul17": 3601,
      "usr": 3602,
      "452": 3603,
      "i58": 3604,
      "1324": 3605,
      "1497": 3606,
      "1377": 3607,
      "1960": 3608,
      "1206": 3609,
      "bb4": 3610,
      "2258": 3611,
      "false14": 3612,
      "1098": 3613,
      "2012": 3614,
      "1990": 3615,
      "866": 3616,
      "2074": 3617,
      "1025": 3618,
      "langu": 3619,
      "2060": 3620,
      "1880": 3621,
      "ignore": 3622,
      "language": 3623,
      "4294967295": 3624,
      "##446": 3625,
      "2228": 3626,
      "##ding": 3627,
      "1042": 3628,
      "then21": 3629,
      "so": 3630,
      "2719": 3631,
      "1413": 3632,
      "301": 3633,
      "1208": 3634,
      "2215": 3635,
      "1974": 3636,
      "776": 3637,
      "2238": 3638,
      "2429": 3639,
      "i55": 3640,
      "353": 3641,
      "1409": 3642,
      "1622": 3643,
      "2559": 3644,
      "2069": 3645,
      "1686": 3646,
      "1580": 3647,
      "2224": 3648,
      "1477": 3649,
      "1894": 3650,
      "2919": 3651,
      "656": 3652,
      "extend": 3653,
      "946": 3654,
      "1037": 3655,
      "cleanup4": 3656,
      "3139": 3657,
      "1954": 3658,
      "call14": 3659,
      "1166": 3660,
      "true3": 3661,
      "445": 3662,
      "1720": 3663,
      "2213": 3664,
      "2923": 3665,
      "2013": 3666,
      "897": 3667,
      "1023": 3668,
      "2414": 3669,
      "##just": 3670,
      "557": 3671,
      "763": 3672,
      "com": 3673,
      "1979": 3674,
      "647": 3675,
      "4254": 3676,
      "2444": 3677,
      "prod": 3678,
      "1918": 3679,
      "1608": 3680,
      "2216": 3681,
      "pattern": 3682,
      "2434": 3683,
      "1827": 3684,
      "i47": 3685,
      "##mbuf": 3686,
      "2415": 3687,
      "966": 3688,
      "602": 3689,
      "852": 3690,
      "321": 3691,
      "linker": 3692,
      "2019": 3693,
      "1388": 3694,
      "getx16": 3695,
      "2278": 3696,
      "##ucer": 3697,
      "##kind": 3698,
      "1916": 3699,
      "##write": 3700,
      "2034": 3701,
      "critedge": 3702,
      "producer": 3703,
      "scal": 3704,
      "573": 3705,
      "ashr": 3706,
      "2358": 3707,
      "end31": 3708,
      "2390": 3709,
      "856": 3710,
      "2752": 3711,
      "842": 3712,
      "927": 3713,
      "i90": 3714,
      "2029": 3715,
      "2039": 3716,
      "2082": 3717,
      "extract": 3718,
      "1397": 3719,
      "c99": 3720,
      "2050": 3721,
      "linked": 3722,
      "733": 3723,
      "1817": 3724,
      "##ileunit": 3725,
      "enums": 3726,
      "dicompileunit": 3727,
      "##ssionkind": 3728,
      "fulldebug": 3729,
      "runtimeversion": 3730,
      "emissionkind": 3731,
      "2410": 3732,
      "952": 3733,
      "1207": 3734,
      "2316": 3735,
      "383": 3736,
      "887": 3737,
      "2731": 3738,
      "2279": 3739,
      "2386": 3740,
      "sb": 3741,
      "2088": 3742,
      "91779": 3743,
      "686": 3744,
      "2570": 3745,
      "1914": 3746,
      "comps": 3747,
      "942": 3748,
      "1859": 3749,
      "1904": 3750,
      "2409": 3751,
      "892": 3752,
      "4096": 3753,
      "1597": 3754,
      "2284": 3755,
      "472": 3756,
      "2184": 3757,
      "2220": 3758,
      "wordsplit": 3759,
      "635": 3760,
      "783": 3761,
      "call20": 3762,
      "1820": 3763,
      "die": 3764,
      "4257": 3765,
      "857": 3766,
      "builtin": 3767,
      "1888": 3768,
      "prime": 3769,
      "1583": 3770,
      "667": 3771,
      "957": 3772,
      "012": 3773,
      "1515": 3774,
      "1257": 3775,
      "1814": 3776,
      "exit2": 3777,
      "10542": 3778,
      "1348": 3779,
      "##code": 3780,
      "end35": 3781,
      "687": 3782,
      "933": 3783,
      "i59": 3784,
      "2219": 3785,
      "2118": 3786,
      "ssl3": 3787,
      "1713": 3788,
      "78281": 3789,
      "canonical": 3790,
      "exec": 3791,
      "i42": 3792,
      "2768": 3793,
      "1722": 3794,
      "pb": 3795,
      "relocation": 3796,
      "i128": 3797,
      "cert": 3798,
      "1704": 3799,
      "vars": 3800,
      "523": 3801,
      "2217": 3802,
      "646": 3803,
      "1197": 3804,
      "inc4": 3805,
      "2716": 3806,
      "2040": 3807,
      "1759": 3808,
      "hi": 3809,
      "2424": 3810,
      "883": 3811,
      "2158": 3812,
      "2248": 3813,
      "1461": 3814,
      "##441": 3815,
      "##ice": 3816,
      "1816": 3817,
      "1798": 3818,
      "prot": 3819,
      "967": 3820,
      "1298": 3821,
      "1909": 3822,
      "2364": 3823,
      "##qu": 3824,
      "2564": 3825,
      "2209": 3826,
      "1082": 3827,
      "adjust": 3828,
      "cmp20": 3829,
      "25000": 3830,
      "arrayidx4": 3831,
      "srec": 3832,
      "1222": 3833,
      "we": 3834,
      "1885": 3835,
      "2210": 3836,
      "1466": 3837,
      "1548": 3838,
      "645": 3839,
      "723": 3840,
      "2338": 3841,
      "dynsym": 3842,
      "end29": 3843,
      "867": 3844,
      "1203": 3845,
      "1498": 3846,
      "1809": 3847,
      "685": 3848,
      "2289": 3849,
      "403": 3850,
      "742": 3851,
      "692": 3852,
      "2412": 3853,
      "2160": 3854,
      "1288": 3855,
      "1026": 3856,
      "##ifi": 3857,
      "1598": 3858,
      "725": 3859,
      "##eed": 3860,
      "765": 3861,
      "call16": 3862,
      "canonicalize": 3863,
      "1794": 3864,
      "2170": 3865,
      "1956": 3866,
      "772": 3867,
      "1320": 3868,
      "2320": 3869,
      "1643": 3870,
      "2150": 3871,
      "1447": 3872,
      "stdout": 3873,
      "upper": 3874,
      "1376": 3875,
      "1053": 3876,
      "1609": 3877,
      "2294": 3878,
      "##164": 3879,
      "2355": 3880,
      "1934": 3881,
      "2369": 3882,
      "1509": 3883,
      "1744": 3884,
      "775": 3885,
      "1057": 3886,
      "827": 3887,
      "1491": 3888,
      "1962": 3889,
      "disc": 3890,
      "1908": 3891,
      "626": 3892,
      "2087": 3893,
      "1192": 3894,
      "1537": 3895,
      "463": 3896,
      "2190": 3897,
      "class": 3898,
      "elfcore": 3899,
      "727": 3900,
      "ptr29": 3901,
      "703": 3902,
      "1636": 3903,
      "822": 3904,
      "2179": 3905,
      "2362": 3906,
      "dwarf2": 3907,
      "i35": 3908,
      "1a": 3909,
      "657": 3910,
      "1535": 3911,
      "objalloc": 3912,
      "##match": 3913,
      "988": 3914,
      "19967": 3915,
      "443": 3916,
      "entsize": 3917,
      "##vel": 3918,
      "1043": 3919,
      "1770": 3920,
      "2377": 3921,
      "1122": 3922,
      "encoding": 3923,
      "795": 3924,
      "962": 3925,
      "ppc": 3926,
      "path": 3927,
      "1051": 3928,
      "2459": 3929,
      "##irect": 3930,
      "##av": 3931,
      "552": 3932,
      "true5": 3933,
      "enc": 3934,
      "803": 3935,
      "tile": 3936,
      "1588": 3937,
      "2472": 3938,
      "sof": 3939,
      "1157": 3940,
      "tobool5": 3941,
      "553": 3942,
      "1557": 3943,
      "976": 3944,
      "876": 3945,
      "836": 3946,
      "1033": 3947,
      "1065": 3948,
      "603": 3949,
      "1546": 3950,
      "##fix": 3951,
      "2518": 3952,
      "multi": 3953,
      "1596": 3954,
      "sse": 3955,
      "1087": 3956,
      "1437": 3957,
      "2130": 3958,
      "then28": 3959,
      "##dent": 3960,
      "tobool7": 3961,
      "5017": 3962,
      "##psinfo": 3963,
      "prpsinfo": 3964,
      "785": 3965,
      "1647": 3966,
      "1592": 3967,
      "sort": 3968,
      "1167": 3969,
      "1187": 3970,
      "956": 3971,
      "1698": 3972,
      "1709": 3973,
      "2313": 3974,
      "941": 3975,
      "21251": 3976,
      "2204": 3977,
      "2416": 3978,
      "1873": 3979,
      "i99": 3980,
      "1813": 3981,
      "arrayidx3": 3982,
      "sep": 3983,
      "906": 3984,
      "653": 3985,
      "end33": 3986,
      "2140": 3987,
      "19968": 3988,
      "i36": 3989,
      "1496": 3990,
      "22387": 3991,
      "633": 3992,
      "845": 3993,
      "position": 3994,
      "835": 3995,
      "837": 3996,
      "1696": 3997,
      "1887": 3998,
      "987": 3999,
      "1126": 4000,
      "fix": 4001,
      "1266": 4002,
      "i60": 4003,
      "cmp22": 4004,
      "505": 4005,
      "##vas": 4006,
      "1297": 4007,
      "24568": 4008,
      "clu": 4009,
      "clust": 4010,
      "1656": 4011,
      "1804": 4012,
      "fini": 4013,
      "882": 4014,
      "bl": 4015,
      "21759": 4016,
      "752": 4017,
      "986": 4018,
      "886": 4019,
      "825": 4020,
      "tot": 4021,
      "shndx": 4022,
      "29878": 4023,
      "45870": 4024,
      "##fe": 4025,
      "582": 4026,
      "1095": 4027,
      "1366": 4028,
      "ule": 4029,
      "1702": 4030,
      "54626": 4031,
      "conv4": 4032,
      "1335": 4033,
      "1726": 4034,
      "862": 4035,
      "true4": 4036,
      "inc6": 4037,
      "nsub": 4038,
      "1808": 4039,
      "605": 4040,
      "1296": 4041,
      "ff": 4042,
      "2404": 4043,
      "2266": 4044,
      "##flag": 4045,
      "field": 4046,
      "prom": 4047,
      "1396": 4048,
      "1398": 4049,
      "found": 4050,
      "1256": 4051,
      "1303": 4052,
      "391": 4053,
      "76658": 4054,
      "1106": 4055,
      "end30": 4056,
      "1097": 4057,
      "485": 4058,
      "fput": 4059,
      "1444": 4060,
      "1488": 4061,
      "2166": 4062,
      "5192": 4063,
      "red": 4064,
      "1342": 4065,
      "2237": 4066,
      "1328": 4067,
      "2448": 4068,
      "1195": 4069,
      "zeroext": 4070,
      "431": 4071,
      "strn": 4072,
      "2253": 4073,
      "dev": 4074,
      "707": 4075,
      "bit": 4076,
      "5754": 4077,
      "545": 4078,
      "##ran": 4079,
      "1227": 4080,
      "1285": 4081,
      "canvas": 4082,
      "total": 4083,
      "1688": 4084,
      "then22": 4085,
      "793": 4086,
      "1036": 4087,
      "2408": 4088,
      "isym": 4089,
      "1637": 4090,
      "1456": 4091,
      "1137": 4092,
      "1467": 4093,
      "2097": 4094,
      "fn": 4095,
      "prefix": 4096,
      "cluster": 4097,
      "##by": 4098,
      "insn": 4099,
      "1073": 4100,
      "2094": 4101,
      "2168": 4102,
      "end69": 4103,
      "922": 4104,
      "2551": 4105,
      "1544": 4106,
      "2348": 4107,
      "2187": 4108,
      "982": 4109,
      "ps": 4110,
      "1147": 4111,
      "addend": 4112,
      "chk": 4113,
      "2004": 4114,
      "11292": 4115,
      "2076": 4116,
      "028": 4117,
      "1767": 4118,
      "##icate": 4119,
      "1337": 4120,
      "2860": 4121,
      "orl": 4122,
      "il": 4123,
      "865": 4124,
      "vaddr": 4125,
      "99135": 4126,
      "2189": 4127,
      "253997": 4128,
      "2815": 4129,
      "2589": 4130,
      "flav": 4131,
      "1748": 4132,
      "##ph": 4133,
      "2154": 4134,
      "flavour": 4135,
      "true7": 4136,
      "1708": 4137,
      "2844": 4138,
      "extended": 4139,
      "uleb128": 4140,
      "layer": 4141,
      "##ict": 4142,
      "dum": 4143,
      "exit4": 4144,
      "693": 4145,
      "end37": 4146,
      "i43": 4147,
      "call18": 4148,
      "own": 4149,
      "i45": 4150,
      "1506": 4151,
      "1306": 4152,
      "2124": 4153,
      "end32": 4154,
      "lcmp": 4155,
      "1202": 4156,
      "2298": 4157,
      "1211": 4158,
      "1262": 4159,
      "1897": 4160,
      "then25": 4161,
      "1508": 4162,
      "1386": 4163,
      "1527": 4164,
      "1796": 4165,
      "2188": 4166,
      "571": 4167,
      "1606": 4168,
      "source": 4169,
      "2134": 4170,
      "1735": 4171,
      "1007": 4172,
      "1826": 4173,
      "2542": 4174,
      "521": 4175,
      "843": 4176,
      "1648": 4177,
      "reco": 4178,
      "refcount": 4179,
      "1649": 4180,
      "753": 4181,
      "1172": 4182,
      "1182": 4183,
      "2337": 4184,
      "end38": 4185,
      "972": 4186,
      "2180": 4187,
      "65535": 4188,
      "1063": 4189,
      "flg": 4190,
      "762": 4191,
      "ac": 4192,
      "1133": 4193,
      "2098": 4194,
      "2145": 4195,
      "925": 4196,
      "2138": 4197,
      "##cs": 4198,
      "1994": 4199,
      "2057": 4200,
      "pro": 4201,
      "2489": 4202,
      "5740": 4203,
      "i52": 4204,
      "2035": 4205,
      "1367": 4206,
      "top": 4207,
      "##ten": 4208,
      "2344": 4209,
      "ms": 4210,
      "833": 4211,
      "1603": 4212,
      "2008": 4213,
      "##7758": 4214,
      "2499": 4215,
      "1607": 4216,
      "2047": 4217,
      "im": 4218,
      "1076": 4219,
      "##trol": 4220,
      "##thread": 4221,
      "fe": 4222,
      "1847": 4223,
      "461": 4224,
      "##base": 4225,
      "902": 4226,
      "451": 4227,
      "471": 4228,
      "owner": 4229,
      "control": 4230,
      "mbstate": 4231,
      "2149": 4232,
      "991": 4233,
      "xrealloc": 4234,
      "76012": 4235,
      "1788": 4236,
      "2157": 4237,
      "i46": 4238,
      "1086": 4239,
      "end56": 4240,
      "905": 4241,
      "563": 4242,
      "ap": 4243,
      "##string": 4244,
      "2805": 4245,
      "885": 4246,
      "##ymbols": 4247,
      "1237": 4248,
      "1706": 4249,
      "end43": 4250,
      "1267": 4251,
      "1487": 4252,
      "1329": 4253,
      "true8": 4254,
      "body5": 4255,
      "2385": 4256,
      "##ity": 4257,
      "3463": 4258,
      "1507": 4259,
      "1551": 4260,
      "1857": 4261,
      "true14": 4262,
      "##acket": 4263,
      "3462": 4264,
      "2067": 4265,
      "lobit": 4266,
      "##ature": 4267,
      "1322": 4268,
      "call17": 4269,
      "1162": 4270,
      "2007": 4271,
      "1898": 4272,
      "##try": 4273,
      "1307": 4274,
      "2100": 4275,
      "2169": 4276,
      "sha": 4277,
      "673": 4278,
      "conv3": 4279,
      "351": 4280,
      "675": 4281,
      "2387": 4282,
      "662": 4283,
      "2588": 4284,
      "1327": 4285,
      "end39": 4286,
      "##sd": 4287,
      "2635": 4288,
      "i68": 4289,
      "2363": 4290,
      "arange": 4291,
      "elt": 4292,
      "##altmon": 4293,
      "1853": 4294,
      "2009": 4295,
      "9223": 4296,
      "853": 4297,
      "##time": 4298,
      "cms": 4299,
      "1275": 4300,
      "1727": 4301,
      "1436": 4302,
      "fc": 4303,
      "1676": 4304,
      "1105": 4305,
      "end50": 4306,
      "1236": 4307,
      "1522": 4308,
      "1547": 4309,
      "1587": 4310,
      "2813": 4311,
      "##urp": 4312,
      "2447": 4313,
      "875": 4314,
      "i57": 4315,
      "2277": 4316,
      "2308": 4317,
      "1083": 4318,
      "2479": 4319,
      "2366": 4320,
      "end40": 4321,
      "##range": 4322,
      "2152": 4323,
      "p1": 4324,
      "2616": 4325,
      "1457": 4326,
      "1463": 4327,
      "2394": 4328,
      "shift": 4329,
      "call24": 4330,
      "alt": 4331,
      "1665": 4332,
      "895": 4333,
      "then38": 4334,
      "1062": 4335,
      "1725": 4336,
      "1697": 4337,
      "intto": 4338,
      "inttoptr": 4339,
      "1567": 4340,
      "1427": 4341,
      "872": 4342,
      "1944": 4343,
      "2003": 4344,
      "best": 4345,
      "gf": 4346,
      "realloc": 4347,
      "glist": 4348,
      "2162": 4349,
      "1896": 4350,
      "2196": 4351,
      "2022": 4352,
      "1737": 4353,
      "2044": 4354,
      "5431": 4355,
      "17732": 4356,
      "2484": 4357,
      "2717": 4358,
      "mm": 4359,
      "sect": 4360,
      "1825": 4361,
      "1027": 4362,
      "2104": 4363,
      "995": 4364,
      "call19": 4365,
      "2197": 4366,
      "crypt": 4367,
      "1052": 4368,
      "1988": 4369,
      "##005": 4370,
      "cast14": 4371,
      "##ro": 4372,
      "1422": 4373,
      "1356": 4374,
      "2456": 4375,
      "4688": 4376,
      "1146": 4377,
      "1757": 4378,
      "2990": 4379,
      "1476": 4380,
      "2243": 4381,
      "2309": 4382,
      "tobool8": 4383,
      "1573": 4384,
      "search": 4385,
      "2198": 4386,
      "1866": 4387,
      "2496": 4388,
      "infomap": 4389,
      "bool": 4390,
      "##cast": 4391,
      "elems": 4392,
      "1886": 4393,
      "and2": 4394,
      "signal": 4395,
      "prec": 4396,
      "i53": 4397,
      "2172": 4398,
      "e5": 4399,
      "real": 4400,
      "421": 4401,
      "2764": 4402,
      "crypto": 4403,
      "1425": 4404,
      "2227": 4405,
      "2664": 4406,
      "665": 4407,
      "strings": 4408,
      "true10": 4409,
      "##6854": 4410,
      "593": 4411,
      "1226": 4412,
      "ibfd": 4413,
      "1387": 4414,
      "level": 4415,
      "973": 4416,
      "4766": 4417,
      "1926": 4418,
      "863": 4419,
      "1407": 4420,
      "end36": 4421,
      "2208": 4422,
      "020": 4423,
      "1692": 4424,
      "yyval": 4425,
      "583": 4426,
      "1877": 4427,
      "1286": 4428,
      "recor": 4429,
      "1566": 4430,
      "2144": 4431,
      "ptr3": 4432,
      "331": 4433,
      "1156": 4434,
      "1336": 4435,
      "1482": 4436,
      "1426": 4437,
      "965": 4438,
      "end47": 4439,
      "cmp23": 4440,
      "2175": 4441,
      "2257": 4442,
      "1906": 4443,
      "ptr10": 4444,
      "8192": 4445,
      "1475": 4446,
      "953": 4447,
      "2468": 4448,
      "##37203": 4449,
      "skip": 4450,
      "1977": 4451,
      "##stype": 4452,
      "1646": 4453,
      "1996": 4454,
      "mbs": 4455,
      "2148": 4456,
      "841": 4457,
      "2556": 4458,
      "ilf": 4459,
      "5890": 4460,
      "1486": 4461,
      "##types": 4462,
      "1435": 4463,
      "2177": 4464,
      "2194": 4465,
      "985": 4466,
      "1907": 4467,
      "imp": 4468,
      "body1882": 4469,
      "5397": 4470,
      "923": 4471,
      "end42": 4472,
      "1577": 4473,
      "msg": 4474,
      "2480": 4475,
      "it": 4476,
      "1687": 4477,
      "1173": 4478,
      "1357": 4479,
      "2288": 4480,
      "stop": 4481,
      "873": 4482,
      "1305": 4483,
      "2577": 4484,
      "922337203": 4485,
      "##ify": 4486,
      "9223372036854": 4487,
      "1635": 4488,
      "1685": 4489,
      "1846": 4490,
      "038": 4491,
      "nele": 4492,
      "1935": 4493,
      "2679": 4494,
      "##sa": 4495,
      "##uffix": 4496,
      "discard": 4497,
      "nelem": 4498,
      "compress": 4499,
      "xalloc": 4500,
      "1145": 4501,
      "tab": 4502,
      "2206": 4503,
      "643": 4504,
      "2272": 4505,
      "warning": 4506,
      "##lib": 4507,
      "cmp24": 4508,
      "1247": 4509,
      "cv": 4510,
      "1777": 4511,
      "1947": 4512,
      "611": 4513,
      "end44": 4514,
      "2096": 4515,
      "##981": 4516,
      "1311": 4517,
      "2226": 4518,
      "1837": 4519,
      "491": 4520,
      "scan": 4521,
      "log": 4522,
      "true9": 4523,
      "fat": 4524,
      "verneed": 4525,
      "2159": 4526,
      "##941": 4527,
      "ok": 4528,
      "indx": 4529,
      "2544": 4530,
      "663": 4531,
      "1526": 4532,
      "1736": 4533,
      "371": 4534,
      "##slash": 4535,
      "##table": 4536,
      "2066": 4537,
      "##999": 4538,
      "975": 4539,
      "oper": 4540,
      "1782": 4541,
      "92233720368547758": 4542,
      "10771": 4543,
      "1625": 4544,
      "2871": 4545,
      "17733": 4546,
      "2056": 4547,
      "1802": 4548,
      "scale": 4549,
      "19020": 4550,
      "22769": 4551,
      "2305": 4552,
      "2614": 4553,
      "test": 4554,
      "20154": 4555,
      "771": 4556,
      "1605": 4557,
      "1446": 4558,
      "##em": 4559,
      "1277": 4560,
      "1245": 4561,
      "19524": 4562,
      "801": 4563,
      "mctx": 4564,
      "then23": 4565,
      "vi": 4566,
      "2406": 4567,
      "backslash": 4568,
      "1586": 4569,
      "then26": 4570,
      "743": 4571,
      "27648": 4572,
      "1346": 4573,
      "##prel": 4574,
      "here": 4575,
      "cpu": 4576,
      "iovec": 4577,
      "arrayidx7": 4578,
      "i56": 4579,
      "eng": 4580,
      "22337": 4581,
      "1695": 4582,
      "1602": 4583,
      "903": 4584,
      "synt": 4585,
      "end45": 4586,
      "##rt": 4587,
      "tobool9": 4588,
      "engine": 4589,
      "1452": 4590,
      "1375": 4591,
      "then30": 4592,
      "2457": 4593,
      "43641": 4594,
      "2178": 4595,
      "1807": 4596,
      "i33": 4597,
      "1822": 4598,
      "4245": 4599,
      "action": 4600,
      "1895": 4601,
      "i66": 4602,
      "1867": 4603,
      "2333": 4604,
      "52395": 4605,
      "1806": 4606,
      "2109": 4607,
      "2376": 4608,
      "1002": 4609,
      "expression": 4610,
      "015": 4611,
      "1252": 4612,
      "2529": 4613,
      "2422": 4614,
      "591": 4615,
      "paddr": 4616,
      "ht": 4617,
      "slurp": 4618,
      "802": 4619,
      "2398": 4620,
      "4248": 4621,
      "2446": 4622,
      "2328": 4623,
      "1075": 4624,
      "2324": 4625,
      "##tre": 4626,
      "inc5": 4627,
      "false6": 4628,
      "##ips": 4629,
      "then34": 4630,
      "escapes": 4631,
      "##reloc": 4632,
      "saved": 4633,
      "2755": 4634,
      "bad": 4635,
      "1142": 4636,
      "2388": 4637,
      "2396": 4638,
      "1925": 4639,
      "yystype": 4640,
      "1406": 4641,
      "1987": 4642,
      "2222": 4643,
      "2133": 4644,
      "027": 4645,
      "mbu": 4646,
      "1576": 4647,
      "1937": 4648,
      "2436": 4649,
      "##class": 4650,
      "body7": 4651,
      "globals": 4652,
      "rand": 4653,
      "then27": 4654,
      "911": 4655,
      "1882": 4656,
      "lim": 4657,
      "2327": 4658,
      "2122": 4659,
      "aarch": 4660,
      "pid": 4661,
      "2033": 4662,
      "2185": 4663,
      "1642": 4664,
      "end46": 4665,
      "1092": 4666,
      "1766": 4667,
      "2553": 4668,
      "1776": 4669,
      "3027": 4670,
      "image": 4671,
      "1747": 4672,
      "param": 4673,
      "1652": 4674,
      "791": 4675,
      "1326": 4676,
      "mbuiter": 4677,
      "983": 4678,
      "551": 4679,
      "i62": 4680,
      "2167": 4681,
      "1976": 4682,
      "2336": 4683,
      "1265": 4684,
      "alg": 4685,
      "1123": 4686,
      "1282": 4687,
      "1836": 4688,
      "1493": 4689,
      "1103": 4690,
      "session": 4691,
      "1998": 4692,
      "2512": 4693,
      "##vail": 4694,
      "1503": 4695,
      "1876": 4696,
      "1883": 4697,
      "2247": 4698,
      "argc": 4699,
      "any": 4700,
      "1986": 4701,
      "2296": 4702,
      "call31": 4703,
      "893": 4704,
      "##ual": 4705,
      "1101": 4706,
      "i67": 4707,
      "1905": 4708,
      "failure": 4709,
      "1572": 4710,
      "1523": 4711,
      "gz": 4712,
      "2514": 4713,
      "1143": 4714,
      "dh": 4715,
      "##free": 4716,
      "end49": 4717,
      "2510": 4718,
      "1492": 4719,
      "2287": 4720,
      "1591": 4721,
      "2329": 4722,
      "1273": 4723,
      "1165": 4724,
      "1967": 4725,
      "bufs": 4726,
      "741": 4727,
      "811": 4728,
      "3669": 4729,
      "force": 4730,
      "machine": 4731,
      "951": 4732,
      "1772": 4733,
      "1552": 4734,
      "2242": 4735,
      "381": 4736,
      "1402": 4737,
      "conv1": 4738,
      "suffix": 4739,
      "then32": 4740,
      "fill": 4741,
      "##add": 4742,
      "26477": 4743,
      "2624": 4744,
      "1936": 4745,
      "else4": 4746,
      "32436": 4747,
      "avail": 4748,
      "1627": 4749,
      "wab": 4750,
      "i104": 4751,
      "aouthdr": 4752,
      "2478": 4753,
      "2435": 4754,
      "2373": 4755,
      "tar": 4756,
      "bkm": 4757,
      "##link": 4758,
      "1352": 4759,
      "delet": 4760,
      "##ror": 4761,
      "2519": 4762,
      "773": 4763,
      "fre": 4764,
      "1721": 4765,
      "2924": 4766,
      "filehdr": 4767,
      "headers": 4768,
      "end41": 4769,
      "i94": 4770,
      "record": 4771,
      "cond4": 4772,
      "1382": 4773,
      "2128": 4774,
      "1872": 4775,
      "##aram": 4776,
      "2052": 4777,
      "1323": 4778,
      "2106": 4779,
      "2037": 4780,
      "2307": 4781,
      "cmp21": 4782,
      "4236": 4783,
      "cor": 4784,
      "1485": 4785,
      "bb12": 4786,
      "2658": 4787,
      "1673": 4788,
      "arm": 4789,
      "1276": 4790,
      "2186": 4791,
      "1163": 4792,
      "2036": 4793,
      "1385": 4794,
      "1835": 4795,
      "2524": 4796,
      "2107": 4797,
      "2146": 4798,
      "6927": 4799,
      "exit3": 4800,
      "cmd": 4801,
      "add5": 4802,
      "bb302": 4803,
      "##973": 4804,
      "only": 4805,
      "1787": 4806,
      "3106": 4807,
      "1085": 4808,
      "1462": 4809,
      "then29": 4810,
      "tun": 4811,
      "1175": 4812,
      "true1": 4813,
      "writ": 4814,
      "025": 4815,
      "bb10": 4816,
      "##case": 4817,
      "2407": 4818,
      "2402": 4819,
      "##upackages": 4820,
      "gnupackages": 4821,
      "fol": 4822,
      "481": 4823,
      "arrayidx1": 4824,
      "8013": 4825,
      "strncmp": 4826,
      "end57": 4827,
      "2103": 4828,
      "2326": 4829,
      "2027": 4830,
      "then31": 4831,
      "ext24": 4832,
      "binutils": 4833,
      "cnt": 4834,
      "2361": 4835,
      "##961": 4836,
      "pkcs": 4837,
      "1952": 4838,
      "cmp27": 4839,
      "861": 4840,
      "##array": 4841,
      "2292": 4842,
      "1957": 4843,
      "##971": 4844,
      "1662": 4845,
      "3670": 4846,
      "016": 4847,
      "1003": 4848,
      "2136": 4849,
      "1242": 4850,
      "##amp": 4851,
      "1473": 4852,
      "1675": 4853,
      "2256": 4854,
      "1707": 4855,
      "##907": 4856,
      "##coff": 4857,
      "end70": 4858,
      "getopt": 4859,
      "1842": 4860,
      "tuning": 4861,
      "1347": 4862,
      "##ties": 4863,
      "properties": 4864,
      "2092": 4865,
      "4685": 4866,
      "ter": 4867,
      "##975": 4868,
      "2127": 4869,
      "963": 4870,
      "6130": 4871,
      "2346": 4872,
      "zone": 4873,
      "993": 4874,
      "disubrange": 4875,
      "end48": 4876,
      "bb8": 4877,
      "1295": 4878,
      "1465": 4879,
      "1545": 4880,
      "rsa": 4881,
      "##be": 4882,
      "##got": 4883,
      "1795": 4884,
      "2077": 4885,
      "2437": 4886,
      "2574": 4887,
      "401": 4888,
      "1742": 4889,
      "##ready": 4890,
      "already": 4891,
      "1553": 4892,
      "1542": 4893,
      "2137": 4894,
      "2025": 4895,
      "##day": 4896,
      "1875": 4897,
      "2072": 4898,
      "end63": 4899,
      "##985": 4900,
      "1243": 4901,
      "end55": 4902,
      "2857": 4903,
      "2538": 4904,
      "1653": 4905,
      "2246": 4906,
      "i51": 4907,
      "2749": 4908,
      "1272": 4909,
      "spar": 4910,
      "2236": 4911,
      "2026": 4912,
      "037": 4913,
      "2207": 4914,
      "then41": 4915,
      "2959": 4916,
      "##chr": 4917,
      "1756": 4918,
      "then33": 4919,
      "1365": 4920,
      "1705": 4921,
      "nds": 4922,
      "nds32": 4923,
      "predicate": 4924,
      "##main": 4925,
      "2528": 4926,
      "4352": 4927,
      "getl": 4928,
      "elide": 4929,
      "##idden": 4930,
      "call22": 4931,
      "##ax": 4932,
      "end53": 4933,
      "651": 4934,
      "bb5": 4935,
      "1927": 4936,
      "2758": 4937,
      "space": 4938,
      "1682": 4939,
      "hidden": 4940,
      "2513": 4941,
      "##998": 4942,
      "hist": 4943,
      "1903": 4944,
      "2587": 4945,
      "i75": 4946,
      "false5": 4947,
      "1892": 4948,
      "1201": 4949,
      "1746": 4950,
      "2582": 4951,
      "1745": 4952,
      "4260": 4953,
      "1345": 4954,
      "ln": 4955,
      "fx": 4956,
      "symcount": 4957,
      "1373": 4958,
      "body663": 4959,
      "1972": 4960,
      "##ific": 4961,
      "add1": 4962,
      "##cept": 4963,
      "2516": 4964,
      "4972": 4965,
      "2962": 4966,
      "2532": 4967,
      "1302": 4968,
      "1525": 4969,
      "2276": 4970,
      "1862": 4971,
      "cmp29": 4972,
      "##irt": 4973,
      "1683": 4974,
      "2985": 4975,
      "aarch64": 4976,
      "##987": 4977,
      "i65": 4978,
      "quotes": 4979,
      "2554": 4980,
      "3039": 4981,
      "lma": 4982,
      "2515": 4983,
      "1505": 4984,
      "2083": 4985,
      "openssl": 4986,
      "2452": 4987,
      "retainedtypes": 4988,
      "1593": 4989,
      "tobool10": 4990,
      "2520": 4991,
      "arrayidx5": 4992,
      "body12": 4993,
      "2156": 4994,
      "call23": 4995,
      "virt": 4996,
      "arelt": 4997,
      "1672": 4998,
      "1975": 4999,
      "cmp25": 5000,
      "2517": 5001,
      "2163": 5002,
      "31931": 5003,
      "2720": 5004,
      "2639": 5005,
      "sum": 5006,
      "1992": 5007,
      "2802": 5008,
      "1453": 5009,
      "##value": 5010,
      "2356": 5011,
      "cmp31": 5012,
      "ut": 5013,
      "1483": 5014,
      "1153": 5015,
      "2466": 5016,
      "2522": 5017,
      "false8": 5018,
      "2062": 5019,
      "621": 5020,
      "1392": 5021,
      "1946": 5022,
      "##ymap": 5023,
      "then39": 5024,
      "end64": 5025,
      "crc": 5026,
      "##ove": 5027,
      "1765": 5028,
      "2006": 5029,
      "7864": 5030,
      "1405": 5031,
      "1442": 5032,
      "5759": 5033,
      "##argin": 5034,
      "2534": 5035,
      "soft": 5036,
      "019": 5037,
      "bufsiz": 5038,
      "indic": 5039,
      "2665": 5040,
      "2252": 5041,
      "##margin": 5042,
      "peek": 5043,
      "1362": 5044,
      "1183": 5045,
      "4264": 5046,
      "156195": 5047,
      "##sy": 5048,
      "2858": 5049,
      "7868": 5050,
      "keymap": 5051,
      "##tree": 5052,
      "2102": 5053,
      "construct": 5054,
      "1393": 5055,
      "add10": 5056,
      "ptr24": 5057,
      "wra": 5058,
      "1595": 5059,
      "then44": 5060,
      "1225": 5061,
      "enumer": 5062,
      "##res": 5063,
      "5399": 5064,
      "2615": 5065,
      "2125": 5066,
      "2165": 5067,
      "vna": 5068,
      "weak": 5069,
      "1223": 5070,
      "2880": 5071,
      "abs": 5072,
      "2530": 5073,
      "2085": 5074,
      "1372": 5075,
      "xor4": 5076,
      "then37": 5077,
      "##902": 5078,
      "1843": 5079,
      "##max": 5080,
      "disable": 5081,
      "2608": 5082,
      "##func": 5083,
      "change": 5084,
      "561": 5085,
      "else3": 5086,
      "2147": 5087,
      "2549": 5088,
      "2282": 5089,
      "fatal": 5090,
      "##471": 5091,
      "2195": 5092,
      "2500": 5093,
      "enumeration": 5094,
      "pack": 5095,
      "5473": 5096,
      "1185": 5097,
      "541": 5098,
      "##dig": 5099,
      "2550": 5100,
      "7865": 5101,
      "2086": 5102,
      "hide": 5103,
      "fs": 5104,
      "921": 5105,
      "this": 5106,
      "2678": 5107,
      "1233": 5108,
      "os": 5109,
      "3000": 5110,
      "1423": 5111,
      "2839": 5112,
      "scn": 5113,
      "1292": 5114,
      "5753": 5115,
      "sq": 5116,
      "call26": 5117,
      "2275": 5118,
      "2427": 5119,
      "4243": 5120,
      "1161": 5121,
      "2728": 5122,
      "stder": 5123,
      "2700": 5124,
      "stderr": 5125,
      "ptr17": 5126,
      "2628": 5127,
      "2546": 5128,
      "2704": 5129,
      "operator": 5130,
      "then157": 5131,
      "5858": 5132,
      "false3": 5133,
      "nor": 5134,
      "1797": 5135,
      "diff": 5136,
      "2760": 5137,
      "1723": 5138,
      "2367": 5139,
      "prstat": 5140,
      "##agesize": 5141,
      "2750": 5142,
      "##947": 5143,
      "ihex": 5144,
      "2065": 5145,
      "1445": 5146,
      "1852": 5147,
      "locale": 5148,
      "cleanup2": 5149,
      "##iled": 5150,
      "tobool12": 5151,
      "cmp26": 5152,
      "i63": 5153,
      "##ise": 5154,
      "1752": 5155,
      "##965": 5156,
      "2814": 5157,
      "254048": 5158,
      "1333": 5159,
      "2293": 5160,
      "##error": 5161,
      "2297": 5162,
      "3493": 5163,
      "imm16": 5164,
      "art": 5165,
      "2155": 5166,
      "else7": 5167,
      "trap": 5168,
      "##obj": 5169,
      "2974": 5170,
      "1902": 5171,
      "getx64": 5172,
      "obfd": 5173,
      "then35": 5174,
      "##906": 5175,
      "2579": 5176,
      "charset": 5177,
      "##946": 5178,
      "029": 5179,
      "end65": 5180,
      "2866": 5181,
      "definition": 5182,
      "2283": 5183,
      "2816": 5184,
      "1575": 5185,
      "931": 5186,
      "2372": 5187,
      "trip": 5188,
      "##991": 5189,
      "##my": 5190,
      "10739": 5191,
      "vernaux": 5192,
      "2347": 5193,
      "sub2": 5194,
      "bb6": 5195,
      "##curse": 5196,
      "1762": 5197,
      "1786": 5198,
      "2285": 5199,
      "ser": 5200,
      "1433": 5201,
      "1001": 5202,
      "1982": 5203,
      "2357": 5204,
      "lock": 5205,
      "artdata": 5206,
      "1343": 5207,
      "1863": 5208,
      "1031": 5209,
      "2302": 5210,
      "2467": 5211,
      "##903": 5212,
      "2824": 5213,
      "false599": 5214,
      "putx64": 5215,
      "2618": 5216,
      "2954": 5217,
      "2105": 5218,
      "1633": 5219,
      "2397": 5220,
      "ptr4": 5221,
      "2620": 5222,
      "##942": 5223,
      "pass": 5224,
      "si": 5225,
      "##rect": 5226,
      "##stem": 5227,
      "5312": 5228,
      "##etary": 5229,
      "4247": 5230,
      "monetary": 5231,
      "ident": 5232,
      "1011": 5233,
      "2202": 5234,
      "##index": 5235,
      "1193": 5236,
      "where": 5237,
      "6313": 5238,
      "end68": 5239,
      "##ous": 5240,
      "1785": 5241,
      "2917": 5242,
      "1663": 5243,
      "##entry": 5244,
      "1845": 5245,
      "1945": 5246,
      "##pat": 5247,
      "2075": 5248,
      "##stamp": 5249,
      "2557": 5250,
      "891": 5251,
      "each": 5252,
      "udiv": 5253,
      "2855": 5254,
      "2225": 5255,
      "af": 5256,
      "conv5": 5257,
      "5164": 5258,
      "1693": 5259,
      "1562": 5260,
      "add13": 5261,
      "cmp32": 5262,
      "044": 5263,
      "ino": 5264,
      "1865": 5265,
      "20890": 5266,
      "2306": 5267,
      "conv6": 5268,
      "721": 5269,
      "failed": 5270,
      "54018": 5271,
      "2562": 5272,
      "2182": 5273,
      "1942": 5274,
      "2740": 5275,
      "end61": 5276,
      "1395": 5277,
      "end67": 5278,
      "601": 5279,
      "cleanup3": 5280,
      "871": 5281,
      "1973": 5282,
      "then42": 5283,
      "2153": 5284,
      "memcheck": 5285,
      "1383": 5286,
      "term": 5287,
      "1443": 5288,
      "i80": 5289,
      "##gr": 5290,
      "##elp": 5291,
      "ptr8": 5292,
      "2569": 5293,
      "2701": 5294,
      "2799": 5295,
      "2262": 5296,
      "cmp41": 5297,
      "1775": 5298,
      "initial": 5299,
      "671": 5300,
      "##nce": 5301,
      "1353": 5302,
      "1325": 5303,
      "2126": 5304,
      "901": 5305,
      "##indx": 5306,
      "end54": 5307,
      "1502": 5308,
      "nore": 5309,
      "2568": 5310,
      "##hes": 5311,
      "gs": 5312,
      "unroll": 5313,
      "symbuf": 5314,
      "1061": 5315,
      "2634": 5316,
      "tobool13": 5317,
      "correct": 5318,
      "2910": 5319,
      "1733": 5320,
      "70841": 5321,
      "dummy": 5322,
      "##serve": 5323,
      "54644": 5324,
      "end52": 5325,
      "##ument": 5326,
      "algor": 5327,
      "5163": 5328,
      "call27": 5329,
      "##992": 5330,
      "##901": 5331,
      "1071": 5332,
      "72147": 5333,
      "1833": 5334,
      "end51": 5335,
      "2724": 5336,
      "1631": 5337,
      "2042": 5338,
      "3355": 5339,
      "1341": 5340,
      "step": 5341,
      "1943": 5342,
      "2173": 5343,
      "1582": 5344,
      "dec13": 5345,
      "1403": 5346,
      "round": 5347,
      "1923": 5348,
      "2345": 5349,
      "11352": 5350,
      "end58": 5351,
      "3008": 5352,
      "2654": 5353,
      "##sum": 5354,
      "10130": 5355,
      "update": 5356,
      "1283": 5357,
      "##000": 5358,
      "job": 5359,
      "2325": 5360,
      "531": 5361,
      "2235": 5362,
      "2095": 5363,
      "eps": 5364,
      "ug": 5365,
      "cmp28": 5366,
      "select1": 5367,
      "ncmp": 5368,
      "341": 5369,
      "##963": 5370,
      "##aping": 5371,
      "escaping": 5372,
      "641": 5373,
      "32404": 5374,
      "2445": 5375,
      "##943": 5376,
      "freq": 5377,
      "1221": 5378,
      "26551": 5379,
      "color": 5380,
      "call25": 5381,
      "seen": 5382,
      "014": 5383,
      "2960": 5384,
      "chars": 5385,
      "2759": 5386,
      "1253": 5387,
      "##994": 5388,
      "1953": 5389,
      "2610": 5390,
      "##908": 5391,
      "i136": 5392,
      "1263": 5393,
      "2046": 5394,
      "bb7": 5395,
      "cb": 5396,
      "##gx": 5397,
      "1451": 5398,
      "then40": 5399,
      "##996": 5400,
      "2548": 5401,
      "2504": 5402,
      "##990": 5403,
      "2462": 5404,
      "factor": 5405,
      "uparam": 5406,
      "hex": 5407,
      "2729": 5408,
      "266362": 5409,
      "dc7": 5410,
      "then45": 5411,
      "i137": 5412,
      "1931": 5413,
      "mips": 5414,
      "2636": 5415,
      "end77": 5416,
      "##ches": 5417,
      "##983": 5418,
      "lru": 5419,
      "tilegx": 5420,
      "1565": 5421,
      "2245": 5422,
      "40100": 5423,
      "cmp37": 5424,
      "printable": 5425,
      "0x": 5426,
      "##pp": 5427,
      "##997": 5428,
      "2617": 5429,
      "661": 5430,
      "##olved": 5431,
      "call28": 5432,
      "5614": 5433,
      "bed": 5434,
      "cmp33": 5435,
      "2599": 5436,
      "2659": 5437,
      "##ping": 5438,
      "2352": 5439,
      "1293": 5440,
      "##digit": 5441,
      "zalloc": 5442,
      "execut": 5443,
      "2093": 5444,
      "2192": 5445,
      "1585": 5446,
      "##ible": 5447,
      "1983": 5448,
      "2123": 5449,
      "allocsize": 5450,
      "3904": 5451,
      "2543": 5452,
      "8009": 5453,
      "rest": 5454,
      "2477": 5455,
      "2433": 5456,
      "6461": 5457,
      "end79": 5458,
      "8547": 5459,
      "and5": 5460,
      "convert": 5461,
      "2375": 5462,
      "emit": 5463,
      "1823": 5464,
      "##905": 5465,
      "2668": 5466,
      "3329": 5467,
      "done": 5468,
      "2787": 5469,
      "2045": 5470,
      "2135": 5471,
      "2763": 5472,
      "true611": 5473,
      "i88": 5474,
      "##909": 5475,
      "##ump": 5476,
      "3033": 5477,
      "body17": 5478,
      "1773": 5479,
      "2322": 5480,
      "2091": 5481,
      "cmp35": 5482,
      "5760": 5483,
      "isec": 5484,
      "true604": 5485,
      "2536": 5486,
      "help": 5487,
      "sdiv": 5488,
      "true12": 5489,
      "wrap": 5490,
      "961": 5491,
      "2142": 5492,
      "1793": 5493,
      "2838": 5494,
      "2600": 5495,
      "kind": 5496,
      "2748": 5497,
      "##002": 5498,
      "2756": 5499,
      "711": 5500,
      "2660": 5501,
      "i148": 5502,
      "cmp30": 5503,
      "putc": 5504,
      "254282": 5505,
      "ear": 5506,
      "mo": 5507,
      "1993": 5508,
      "##tp": 5509,
      "2868": 5510,
      "ossl": 5511,
      "##ud": 5512,
      "2715": 5513,
      "call32": 5514,
      "ase": 5515,
      "2774": 5516,
      "i108": 5517,
      "i124": 5518,
      "pstr": 5519,
      "##trel": 5520,
      "6960": 5521,
      "2638": 5522,
      "end91": 5523,
      "2734": 5524,
      "i105": 5525,
      "2223": 5526,
      "1763": 5527,
      "3484": 5528,
      "regexp": 5529,
      "1783": 5530,
      "dynindx": 5531,
      "1933": 5532,
      "2739": 5533,
      "2411": 5534,
      "2604": 5535,
      "cmp39": 5536,
      "2796": 5537,
      "2342": 5538,
      "2442": 5539,
      "v3": 5540,
      "end59": 5541,
      "i81": 5542,
      "1985": 5543,
      "1533": 5544,
      "##locale": 5545,
      "1111": 5546,
      "2425": 5547,
      "buckets": 5548,
      "brmerge": 5549,
      "026": 5550,
      "ni": 5551,
      "##sr": 5552,
      "1363": 5553,
      "ptr7": 5554,
      "then48": 5555,
      "2371": 5556,
      "arrayidx8": 5557,
      "1805": 5558,
      "i78": 5559,
      "sn": 5560,
      "exc": 5561,
      "1041": 5562,
      "i165": 5563,
      "2295": 5564,
      "##order": 5565,
      "2950": 5566,
      "call33": 5567,
      "2073": 5568,
      "##ular": 5569,
      "2702": 5570,
      "3072": 5571,
      "beg": 5572,
      "via": 5573,
      "##nc": 5574,
      "conv13": 5575,
      "dec3": 5576,
      "2291": 5577,
      "2002": 5578,
      "##993": 5579,
      "2655": 5580,
      "then72": 5581,
      "2596": 5582,
      "zeros": 5583,
      "true602": 5584,
      "conv8": 5585,
      "881": 5586,
      "##align": 5587,
      "package": 5588,
      "i21": 5589,
      "10107": 5590,
      "then197": 5591,
      "##904": 5592,
      "2395": 5593,
      "##dir": 5594,
      "2674": 5595,
      "2143": 5596,
      "##ler": 5597,
      "written": 5598,
      "2494": 5599,
      "scr": 5600,
      "3803": 5601,
      "i147": 5602,
      "1753": 5603,
      "1703": 5604,
      "##962": 5605,
      "851": 5606,
      "2879": 5607,
      "region": 5608,
      "2365": 5609,
      "2629": 5610,
      "early": 5611,
      "##igits": 5612,
      "end66": 5613,
      "pre4": 5614,
      "2944": 5615,
      "1543": 5616,
      "1893": 5617,
      "tobool14": 5618,
      "regular": 5619,
      "2205": 5620,
      "2488": 5621,
      "3486": 5622,
      "compl": 5623,
      "1521": 5624,
      "tek": 5625,
      "2023": 5626,
      "argument": 5627,
      "else5": 5628,
      "##bytes": 5629,
      "13340": 5630,
      "tekhex": 5631,
      "##pagesize": 5632,
      "2730": 5633,
      "cust": 5634,
      "71241": 5635,
      "9249": 5636,
      "##ension": 5637,
      "then51": 5638,
      "symp": 5639,
      "2578": 5640,
      "redirect": 5641,
      "bb14": 5642,
      "arc": 5643,
      "2900": 5644,
      "origin": 5645,
      "finish": 5646,
      "et": 5647,
      "i41": 5648,
      "then36": 5649,
      "##gest": 5650,
      "2693": 5651,
      "##port": 5652,
      "2671": 5653,
      "bb9": 5654,
      "add7": 5655,
      "i107": 5656,
      "43669": 5657,
      "call29": 5658,
      "cond3": 5659,
      "2709": 5660,
      "2005": 5661,
      "2594": 5662,
      "tz": 5663,
      "i84": 5664,
      "virtual": 5665,
      "custom": 5666,
      "s2": 5667,
      "2832": 5668,
      "4269": 5669,
      "##names": 5670,
      "fits": 5671,
      "then54": 5672,
      "2854": 5673,
      "add8": 5674,
      "arrayidx6": 5675,
      "cond18": 5676,
      "2486": 5677,
      "2443": 5678,
      "then66": 5679,
      "2649": 5680,
      "761": 5681,
      "2263": 5682,
      "load2": 5683,
      "36607": 5684,
      "##hash": 5685,
      "ptr11": 5686,
      "call35": 5687,
      "end130": 5688,
      "2738": 5689,
      "i166": 5690,
      "backup": 5691,
      "##945": 5692,
      "dl": 5693,
      "nest": 5694,
      "2203": 5695,
      "2043": 5696,
      "2063": 5697,
      "2680": 5698,
      "ibt": 5699,
      "1291": 5700,
      "71381": 5701,
      "curs": 5702,
      "1081": 5703,
      "exit6": 5704,
      "indigits": 5705,
      "syntax": 5706,
      "2859": 5707,
      "1623": 5708,
      "2691": 5709,
      "##ug": 5710,
      "2657": 5711,
      "2964": 5712,
      "971": 5713,
      "##once": 5714,
      "2714": 5715,
      "##ote": 5716,
      "bufsize": 5717,
      "##quire": 5718,
      "2053": 5719,
      "##ateg": 5720,
      "##995": 5721,
      "2732": 5722,
      "2630": 5723,
      "dr": 5724,
      "i61": 5725,
      "i184": 5726,
      "arrayidx9": 5727,
      "linkonce": 5728,
      "69550": 5729,
      "static": 5730,
      "i31": 5731,
      "pa": 5732,
      "2497": 5733,
      "3561": 5734,
      "40132": 5735,
      "2909": 5736,
      "2473": 5737,
      "35001": 5738,
      "body8": 5739,
      "2605": 5740,
      "calls": 5741,
      "then50": 5742,
      "mag": 5743,
      "end84": 5744,
      "i155": 5745,
      "##ename": 5746,
      "2918": 5747,
      "28024": 5748,
      "2423": 5749,
      "2780": 5750,
      "3809": 5751,
      "2509": 5752,
      "3029": 5753,
      "##nown": 5754,
      "2884": 5755,
      "70192": 5756,
      "resource": 5757,
      "69528": 5758,
      "i79": 5759,
      "i167": 5760,
      "##head": 5761,
      "ia": 5762,
      "cond10": 5763,
      "vol": 5764,
      "descsz": 5765,
      "1021": 5766,
      "2920": 5767,
      "2535": 5768,
      "gid": 5769,
      "2465": 5770,
      "##desc": 5771,
      "then43": 5772,
      "i109": 5773,
      "etc": 5774,
      "1661": 5775,
      "2193": 5776,
      "i103": 5777,
      "end72": 5778,
      "dynstr": 5779,
      "sd": 5780,
      "1231": 5781,
      "1131": 5782,
      "fro": 5783,
      "bb13": 5784,
      "grok": 5785,
      "2897": 5786,
      "2405": 5787,
      "3105": 5788,
      "2613": 5789,
      "call34": 5790,
      "2393": 5791,
      "feature": 5792,
      "2632": 5793,
      "then49": 5794,
      "end239": 5795,
      "crt": 5796,
      "2382": 5797,
      "after": 5798,
      "1471": 5799,
      "3016": 5800,
      "i102": 5801,
      "1965": 5802,
      "end60": 5803,
      "2537": 5804,
      "##flags": 5805,
      "cal": 5806,
      "cmp34": 5807,
      "i112": 5808,
      "1563": 5809,
      "i93": 5810,
      "1091": 5811,
      "body1": 5812,
      "##ostr": 5813,
      "prote": 5814,
      "581": 5815,
      "2938": 5816,
      "extension": 5817,
      "i74": 5818,
      "unsigned": 5819,
      "mmx": 5820,
      "1803": 5821,
      "protect": 5822,
      "less": 5823,
      "1995": 5824,
      "##reg": 5825,
      "2797": 5826,
      "files": 5827,
      "i106": 5828,
      "may": 5829,
      "2831": 5830,
      "1171": 5831,
      "i218": 5832,
      "##001": 5833,
      "multip": 5834,
      "2949": 5835,
      "i69": 5836,
      "s1": 5837,
      "2889": 5838,
      "2789": 5839,
      "1743": 5840,
      "2908": 5841,
      "bb18": 5842,
      "lines": 5843,
      "10619": 5844,
      "2555": 5845,
      "failing": 5846,
      "then59": 5847,
      "781": 5848,
      "i140": 5849,
      "2710": 5850,
      "sub16": 5851,
      "elem": 5852,
      "2353": 5853,
      "conv9": 5854,
      "9223372036854775807": 5855,
      "i145": 5856,
      "2233": 5857,
      "cleanup13": 5858,
      "indicator": 5859,
      "i111": 5860,
      "end74": 5861,
      "2383": 5862,
      "2547": 5863,
      "2508": 5864,
      "##ose": 5865,
      "7762": 5866,
      "ts": 5867,
      "##path": 5868,
      "multiple": 5869,
      "i92": 5870,
      "load4": 5871,
      "sqrt": 5872,
      "uid": 5873,
      "2451": 5874,
      "3478": 5875,
      "1181": 5876,
      "2571": 5877,
      "106716": 5878,
      "inter": 5879,
      "2987": 5880,
      "2612": 5881,
      "2806": 5882,
      "4231": 5883,
      "freeres": 5884,
      "4229": 5885,
      "i91": 5886,
      "add14": 5887,
      "2303": 5888,
      "226497": 5889,
      "2421": 5890,
      "2713": 5891,
      "2829": 5892,
      "features": 5893,
      "rounded": 5894,
      "3100": 5895,
      "##mad": 5896,
      "1761": 5897,
      "1441": 5898,
      "i11": 5899,
      "2566": 5900,
      "xor2": 5901,
      "limit": 5902,
      "i133": 5903,
      "i169": 5904,
      "i122": 5905,
      "unsa": 5906,
      "decomp": 5907,
      "2183": 5908,
      "unsafe": 5909,
      "043": 5910,
      "isy": 5911,
      "##bas": 5912,
      "2476": 5913,
      "ecoff": 5914,
      "divide": 5915,
      "sse2": 5916,
      "goto": 5917,
      "ptr5": 5918,
      "2676": 5919,
      "correctly": 5920,
      "x87": 5921,
      "2498": 5922,
      "2983": 5923,
      "018": 5924,
      "2343": 5925,
      "elim": 5926,
      "fxsr": 5927,
      "call30": 5928,
      "2672": 5929,
      "nans": 5930,
      "fpmad": 5931,
      "##iew": 5932,
      "infs": 5933,
      "precise": 5934,
      "fold": 5935,
      "trapping": 5936,
      "protector": 5937,
      "i117": 5938,
      "2580": 5939,
      "##cv": 5940,
      "2321": 5941,
      "##ansl": 5942,
      "4928": 5943,
      "i199": 5944,
      "##eturn": 5945,
      "2930": 5946,
      "subexp": 5947,
      "##cpy": 5948,
      "body15": 5949,
      "sm": 5950,
      "gotoff": 5951,
      "pre2": 5952,
      "2526": 5953,
      "2403": 5954,
      "5035": 5955,
      "042": 5956,
      "conv12": 5957,
      "phdrs": 5958,
      "fputc": 5959,
      "1691": 5960,
      "2597": 5961,
      "tmpcast": 5962,
      "1141": 5963,
      "2475": 5964,
      "body9": 5965,
      "collate": 5966,
      "1701": 5967,
      "cursor": 5968,
      "821": 5969,
      "2482": 5970,
      "2934": 5971,
      "body16": 5972,
      "fit": 5973,
      "add15": 5974,
      "ip": 5975,
      "##start": 5976,
      "##mem": 5977,
      "ws": 5978,
      "end87": 5979,
      "add9": 5980,
      "i110": 5981,
      "false4": 5982,
      "2669": 5983,
      "2670": 5984,
      "1241": 5985,
      "2914": 5986,
      "2958": 5987,
      "##ipt": 5988,
      "outdigit": 5989,
      "backref": 5990,
      "setlocale": 5991,
      "##mask": 5992,
      "xstr": 5993,
      "ptr9": 5994,
      "71528": 5995,
      "##ock": 5996,
      "1361": 5997,
      "pub": 5998,
      "76007": 5999,
      "comdat": 6000,
      "3136": 6001,
      "bp": 6002,
      "21474": 6003,
      "then55": 6004,
      "bread": 6005,
      "2663": 6006,
      "sigset": 6007,
      "2392": 6008,
      "hashes": 6009,
      "20484": 6010,
      "notice": 6011,
      "call37": 6012,
      "regs": 6013,
      "i261": 6014,
      "2684": 6015,
      "2261": 6016,
      "then53": 6017,
      "2699": 6018,
      "inp": 6019,
      "i114": 6020,
      "ptr18": 6021,
      "du": 6022,
      "cmp38": 6023,
      "54383": 6024,
      "##atile": 6025,
      "ia64": 6026,
      "79273": 6027,
      "end88": 6028,
      "2506": 6029,
      "curr": 6030,
      "call77": 6031,
      "11304": 6032,
      "call38": 6033,
      "body10": 6034,
      "981": 6035,
      "224176": 6036,
      "i143": 6037,
      "##256": 6038,
      "1511": 6039,
      "tobool11": 6040,
      "224037": 6041,
      "70850": 6042,
      "transl": 6043,
      "i85": 6044,
      "##ification": 6045,
      "1121": 6046,
      "end263": 6047,
      "1531": 6048,
      "3200": 6049,
      "222981": 6050,
      "endptr": 6051,
      "then47": 6052,
      "cmp57": 6053,
      "3006": 6054,
      "i76": 6055,
      "i82": 6056,
      "2922": 6057,
      "2273": 6058,
      "2492": 6059,
      "71574": 6060,
      "bb45": 6061,
      "##valid": 6062,
      "cond16": 6063,
      "i123": 6064,
      "73850": 6065,
      "2978": 6066,
      "volatile": 6067,
      "bb33": 6068,
      "2601": 6069,
      "bb15": 6070,
      "call39": 6071,
      "2323": 6072,
      "230011": 6073,
      "2527": 6074,
      "2689": 6075,
      "225049": 6076,
      "i142": 6077,
      "##ill": 6078,
      "2650": 6079,
      "timestamp": 6080,
      "mess": 6081,
      "233277": 6082,
      "shr4": 6083,
      "fputs": 6084,
      "cmp36": 6085,
      "70636": 6086,
      "true18": 6087,
      "##pro": 6088,
      "crl": 6089,
      "x1": 6090,
      "71526": 6091,
      "tobool16": 6092,
      "78270": 6093,
      "93157": 6094,
      "99136": 6095,
      "##syms": 6096,
      "i182": 6097,
      "3050": 6098,
      "am": 6099,
      "70467": 6100,
      "assign": 6101,
      "i98": 6102,
      "##action": 6103,
      "i95": 6104,
      "i159": 6105,
      "1151": 6106,
      "adler": 6107,
      "add17": 6108,
      "302790": 6109,
      "fwrite": 6110,
      "298490": 6111,
      "292337": 6112,
      "i97": 6113,
      "then46": 6114,
      "conv15": 6115,
      "fileinfo": 6116,
      "3348": 6117,
      "2810": 6118,
      "peel": 6119,
      "1963": 6120,
      "2955": 6121,
      "tobool17": 6122,
      "##512": 6123,
      "end96": 6124,
      "export": 6125,
      "3395": 6126,
      "i151": 6127,
      "cmp40": 6128,
      "2683": 6129,
      "2904": 6130,
      "2598": 6131,
      "3776": 6132,
      "i138": 6133,
      "jump": 6134,
      "i118": 6135,
      "expressions": 6136,
      "i125": 6137,
      "i135": 6138,
      "2487": 6139,
      "##ifier": 6140,
      "4303": 6141,
      "pop": 6142,
      "7750": 6143,
      "add6": 6144,
      "##idate": 6145,
      "2281": 6146,
      "i83": 6147,
      "end73": 6148,
      "1951": 6149,
      "bc": 6150,
      "i86": 6151,
      "add19": 6152,
      "2505": 6153,
      "ext1": 6154,
      "i176": 6155,
      "2653": 6156,
      "else6": 6157,
      "wp": 6158,
      "symndx": 6159,
      "etree": 6160,
      "2147483": 6161,
      "2742": 6162,
      "1611": 6163,
      "1681": 6164,
      "2592": 6165,
      "1671": 6166,
      "1901": 6167,
      "unres": 6168,
      "arrayidx10": 6169,
      "0c": 6170,
      "##ilog": 6171,
      "i100": 6172,
      "verilog": 6173,
      "yyv": 6174,
      "call46": 6175,
      "3004": 6176,
      "conv10": 6177,
      "categ": 6178,
      "1331": 6179,
      "2241": 6180,
      "add18": 6181,
      "2586": 6182,
      "end71": 6183,
      "3032": 6184,
      "i132": 6185,
      "##009": 6186,
      "3130": 6187,
      "then56": 6188,
      "cmp47": 6189,
      "rawsize": 6190,
      "i201": 6191,
      "category": 6192,
      "751": 6193,
      "i71": 6194,
      "2609": 6195,
      "irel": 6196,
      "2951": 6197,
      "unresolved": 6198,
      "body13": 6199,
      "2637": 6200,
      "71764": 6201,
      "dwarf1": 6202,
      "indirect": 6203,
      "4191": 6204,
      "831": 6205,
      "i153": 6206,
      "separ": 6207,
      "i127": 6208,
      "want": 6209,
      "3939": 6210,
      "24807": 6211,
      "i134": 6212,
      "i73": 6213,
      "sprintf": 6214,
      "##008": 6215,
      "i200": 6216,
      "nop": 6217,
      "end169": 6218,
      "3712": 6219,
      "8134": 6220,
      "2565": 6221,
      "2864": 6222,
      "2640": 6223,
      "i232": 6224,
      "1281": 6225,
      "add20": 6226,
      "i120": 6227,
      "i70": 6228,
      "pol": 6229,
      "ui": 6230,
      "vmat": 6231,
      "2932": 6232,
      "vmatoa": 6233,
      "hw": 6234,
      "2770": 6235,
      "2952": 6236,
      "2849": 6237,
      "##system": 6238,
      "3112": 6239,
      "chang": 6240,
      "3202": 6241,
      "##seek": 6242,
      "3034": 6243,
      "3009": 6244,
      "35591": 6245,
      "2401": 6246,
      "##004": 6247,
      "i77": 6248,
      "then63": 6249,
      "bb180": 6250,
      "##006": 6251,
      "5898": 6252,
      "minis": 6253,
      "doc": 6254,
      "mline": 6255,
      "1411": 6256,
      "i149": 6257,
      "then259": 6258,
      "i130": 6259,
      "prog": 6260,
      "run": 6261,
      "2818": 6262,
      "3477": 6263,
      "##isc": 6264,
      "1381": 6265,
      "2902": 6266,
      "155668": 6267,
      "call40": 6268,
      "2913": 6269,
      "varinfo": 6270,
      "then52": 6271,
      "2912": 6272,
      "2817": 6273,
      "3520": 6274,
      "verify": 6275,
      "3120": 6276,
      "i115": 6277,
      "2736": 6278,
      "3940": 6279,
      "2989": 6280,
      "91780": 6281,
      "oc": 6282,
      "##check": 6283,
      "and4": 6284,
      "##daux": 6285,
      "ptr15": 6286,
      "##hest": 6287,
      "7827": 6288,
      "i146": 6289,
      "2812": 6290,
      "7574": 6291,
      "hig": 6292,
      "3099": 6293,
      "2626": 6294,
      "else10": 6295,
      "maj": 6296,
      "4032": 6297,
      "highest": 6298,
      "3328": 6299,
      "2830": 6300,
      "6848": 6301,
      "1861": 6302,
      "3495": 6303,
      "3885": 6304,
      "seque": 6305,
      "i185": 6306,
      "4146": 6307,
      "end75": 6308,
      "2779": 6309,
      "##dx": 6310,
      "i284": 6311,
      "i113": 6312,
      "i186": 6313,
      "pkcs7": 6314,
      "1251": 6315,
      "type13": 6316,
      "3905": 6317,
      "exclude": 6318,
      "2744": 6319,
      "2584": 6320,
      "4195": 6321,
      "car": 6322,
      "safe": 6323,
      "config": 6324,
      "3082": 6325,
      "duo": 6326,
      "i157": 6327,
      "0f": 6328,
      "2590": 6329,
      "exit5": 6330,
      "i259": 6331,
      "##served": 6332,
      "conn": 6333,
      "i150": 6334,
      "2690": 6335,
      "2767": 6336,
      "1271": 6337,
      "else17": 6338,
      "266295": 6339,
      "3708": 6340,
      "2911": 6341,
      "i216": 6342,
      "2607": 6343,
      "3019": 6344,
      "2939": 6345,
      "require": 6346,
      "2644": 6347,
      "isymbuf": 6348,
      "##ipe": 6349,
      "end240": 6350,
      "##rec": 6351,
      "cmp43": 6352,
      "bwrite": 6353,
      "2733": 6354,
      "2883": 6355,
      "magic": 6356,
      "2271": 6357,
      "mk": 6358,
      "2828": 6359,
      "2221": 6360,
      "http": 6361,
      "delete": 6362,
      "4170": 6363,
      "pri": 6364,
      "2507": 6365,
      "yyvsp": 6366,
      "##1174": 6367,
      "vtable": 6368,
      "preserve": 6369,
      "end434": 6370,
      "2834": 6371,
      "end101": 6372,
      "3079": 6373,
      "5466": 6374,
      "spac": 6375,
      "factors": 6376,
      "then98": 6377,
      "3080": 6378,
      "i96": 6379,
      "2461": 6380,
      "tilepro": 6381,
      "invalid": 6382,
      "##ute": 6383,
      "end99": 6384,
      "body25": 6385,
      "1541": 6386,
      "select3": 6387,
      "norecurse": 6388,
      "i160": 6389,
      "6912": 6390,
      "remove": 6391,
      "3058": 6392,
      "next40": 6393,
      "3060": 6394,
      "1401": 6395,
      "cmp42": 6396,
      "1991": 6397,
      "cmp46": 6398,
      "##sw": 6399,
      "3456": 6400,
      "sigaction": 6401,
      "##ority": 6402,
      "3807": 6403,
      "sock": 6404,
      "i87": 6405,
      "2769": 6406,
      "inc3": 6407,
      "##asse": 6408,
      "i212": 6409,
      "decomposition": 6410,
      "##ole": 6411,
      "2869": 6412,
      "78480": 6413,
      "2622": 6414,
      "and3": 6415,
      "amb": 6416,
      "##way": 6417,
      "add16": 6418,
      "3059": 6419,
      "3017": 6420,
      "2595": 6421,
      "91819": 6422,
      "1371": 6423,
      "3012": 6424,
      "4781": 6425,
      "allow": 6426,
      "3040": 6427,
      "2131": 6428,
      "2525": 6429,
      "1191": 6430,
      "34246": 6431,
      "3941": 6432,
      "form": 6433,
      "2874": 6434,
      "2870": 6435,
      "sparc": 6436,
      "2906": 6437,
      "2573": 6438,
      "end78": 6439,
      "tobool19": 6440,
      "##used": 6441,
      "ambig": 6442,
      "2351": 6443,
      "7859": 6444,
      "3725": 6445,
      "##utex": 6446,
      "2602": 6447,
      "call56": 6448,
      "i121": 6449,
      "3013": 6450,
      "call36": 6451,
      "##wor": 6452,
      "call53": 6453,
      "1891": 6454,
      "2051": 6455,
      "2463": 6456,
      "httpd": 6457,
      "017": 6458,
      "ate": 6459,
      "allocate": 6460,
      "bb17": 6461,
      "mac": 6462,
      "3070": 6463,
      "##verse": 6464,
      "cmp44": 6465,
      "i215": 6466,
      "bkref": 6467,
      "5412": 6468,
      "1601": 6469,
      "2647": 6470,
      "1651": 6471,
      "1421": 6472,
      "i158": 6473,
      "2141": 6474,
      "identification": 6475,
      "3392": 6476,
      "true16": 6477,
      "6528": 6478,
      "##pm": 6479,
      "end81": 6480,
      "2929": 6481,
      "2928": 6482,
      "i172": 6483,
      "i303": 6484,
      "##003": 6485,
      "mpn": 6486,
      "ugid": 6487,
      "tp": 6488,
      "bb28": 6489,
      "3018": 6490,
      "or2": 6491,
      "bb20": 6492,
      "drbg": 6493,
      "mov": 6494,
      "2968": 6495,
      "ptr1": 6496,
      "2652": 6497,
      "##871": 6498,
      "2848": 6499,
      "2722": 6500,
      "2850": 6501,
      "024": 6502,
      "arrayidx14": 6503,
      "end85": 6504,
      "act": 6505,
      "2485": 6506,
      "undefined": 6507,
      "then65": 6508,
      "2201": 6509,
      "bo": 6510,
      "i264": 6511,
      "protected": 6512,
      "2021": 6513,
      "cmp49": 6514,
      "reserved": 6515,
      "2888": 6516,
      "2707": 6517,
      "##007": 6518,
      "dsa": 6519,
      "bb201": 6520,
      "3916": 6521,
      "2999": 6522,
      "3114": 6523,
      "cleanup431": 6524,
      "strcase": 6525,
      "true11": 6526,
      "3090": 6527,
      "extractvalue": 6528,
      "ir": 6529,
      "2820": 6530,
      "3014": 6531,
      "i152": 6532,
      "false10": 6533,
      "##ont": 6534,
      "1751": 6535,
      "ptr6": 6536,
      "##ots": 6537,
      "##decl": 6538,
      "##group": 6539,
      "i72": 6540,
      "then64": 6541,
      "3364": 6542,
      "end83": 6543,
      "end105": 6544,
      "auxent": 6545,
      "3850": 6546,
      "i220": 6547,
      "2727": 6548,
      "##olean": 6549,
      "041": 6550,
      "##red": 6551,
      "2980": 6552,
      "3055": 6553,
      "335544": 6554,
      "filedata": 6555,
      "call42": 6556,
      "1911": 6557,
      "i203": 6558,
      "2561": 6559,
      "3851": 6560,
      "4318": 6561,
      "2970": 6562,
      "mtime": 6563,
      "i335": 6564,
      "##context": 6565,
      "2726": 6566,
      "pei": 6567,
      "6251": 6568,
      "cs": 6569,
      "i190": 6570,
      "3020": 6571,
      "tobool15": 6572,
      "##buff": 6573,
      "##fwd": 6574,
      "fileno": 6575,
      "2725": 6576,
      "diflagfwd": 6577,
      "diflagfwddecl": 6578,
      "noreturn": 6579,
      "nbytes": 6580,
      "bfds": 6581,
      "2940": 6582,
      "2998": 6583,
      "3648": 6584,
      "2819": 6585,
      "end111": 6586,
      "matches": 6587,
      "3024": 6588,
      "3084": 6589,
      "call43": 6590,
      "des": 6591,
      "69529": 6592,
      "3171": 6593,
      "1351": 6594,
      "2677": 6595,
      "false9": 6596,
      "cand": 6597,
      "i224": 6598,
      "end86": 6599,
      "2703": 6600,
      "2790": 6601,
      "amt": 6602,
      "flags2": 6603,
      "1781": 6604,
      "2969": 6605,
      "end102": 6606,
      "2997": 6607,
      "2493": 6608,
      "2778": 6609,
      "2081": 6610,
      "5762": 6611,
      "3434": 6612,
      "85282": 6613,
      "verdaux": 6614,
      "4273": 6615,
      "2391": 6616,
      "2979": 6617,
      "35569": 6618,
      "rva": 6619,
      "##hstr": 6620,
      "4707": 6621,
      "cf": 6622,
      "1961": 6623,
      "newfunc": 6624,
      "pm": 6625,
      "3147": 6626,
      "else733": 6627,
      "i119": 6628,
      "hi16": 6629,
      "gsource": 6630,
      "end62": 6631,
      "2011": 6632,
      "3098": 6633,
      "1641": 6634,
      "changed": 6635,
      "i162": 6636,
      "4508": 6637,
      "##ified": 6638,
      "iostr": 6639,
      "iostream": 6640,
      "2907": 6641,
      "i174": 6642,
      "2071": 6643,
      "add12": 6644,
      "7183": 6645,
      "1481": 6646,
      "2903": 6647,
      "8526": 6648,
      "byteorder": 6649,
      "##lots": 6650,
      "unk": 6651,
      "nslots": 6652,
      "true13": 6653,
      "unknown": 6654,
      "2531": 6655,
      "2694": 6656,
      "i89": 6657,
      "3068": 6658,
      "bss": 6659,
      "1431": 6660,
      "then61": 6661,
      "cmp52": 6662,
      "3116": 6663,
      "3840": 6664,
      "end345": 6665,
      "symdef": 6666,
      "1301": 6667,
      "2916": 6668,
      "cond9": 6669,
      "2545": 6670,
      "i197": 6671,
      "call51": 6672,
      "then85": 6673,
      "2807": 6674,
      "2840": 6675,
      "1731": 6676,
      "3069": 6677,
      "einfo": 6678,
      "end92": 6679,
      "4729": 6680,
      "70842": 6681,
      "direction": 6682,
      "2696": 6683,
      "strip": 6684,
      "usage": 6685,
      "2762": 6686,
      "cond14": 6687,
      "wpacket": 6688,
      "inc7": 6689,
      "shr2": 6690,
      "5925": 6691,
      "boolean": 6692,
      "1881": 6693,
      "29472": 6694,
      "45909": 6695,
      "039": 6696,
      "shstr": 6697,
      "executable": 6698,
      "##1172": 6699,
      "72033": 6700,
      "add24": 6701,
      "disp": 6702,
      "##sts": 6703,
      "3010": 6704,
      "2915": 6705,
      "i222": 6706,
      "inc19": 6707,
      "descpos": 6708,
      "i173": 6709,
      "dibas": 6710,
      "2698": 6711,
      "##ictype": 6712,
      "complet": 6713,
      "dibasictype": 6714,
      "3140": 6715,
      "native": 6716,
      "kept": 6717,
      "then69": 6718,
      "2483": 6719,
      "cmp51": 6720,
      "76006": 6721,
      "2890": 6722,
      "then100": 6723,
      "or1": 6724,
      "1501": 6725,
      "71242": 6726,
      "4149": 6727,
      "tprel": 6728,
      "unused": 6729,
      "3057": 6730,
      "4224": 6731,
      "cmp48": 6732,
      "ck": 6733,
      "2656": 6734,
      "9105": 6735,
      "3118": 6736,
      "2743": 6737,
      "10000": 6738,
      "1561": 6739,
      "1921": 6740,
      "mt": 6741,
      "i116": 6742,
      "3078": 6743,
      "ptr12": 6744,
      "69551": 6745,
      "0114": 6746,
      "extractelement": 6747,
      "013": 6748,
      "1841": 6749,
      "0e": 6750,
      "i177": 6751,
      "seek": 6752,
      "59181": 6753,
      "x0": 6754,
      "2946": 6755,
      "offsets": 6756,
      "##atch": 6757,
      "cmp56": 6758,
      "2795": 6759,
      "codeset": 6760,
      "i101": 6761,
      "71382": 6762,
      "##cvt": 6763,
      "body11": 6764,
      "2737": 6765,
      "3897": 6766,
      "51184": 6767,
      "prov": 6768,
      "1391": 6769,
      "5751": 6770,
      "fp80": 6771,
      "one": 6772,
      "gl": 6773,
      "3441": 6774,
      "date": 6775,
      "i154": 6776,
      "end542": 6777,
      "2648": 6778,
      "ptr14": 6779,
      "candidate": 6780,
      "2825": 6781,
      "rndx": 6782,
      "70193": 6783,
      "2966": 6784,
      "2856": 6785,
      "##address": 6786,
      "filesz": 6787,
      "70301": 6788,
      "2899": 6789,
      "5243": 6790,
      "7431": 6791,
      "6263": 6792,
      "24817": 6793,
      "amount": 6794,
      "i161": 6795,
      "2101": 6796,
      "2572": 6797,
      "##rypt": 6798,
      "conv14": 6799,
      "cc": 6800,
      "i194": 6801,
      "end143": 6802,
      "2948": 6803,
      "85304": 6804,
      "2784": 6805,
      "tables": 6806,
      "i131": 6807,
      "701": 6808,
      "247411": 6809,
      "3119": 6810,
      "authtab": 6811,
      "exit10": 6812,
      "compar": 6813,
      "036": 6814,
      "2786": 6815,
      "2575": 6816,
      "i144": 6817,
      "i178": 6818,
      "i263": 6819,
      "cmp50": 6820,
      "except": 6821,
      "i168": 6822,
      "3113": 6823,
      "2682": 6824,
      "dirstream": 6825,
      "3110": 6826,
      "##ost": 6827,
      "1981": 6828,
      "rels": 6829,
      "xor3": 6830,
      "3148": 6831,
      "call44": 6832,
      "indent": 6833,
      "i231": 6834,
      "2935": 6835,
      "argv0": 6836,
      "43121": 6837,
      "2953": 6838,
      "2646": 6839,
      "3104": 6840,
      "then92": 6841,
      "3264": 6842,
      "bb296": 6843,
      "2800": 6844,
      "5748": 6845,
      "2963": 6846,
      "false7": 6847,
      "iters": 6848,
      "2495": 6849,
      "3132": 6850,
      "3117": 6851,
      "3103": 6852,
      "compatible": 6853,
      "##bfd": 6854,
      "1791": 6855,
      "5768": 6856,
      "simp": 6857,
      "1941": 6858,
      "shl2": 6859,
      "2623": 6860,
      "2894": 6861,
      "maxpagesize": 6862,
      "maybe": 6863,
      "1621": 6864,
      "datas": 6865,
      "i244": 6866,
      "5743": 6867,
      "my": 6868,
      "1261": 6869,
      "3089": 6870,
      "tobool18": 6871,
      "##lus": 6872,
      "2993": 6873,
      "5750": 6874,
      "i180": 6875,
      "cmp62": 6876,
      "cond7": 6877,
      "5757": 6878,
      "3007": 6879,
      "032": 6880,
      "3762": 6881,
      "i204": 6882,
      "1801": 6883,
      "2845": 6884,
      "minor": 6885,
      "compressed": 6886,
      "end100": 6887,
      "2441": 6888,
      "4730": 6889,
      "i187": 6890,
      "cmp64": 6891,
      "3077": 6892,
      "frch": 6893,
      "##cat": 6894,
      "i236": 6895,
      "5952": 6896,
      "then62": 6897,
      "3094": 6898,
      "2643": 6899,
      "3074": 6900,
      "2686": 6901,
      "end157": 6902,
      "2878": 6903,
      "2627": 6904,
      "2576": 6905,
      "10806": 6906,
      "esym": 6907,
      "limb": 6908,
      "6144": 6909,
      "then79": 6910,
      "5761": 6911,
      "6009": 6912,
      "cmp45": 6913,
      "3064": 6914,
      "32768": 6915,
      "i179": 6916,
      "4266": 6917,
      "end172": 6918,
      "3015": 6919,
      "2563": 6920,
      "2708": 6921,
      "dynobj": 6922,
      "2662": 6923,
      "##reak": 6924,
      "3049": 6925,
      "2735": 6926,
      "call48": 6927,
      "3180": 6928,
      "then78": 6929,
      "funcs": 6930,
      "3035": 6931,
      "29889": 6932,
      "tobool30": 6933,
      "##lict": 6934,
      "i214": 6935,
      "i139": 6936,
      "2986": 6937,
      "i193": 6938,
      "2001": 6939,
      "2994": 6940,
      "4480": 6941,
      "conflict": 6942,
      "2311": 6943,
      "true138": 6944,
      "cond8": 6945,
      "bb179": 6946,
      "2502": 6947,
      "obuf": 6948,
      "2687": 6949,
      "codecvt": 6950,
      "pse": 6951,
      "putl": 6952,
      "5746": 6953,
      "9252": 6954,
      "i129": 6955,
      "3472": 6956,
      "##hi": 6957,
      "##1171": 6958,
      "numaux": 6959,
      "plt0": 6960,
      "left14": 6961,
      "call55": 6962,
      "10649": 6963,
      "lo12": 6964,
      "major": 6965,
      "16384": 6966,
      "arrayidx12": 6967,
      "then58": 6968,
      "message": 6969,
      "cwd": 6970,
      "true187": 6971,
      "3115": 6972,
      "5755": 6973,
      "2533": 6974,
      "2666": 6975,
      "priority": 6976,
      "3584": 6977,
      "ag": 6978,
      "##ged": 6979,
      "dot": 6980,
      "2925": 6981,
      "2947": 6982,
      "cond13": 6983,
      "2692": 6984,
      "2231": 6985,
      "cond5": 6986,
      "right17": 6987,
      "digest": 6988,
      "pseud": 6989,
      "i126": 6990,
      "then74": 6991,
      "2675": 6992,
      "##ped": 6993,
      "2808": 6994,
      "body19": 6995,
      "6336": 6996,
      "2697": 6997,
      "34376": 6998,
      "arrayidx20": 6999,
      "2976": 7000,
      "relocate": 7001,
      "5741": 7002,
      "##adcast": 7003,
      "120362": 7004,
      "cplus": 7005,
      "p2": 7006,
      "3817": 7007,
      "2826": 7008,
      "lx": 7009,
      "26144": 7010,
      "bb29": 7011,
      "24860": 7012,
      "regist": 7013,
      "253942": 7014,
      "035": 7015,
      "4275": 7016,
      "lit": 7017,
      "25696": 7018,
      "5747": 7019,
      "true142": 7020,
      "body36": 7021,
      "sch": 7022,
      "call41": 7023,
      "##cess": 7024,
      "6397": 7025,
      "i188": 7026,
      "i207": 7027,
      "##dup": 7028,
      "26652": 7029,
      "65536": 7030,
      "pf": 7031,
      "load6": 7032,
      "cond12": 7033,
      "i238": 7034,
      "6511": 7035,
      "4608": 7036,
      "ctr": 7037,
      "3054": 7038,
      "2877": 7039,
      "29457": 7040,
      "4288": 7041,
      "##slist": 7042,
      "i183": 7043,
      "end106": 7044,
      "true191": 7045,
      "sub4": 7046,
      "part": 7047,
      "page": 7048,
      "end127": 7049,
      "sub22": 7050,
      "simple": 7051,
      "cmp55": 7052,
      "##open": 7053,
      "body14": 7054,
      "end90": 7055,
      "cmp72": 7056,
      "i230": 7057,
      "carsym": 7058,
      "4706": 7059,
      "3038": 7060,
      "2822": 7061,
      "2631": 7062,
      "2798": 7063,
      "24861": 7064,
      "27276": 7065,
      "gslist": 7066,
      "2892": 7067,
      "ss": 7068,
      "50372": 7069,
      "4416": 7070,
      "2896": 7071,
      "1741": 7072,
      "i260": 7073,
      "##ule": 7074,
      "266271": 7075,
      "##alg": 7076,
      "2031": 7077,
      "51540": 7078,
      "3822": 7079,
      "i219": 7080,
      "relro": 7081,
      "2977": 7082,
      "2842": 7083,
      "end93": 7084,
      "expand": 7085,
      "tlsdesc": 7086,
      "1571": 7087,
      "bro": 7088,
      "59512": 7089,
      "select2": 7090,
      "3108": 7091,
      "i253": 7092,
      "true15": 7093,
      "##bits": 7094,
      "inv": 7095,
      "outs": 7096,
      "6213": 7097,
      "2706": 7098,
      "broadcast": 7099,
      "ptr16": 7100,
      "3254": 7101,
      "bb184": 7102,
      "6516": 7103,
      "##hed": 7104,
      "2992": 7105,
      "2835": 7106,
      "cached": 7107,
      "2898": 7108,
      "srel": 7109,
      "wr": 7110,
      "then60": 7111,
      "##icy": 7112,
      "4118": 7113,
      "i288": 7114,
      "##epad": 7115,
      "spacepad": 7116,
      "ye": 7117,
      "includes": 7118,
      "i163": 7119,
      "2695": 7120,
      "i248": 7121,
      "pu": 7122,
      "too": 7123,
      "true286": 7124,
      "else8": 7125,
      "3244": 7126,
      "230062": 7127,
      "ckcore": 7128,
      "3149": 7129,
      "i175": 7130,
      "bias": 7131,
      "rp": 7132,
      "strt": 7133,
      "2827": 7134,
      "i209": 7135,
      "bb16": 7136,
      "14877": 7137,
      "3235": 7138,
      "2041": 7139,
      "decode": 7140,
      "ocsp": 7141,
      "2876": 7142,
      "conv17": 7143,
      "3968": 7144,
      "2788": 7145,
      "##eq": 7146,
      "cmp58": 7147,
      "2846": 7148,
      "2809": 7149,
      "spl": 7150,
      "uint": 7151,
      "##rem": 7152,
      "6112": 7153,
      "124628": 7154,
      "2882": 7155,
      "2611": 7156,
      "2633": 7157,
      "2645": 7158,
      "##1178": 7159,
      "gd": 7160,
      "##anges": 7161,
      "4672": 7162,
      "2603": 7163,
      "1811": 7164,
      "nondef": 7165,
      "relptr": 7166,
      "3096": 7167,
      "body146": 7168,
      "undefs": 7169,
      "vda": 7170,
      "splat": 7171,
      "2886": 7172,
      "##itional": 7173,
      "2503": 7174,
      "5315": 7175,
      "6939": 7176,
      "iv40": 7177,
      "3083": 7178,
      "iv10": 7179,
      "ptr20": 7180,
      "bb22": 7181,
      "5764": 7182,
      "##acter": 7183,
      "12905": 7184,
      "pl": 7185,
      "1711": 7186,
      "128592": 7187,
      "1821": 7188,
      "3169": 7189,
      "i305": 7190,
      "12303": 7191,
      "cmp53": 7192,
      "sequence": 7193,
      "2331": 7194,
      "6464": 7195,
      "209407": 7196,
      "arrayidx18": 7197,
      "i301": 7198,
      "##mul": 7199,
      "3473": 7200,
      "4091": 7201,
      "4160": 7202,
      "i141": 7203,
      "76175": 7204,
      "loopexit3": 7205,
      "194825": 7206,
      "8131": 7207,
      "2593": 7208,
      "provide": 7209,
      "load7": 7210,
      "3217": 7211,
      "3138": 7212,
      "2885": 7213,
      "3811": 7214,
      "resp": 7215,
      "aug": 7216,
      "then68": 7217,
      "##dests": 7218,
      "end114": 7219,
      "5654": 7220,
      "119346": 7221,
      "118290": 7222,
      "##place": 7223,
      "i249": 7224,
      "127323": 7225,
      "i217": 7226,
      "optarg": 7227,
      "130481": 7228,
      "##bsd": 7229,
      "elfclass": 7230,
      "2625": 7231,
      "##compress": 7232,
      "196958": 7233,
      "outsymbols": 7234,
      "colon": 7235,
      "7720": 7236,
      "107255": 7237,
      "4031": 7238,
      "i211": 7239,
      "223032": 7240,
      "##1176": 7241,
      "day": 7242,
      "deps": 7243,
      "6016": 7244,
      "3002": 7245,
      "false601": 7246,
      "2567": 7247,
      "else9": 7248,
      "224227": 7249,
      "13317": 7250,
      "##ner": 7251,
      "call49": 7252,
      "cleanup5": 7253,
      "nc": 7254,
      "2251": 7255,
      "memsz": 7256,
      "import": 7257,
      "ge": 7258,
      "i156": 7259,
      "i281": 7260,
      "17504": 7261,
      "3476": 7262,
      "52086": 7263,
      "imagebase": 7264,
      "1771": 7265,
      "i257": 7266,
      "37033": 7267,
      "2523": 7268,
      "224088": 7269,
      "end151": 7270,
      "##nel": 7271,
      "1971": 7272,
      "policy": 7273,
      "6032": 7274,
      "225100": 7275,
      "lo16": 7276,
      "signature": 7277,
      "2937": 7278,
      "166737": 7279,
      "i221": 7280,
      "1581": 7281,
      "3048": 7282,
      "7182": 7283,
      "call63": 7284,
      "end95": 7285,
      "i279": 7286,
      "insertelement": 7287,
      "3137": 7288,
      "2341": 7289,
      "233328": 7290,
      "sofar": 7291,
      "6400": 7292,
      "6656": 7293,
      "call47": 7294,
      "namelen": 7295,
      "urem": 7296,
      "cmp86": 7297,
      "i164": 7298,
      "15693": 7299,
      "2721": 7300,
      "030": 7301,
      "2642": 7302,
      "226548": 7303,
      "bb310": 7304,
      "dtprel": 7305,
      "##uce": 7306,
      "2996": 7307,
      "2777": 7308,
      "i202": 7309,
      "end124": 7310,
      "locals": 7311,
      "i338": 7312,
      "cleanup422": 7313,
      "3062": 7314,
      "6208": 7315,
      "required": 7316,
      "##mode": 7317,
      "3187": 7318,
      "##symcount": 7319,
      "gstring": 7320,
      "msec": 7321,
      "inner": 7322,
      "end683": 7323,
      "23110": 7324,
      "merged": 7325,
      "3128": 7326,
      "true19": 7327,
      "arrayidx16": 7328,
      "10652": 7329,
      "##1170": 7330,
      "3101": 7331,
      "1831": 7332,
      "false291": 7333,
      "2606": 7334,
      "fixup": 7335,
      "5771": 7336,
      "2936": 7337,
      "loopexit36": 7338,
      "sub8": 7339,
      "i277": 7340,
      "unwind": 7341,
      "49842": 7342,
      "i276": 7343,
      "1851": 7344,
      "conv11": 7345,
      "scnhdr": 7346,
      "i299": 7347,
      "##we": 7348,
      "##init": 7349,
      "cmp76": 7350,
      "2957": 7351,
      "##yms": 7352,
      "arrayidx28": 7353,
      "6080": 7354,
      "##icr": 7355,
      "regions": 7356,
      "5153": 7357,
      "mutex": 7358,
      "areltdata": 7359,
      "6488": 7360,
      "6530": 7361,
      "292388": 7362,
      "7597": 7363,
      "and1": 7364,
      "298541": 7365,
      "302841": 7366,
      "end116": 7367,
      "##annel": 7368,
      "allocated": 7369,
      "5120": 7370,
      "blk": 7371,
      "5184": 7372,
      "i250": 7373,
      "2301": 7374,
      "##047": 7375,
      "4544": 7376,
      "adjusted": 7377,
      "then109": 7378,
      "2872": 7379,
      "sub6": 7380,
      "51635": 7381,
      "break": 7382,
      "3056": 7383,
      "3022": 7384,
      "idxprom4": 7385,
      "stash": 7386,
      "then70": 7387,
      "29084": 7388,
      "call66": 7389,
      "uncompress": 7390,
      "4212": 7391,
      "26492": 7392,
      "3259": 7393,
      "cast2": 7394,
      "32471": 7395,
      "share": 7396,
      "2905": 7397,
      "5798": 7398,
      "call45": 7399,
      "5632": 7400,
      "254010": 7401,
      "##lic": 7402,
      "then108": 7403,
      "254291": 7404,
      "26869": 7405,
      "##1175": 7406,
      "else13": 7407,
      "235121": 7408,
      "##statecheck": 7409,
      "fclose": 7410,
      "i292": 7411,
      "2766": 7412,
      "sub13": 7413,
      "3174": 7414,
      "sift": 7415,
      "cmp63": 7416,
      "2705": 7417,
      "env": 7418,
      "filter": 7419,
      "3470": 7420,
      "2843": 7421,
      "6272": 7422,
      "2836": 7423,
      "i298": 7424,
      "then94": 7425,
      "i269": 7426,
      "##00000": 7427,
      "i226": 7428,
      "rec": 7429,
      "then89": 7430,
      "12924": 7431,
      "blocks": 7432,
      "3124": 7433,
      "56255": 7434,
      "oct": 7435,
      "end104": 7436,
      "72022": 7437,
      "42348": 7438,
      "2804": 7439,
      "bz": 7440,
      "i285": 7441,
      "i206": 7442,
      "then102": 7443,
      "symb": 7444,
      "prstatus": 7445,
      "50477": 7446,
      "tobool616": 7447,
      "valref": 7448,
      "51126": 7449,
      "49851": 7450,
      "lmargin": 7451,
      "##wc": 7452,
      "and7": 7453,
      "2772": 7454,
      "3146": 7455,
      "##850": 7456,
      "cmp54": 7457,
      "6017": 7458,
      "i192": 7459,
      "3164": 7460,
      "mbchar": 7461,
      "6507": 7462,
      "i170": 7463,
      "78469": 7464,
      "3142": 7465,
      "9313": 7466,
      "uncompressed": 7467,
      "048": 7468,
      "3344": 7469,
      "3134": 7470,
      "5207": 7471,
      "neare": 7472,
      "counter": 7473,
      "6592": 7474,
      "i171": 7475,
      "nearest": 7476,
      "i262": 7477,
      "call50": 7478,
      "tobool29": 7479,
      "3036": 7480,
      "##1179": 7481,
      "##lent": 7482,
      "hasher": 7483,
      "3144": 7484,
      "##ll": 7485,
      "conv21": 7486,
      "6784": 7487,
      "##comm": 7488,
      "2887": 7489,
      "2511": 7490,
      "4864": 7491,
      "cmp65": 7492,
      "processing": 7493,
      "end121": 7494,
      "##1173": 7495,
      "nondeflt": 7496,
      "2381": 7497,
      "2988": 7498,
      "2723": 7499,
      "5248": 7500,
      "else16": 7501,
      "3417": 7502,
      "i316": 7503,
      "33036": 7504,
      "true17": 7505,
      "try": 7506,
      "2161": 7507,
      "opts": 7508,
      "2061": 7509,
      "vis": 7510,
      "3813": 7511,
      "56876": 7512,
      "templates": 7513,
      "3702": 7514,
      "groups": 7515,
      "033": 7516,
      "newline": 7517,
      "##view": 7518,
      "false12": 7519,
      "conv445": 7520,
      "4992": 7521,
      "2975": 7522,
      "4333": 7523,
      "1871": 7524,
      "2965": 7525,
      "body21": 7526,
      "idxprom2": 7527,
      "cies": 7528,
      "2837": 7529,
      "##ance": 7530,
      "false15": 7531,
      "4819": 7532,
      "1321": 7533,
      "checksum": 7534,
      "##bss": 7535,
      "2942": 7536,
      "then57": 7537,
      "2941": 7538,
      "i195": 7539,
      "2862": 7540,
      "dynver": 7541,
      "2667": 7542,
      "i246": 7543,
      "3792": 7544,
      "glib": 7545,
      "call60": 7546,
      "2927": 7547,
      "3086": 7548,
      "body50": 7549,
      "dynsymcount": 7550,
      "2823": 7551,
      "6720": 7552,
      "5376": 7553,
      "2833": 7554,
      "cleanup1353": 7555,
      "i295": 7556,
      "i323": 7557,
      "3190": 7558,
      "2481": 7559,
      "i196": 7560,
      "##ake": 7561,
      "body20": 7562,
      "3796": 7563,
      "i282": 7564,
      "end89": 7565,
      "i191": 7566,
      "getb": 7567,
      "cond49": 7568,
      "then75": 7569,
      "237189": 7570,
      "3195": 7571,
      "34829": 7572,
      "4800": 7573,
      "begin": 7574,
      "7040": 7575,
      "i227": 7576,
      "cmp70": 7577,
      "4424": 7578,
      "and6": 7579,
      "2621": 7580,
      "##systemversion": 7581,
      "3107": 7582,
      "242150": 7583,
      "3097": 7584,
      "5350": 7585,
      "37632": 7586,
      "i208": 7587,
      "236177": 7588,
      "namesz": 7589,
      "3073": 7590,
      "compact": 7591,
      "##pc": 7592,
      "##cccc": 7593,
      "xfree": 7594,
      "236316": 7595,
      "arrayidx17": 7596,
      "nsec": 7597,
      "cmp67": 7598,
      "3026": 7599,
      "34320": 7600,
      "extp": 7601,
      "238637": 7602,
      "##phan": 7603,
      "35451": 7604,
      "3160": 7605,
      "add25": 7606,
      "3085": 7607,
      "##shift": 7608,
      "i189": 7609,
      "i181": 7610,
      "end76": 7611,
      "i228": 7612,
      "digits": 7613,
      "micr": 7614,
      "when": 7615,
      "245421": 7616,
      "abmon": 7617,
      "i324": 7618,
      "strcaseeq": 7619,
      "arrayidx19": 7620,
      "3827": 7621,
      "i254": 7622,
      "26822": 7623,
      "3758": 7624,
      "4977": 7625,
      "i234": 7626,
      "codeview": 7627,
      "4199": 7628,
      "symver": 7629,
      "42351": 7630,
      "3805": 7631,
      "scnum": 7632,
      "cond6": 7633,
      "2893": 7634,
      "33038": 7635,
      "##begin": 7636,
      "end120": 7637,
      "2751": 7638,
      "##ways": 7639,
      "i302": 7640,
      "3230": 7641,
      "orphan": 7642,
      "58356": 7643,
      "discarded": 7644,
      "wild": 7645,
      "i317": 7646,
      "38062": 7647,
      "arrayidx13": 7648,
      "ctors": 7649,
      "i331": 7650,
      "cleanup375": 7651,
      "5440": 7652,
      "3204": 7653,
      "hp": 7654,
      "pef": 7655,
      "7830": 7656,
      "3150": 7657,
      "i322": 7658,
      "end110": 7659,
      "3067": 7660,
      "i267": 7661,
      "true74": 7662,
      "77693": 7663,
      "##aint": 7664,
      "i270": 7665,
      "uparams": 7666,
      "push": 7667,
      "av": 7668,
      "3819": 7669,
      "i293": 7670,
      "end139": 7671,
      "32323": 7672,
      "67686": 7673,
      "304702": 7674,
      "310628": 7675,
      "3044": 7676,
      "i330": 7677,
      "2776": 7678,
      "sub3": 7679,
      "316005": 7680,
      "3193": 7681,
      "then88": 7682,
      "tobool55": 7683,
      "dump": 7684,
      "tl": 7685,
      "thin": 7686,
      "2967": 7687,
      "addralign": 7688,
      "3126": 7689,
      "bb21": 7690,
      "cy": 7691,
      "i272": 7692,
      "5056": 7693,
      "167772": 7694,
      "5696": 7695,
      "gmain": 7696,
      "6976": 7697,
      "3168": 7698,
      "vend": 7699,
      "tobool21": 7700,
      "2745": 7701,
      "224322": 7702,
      "106931": 7703,
      "i210": 7704,
      "always": 7705,
      "end80": 7706,
      "3808": 7707,
      "3234": 7708,
      "i213": 7709,
      "end213": 7710,
      "false1497": 7711,
      "i223": 7712,
      "wmon": 7713,
      "waltmon": 7714,
      "wmargin": 7715,
      "org": 7716,
      "abaltmon": 7717,
      "flinfo": 7718,
      "233562": 7719,
      "altmon": 7720,
      "wabmon": 7721,
      "wabaltmon": 7722,
      "call70": 7723,
      "and8": 7724,
      "coll": 7725,
      "jmp": 7726,
      "3186": 7727,
      "fcmp": 7728,
      "2211": 7729,
      "2981": 7730,
      "rev": 7731,
      "bb19": 7732,
      "2945": 7733,
      "226782": 7734,
      "ie": 7735,
      "then76": 7736,
      "230296": 7737,
      "223266": 7738,
      "call61": 7739,
      "bash": 7740,
      "openr": 7741,
      "lp": 7742,
      "i327": 7743,
      "27602": 7744,
      "ptr19": 7745,
      "225334": 7746,
      "2765": 7747,
      "tobool34": 7748,
      "sparse": 7749,
      "5688": 7750,
      "nod": 7751,
      "224461": 7752,
      "3258": 7753,
      "regmatch": 7754,
      "8108": 7755,
      "2851": 7756,
      "tobool23": 7757,
      "2585": 7758,
      "i245": 7759,
      "scalar": 7760,
      "asect": 7761,
      "constr": 7762,
      "3909": 7763,
      "6553": 7764,
      "9223372036854775808": 7765,
      "0d": 7766,
      "bracket": 7767,
      "arrayidx24": 7768,
      "##tach": 7769,
      "10245": 7770,
      "040": 7771,
      "end109": 7772,
      "nid": 7773,
      "then167": 7774,
      "opcode": 7775,
      "2775": 7776,
      "5568": 7777,
      "8386": 7778,
      "3052": 7779,
      "ppc64": 7780,
      "nos": 7781,
      "6710": 7782,
      "33554432": 7783,
      "5708": 7784,
      "nac": 7785,
      "2895": 7786,
      "refere": 7787,
      "call57": 7788,
      "end103": 7789,
      "3135": 7790,
      "3165": 7791,
      "3698": 7792,
      "work": 7793,
      "266306": 7794,
      "history": 7795,
      "##etic": 7796,
      "i2666": 7797,
      "303075": 7798,
      "cleanup12": 7799,
      "298775": 7800,
      "292622": 7801,
      "ptr51": 7802,
      "2794": 7803,
      "67717": 7804,
      "pkt": 7805,
      "i329": 7806,
      "constraint": 7807,
      "3226": 7808,
      "then82": 7809,
      "i283": 7810,
      "mi": 7811,
      "body76": 7812,
      "nios": 7813,
      "iss": 7814,
      "call78": 7815,
      "3088": 7816,
      "3053": 7817,
      "13405": 7818,
      "bt": 7819,
      "cmp61": 7820,
      "nios2": 7821,
      "dirs": 7822,
      "case": 7823,
      "lto": 7824,
      "7614": 7825,
      "7045": 7826,
      "##cset": 7827,
      "2873": 7828,
      "4736": 7829,
      "encrypt": 7830,
      "deleted": 7831,
      "3177": 7832,
      "3660": 7833,
      "sha256": 7834,
      "3246": 7835,
      "3196": 7836,
      "##ded": 7837,
      "2773": 7838,
      "i296": 7839,
      "##tring": 7840,
      "4642": 7841,
      "end695": 7842,
      "34587": 7843,
      "tobool20": 7844,
      "optind": 7845,
      "prpsinfo32": 7846,
      "serv": 7847,
      "i333": 7848,
      "3076": 7849,
      "3995": 7850,
      "digs": 7851,
      "3451": 7852,
      "year": 7853,
      "i321": 7854,
      "phi6": 7855,
      "rm": 7856,
      "alph": 7857,
      "i278": 7858,
      "7941": 7859,
      "3166": 7860,
      "tobool26": 7861,
      "4301": 7862,
      "mchar": 7863,
      "post": 7864,
      "5979": 7865,
      "i266": 7866,
      "15827": 7867,
      "3347": 7868,
      "quoted": 7869,
      "i243": 7870,
      "45917": 7871,
      "call52": 7872,
      "i312": 7873,
      "clz": 7874,
      "nested": 7875,
      "3175": 7876,
      "nosymbols": 7877,
      "loaded": 7878,
      "##buffer": 7879,
      "cmp59": 7880,
      "shared": 7881,
      "i342": 7882,
      "risc": 7883,
      "in1": 7884,
      "then142": 7885,
      "and9": 7886,
      "next10": 7887,
      "i239": 7888,
      "7922": 7889,
      "38400": 7890,
      "fflush": 7891,
      "then67": 7892,
      "ptr13": 7893,
      "3066": 7894,
      "3095": 7895,
      "else12": 7896,
      "91820": 7897,
      "2111": 7898,
      "##lass": 7899,
      "2847": 7900,
      "3250": 7901,
      "exit13": 7902,
      "##row": 7903,
      "namedata": 7904,
      "34863": 7905,
      "inc709": 7906,
      "7085": 7907,
      "i275": 7908,
      "2471": 7909,
      "##word": 7910,
      "cmp66": 7911,
      "second": 7912,
      "end119": 7913,
      "3398": 7914,
      "vendor": 7915,
      "4300": 7916,
      "conv20": 7917,
      "sha512": 7918,
      "##exec": 7919,
      "cond15": 7920,
      "riscv": 7921,
      "call54": 7922,
      "2956": 7923,
      "bb84": 7924,
      "truncate": 7925,
      "xmm": 7926,
      "2982": 7927,
      "3092": 7928,
      "i291": 7929,
      "body97": 7930,
      "3485": 7931,
      "33070": 7932,
      "begun": 7933,
      "3129": 7934,
      "more": 7935,
      "##osure": 7936,
      "asymbol": 7937,
      "##length": 7938,
      "curve": 7939,
      "end167": 7940,
      "1b": 7941,
      "4022": 7942,
      "main": 7943,
      "37891": 7944,
      "prpsinfo64": 7945,
      "wrong": 7946,
      "4194": 7947,
      "5504": 7948,
      "2583": 7949,
      "39020": 7950,
      "41200": 7951,
      "12901": 7952,
      "dtls": 7953,
      "call62": 7954,
      "matching": 7955,
      "3686": 7956,
      "##luser": 7957,
      "8397": 7958,
      "4466": 7959,
      "xor14": 7960,
      "34354": 7961,
      "nodename": 7962,
      "3170": 7963,
      "shr3": 7964,
      "dhandle": 7965,
      "i306": 7966,
      "4643": 7967,
      "##omain": 7968,
      "shl3": 7969,
      "33072": 7970,
      "71252": 7971,
      "strchr": 7972,
      "2867": 7973,
      "3466": 7974,
      "3302": 7975,
      "mount": 7976,
      "##f8": 7977,
      "##inator": 7978,
      "i229": 7979,
      "i318": 7980,
      "41631": 7981,
      "i300": 7982,
      "i280": 7983,
      "xten": 7984,
      "load8": 7985,
      "xtensa": 7986,
      "3224": 7987,
      "61922": 7988,
      "3154": 7989,
      "3715": 7990,
      "setup": 7991,
      "99130": 7992,
      "i198": 7993,
      "2431": 7994,
      "6269": 7995,
      "2681": 7996,
      "i304": 7997,
      "or4": 7998,
      "3361": 7999,
      "4323": 8000,
      "##domain": 8001,
      "53264": 8002,
      "i233": 8003,
      "pdata": 8004,
      "bb26": 8005,
      "0287": 8006,
      "5252": 8007,
      "i297": 8008,
      "7325": 8009,
      "true25": 8010,
      "3061": 8011,
      "38094": 8012,
      "cond20": 8013,
      "fcnt": 8014,
      "##448": 8015,
      "35483": 8016,
      "sreloc": 8017,
      "gmaincontext": 8018,
      "fcntl": 8019,
      "vfile": 8020,
      "6443": 8021,
      "indexentry": 8022,
      "acluser": 8023,
      "xreallocarray": 8024,
      "lnno": 8025,
      "asection": 8026,
      "crtbegin": 8027,
      "add39": 8028,
      "79849": 8029,
      "3145": 8030,
      "3471": 8031,
      "37664": 8032,
      "5888": 8033,
      "2853": 8034,
      "42382": 8035,
      "dopr": 8036,
      "i247": 8037,
      "call59": 8038,
      "2792": 8039,
      "crc32": 8040,
      "type2": 8041,
      "2491": 8042,
      "false13": 8043,
      "i256": 8044,
      "5368": 8045,
      "5945": 8046,
      "end170": 8047,
      "then73": 8048,
      "##ansion": 8049,
      "end200": 8050,
      "##ank": 8051,
      "3524": 8052,
      "i314": 8053,
      "4821": 8054,
      "3087": 8055,
      "##weak": 8056,
      "calloc": 8057,
      "end133": 8058,
      "end138": 8059,
      "sclass": 8060,
      "49095": 8061,
      "comb": 8062,
      "3469": 8063,
      "3176": 8064,
      "arrayidx15": 8065,
      "bb11": 8066,
      "expansion": 8067,
      "archived": 8068,
      "appendn": 8069,
      "doprnt": 8070,
      "3123": 8071,
      "call75": 8072,
      "58389": 8073,
      "nsyms": 8074,
      "3184": 8075,
      "then71": 8076,
      "then101": 8077,
      "cmp74": 8078,
      "##043": 8079,
      "3023": 8080,
      "3820": 8081,
      "3192": 8082,
      "i286": 8083,
      "3826": 8084,
      "3628": 8085,
      "72161": 8086,
      "2685": 8087,
      "snprintf": 8088,
      "3685": 8089,
      "5587": 8090,
      "just": 8091,
      "6441": 8092,
      "offs": 8093,
      "##quote": 8094,
      "pipe": 8095,
      "3878": 8096,
      "3877": 8097,
      "i268": 8098,
      "6101": 8099,
      "s9": 8100,
      "cmp68": 8101,
      "arrayidx41": 8102,
      "7200": 8103,
      "3220": 8104,
      "3815": 8105,
      "3634": 8106,
      "timeval": 8107,
      "7907": 8108,
      "cleanup26": 8109,
      "then86": 8110,
      "3047": 8111,
      "2811": 8112,
      "tobool24": 8113,
      "or10": 8114,
      "3251": 8115,
      "constructor": 8116,
      "ring": 8117,
      "##1om": 8118,
      "##io": 8119,
      "7465": 8120,
      "then112": 8121,
      "altern": 8122,
      "pre55": 8123,
      "3825": 8124,
      "10833": 8125,
      "3189": 8126,
      "rc": 8127,
      "##etch": 8128,
      "16158": 8129,
      "3439": 8130,
      "2151": 8131,
      "i345": 8132,
      "end222": 8133,
      "else19": 8134,
      "3435": 8135,
      "##092": 8136,
      "i255": 8137,
      "strcpy": 8138,
      "7857": 8139,
      "2901": 8140,
      "lead": 8141,
      "then80": 8142,
      "i310": 8143,
      "3102": 8144,
      "accept": 8145,
      "2651": 8146,
      "addrinfo": 8147,
      "##ating": 8148,
      "call71": 8149,
      "sizes": 8150,
      "then104": 8151,
      "2753": 8152,
      "##proc": 8153,
      "inc14": 8154,
      "bb30": 8155,
      "##esc": 8156,
      "2783": 8157,
      "octet": 8158,
      "4034": 8159,
      "4939": 8160,
      "x2": 8161,
      "i237": 8162,
      "nul": 8163,
      "body54": 8164,
      "nlink": 8165,
      "ranges": 8166,
      "2782": 8167,
      "2785": 8168,
      "s390": 8169,
      "7168": 8170,
      "3829": 8171,
      "##mpt": 8172,
      "2973": 8173,
      "unref": 8174,
      "minfo": 8175,
      "##af": 8176,
      "2852": 8177,
      "show": 8178,
      "7850": 8179,
      "247236": 8180,
      "end123": 8181,
      "cmp60": 8182,
      "3464": 8183,
      "3491": 8184,
      "end132": 8185,
      "ist": 8186,
      "##fer": 8187,
      "##elds": 8188,
      "sub5": 8189,
      "conv25": 8190,
      "cleanup6": 8191,
      "3873": 8192,
      "3163": 8193,
      "3213": 8194,
      "3239": 8195,
      "7826": 8196,
      "78323": 8197,
      "comment": 8198,
      "end144": 8199,
      "3075": 8200,
      "7532": 8201,
      "4587": 8202,
      "leading": 8203,
      "add29": 8204,
      "3194": 8205,
      "##ii": 8206,
      "3037": 8207,
      "3021": 8208,
      "i225": 8209,
      "40088": 8210,
      "##071": 8211,
      "##061": 8212,
      "99131": 8213,
      "3744": 8214,
      "14695": 8215,
      "2972": 8216,
      "i339": 8217,
      "3806": 8218,
      "bfin": 8219,
      "posix": 8220,
      "7563": 8221,
      "5653": 8222,
      "107374": 8223,
      "separate": 8224,
      "call92": 8225,
      "3232": 8226,
      "3875": 8227,
      "000000": 8228,
      "2761": 8229,
      "mul2": 8230,
      "istable": 8231,
      "inliner": 8232,
      "3957": 8233,
      "3157": 8234,
      "3172": 8235,
      "colle": 8236,
      "add22": 8237,
      "else18": 8238,
      "relocated": 8239,
      "000000e": 8240,
      "4506": 8241,
      "6131": 8242,
      "seq": 8243,
      "body23": 8244,
      "2865": 8245,
      "end113": 8246,
      "13406": 8247,
      "4171": 8248,
      "##atable": 8249,
      "name1": 8250,
      "character": 8251,
      "strstart": 8252,
      "cmp107": 8253,
      "bb24": 8254,
      "optim": 8255,
      "18012": 8256,
      "tpoff": 8257,
      "3127": 8258,
      "estate": 8259,
      "fmul": 8260,
      "9114": 8261,
      "ugid16": 8262,
      "cmp77": 8263,
      "##ision": 8264,
      "3133": 8265,
      "3063": 8266,
      "shuff": 8267,
      "i274": 8268,
      "dlang": 8269,
      "shuffle": 8270,
      "##entsize": 8271,
      "specified": 8272,
      "memcmp": 8273,
      "rem2": 8274,
      "then84": 8275,
      "15197": 8276,
      "3001": 8277,
      "##yled": 8278,
      "restyled": 8279,
      "miss": 8280,
      "wsp": 8281,
      "4978": 8282,
      "##opts": 8283,
      "3182": 8284,
      "dynsymtab": 8285,
      "gap": 8286,
      "1c": 8287,
      "3065": 8288,
      "norm": 8289,
      "3675": 8290,
      "3661": 8291,
      "v850": 8292,
      "end521": 8293,
      "i242": 8294,
      "3122": 8295,
      "i308": 8296,
      "i252": 8297,
      "body35": 8298,
      "3228": 8299,
      "3824": 8300,
      "27579": 8301,
      "7165": 8302,
      "i320": 8303,
      "true21": 8304,
      "tobool28": 8305,
      "##1177": 8306,
      "##iteral": 8307,
      "gotplt": 8308,
      "markers": 8309,
      "3109": 8310,
      "wcs": 8311,
      "i341": 8312,
      "3214": 8313,
      "end753": 8314,
      "unused2": 8315,
      "5284": 8316,
      "adv": 8317,
      "5824": 8318,
      "pad5": 8319,
      "shortbuf": 8320,
      "tobool22": 8321,
      "end112": 8322,
      "synth": 8323,
      "aw": 8324,
      "call64": 8325,
      "##number": 8326,
      "collect": 8327,
      "3199": 8328,
      "3143": 8329,
      "bnd": 8330,
      "end126": 8331,
      "cmp69": 8332,
      "remain": 8333,
      "3210": 8334,
      "3483": 8335,
      "##args": 8336,
      "i287": 8337,
      "end166": 8338,
      "2875": 8339,
      "net": 8340,
      "32326": 8341,
      "18442": 8342,
      "##entinfo": 8343,
      "end107": 8344,
      "247485": 8345,
      "synthetic": 8346,
      "23326": 8347,
      "then144": 8348,
      "or3": 8349,
      "3814": 8350,
      "3403": 8351,
      "true57": 8352,
      "gmp": 8353,
      "clear2": 8354,
      "4294967296": 8355,
      "add21": 8356,
      "7838": 8357,
      "3795": 8358,
      "3393": 8359,
      "4698": 8360,
      "i290": 8361,
      "end94": 8362,
      "load3": 8363,
      "##owc": 8364,
      "3260": 8365,
      "##aystack": 8366,
      "lhash": 8367,
      "cmp103": 8368,
      "i337": 8369,
      "lnot": 8370,
      "cmp98": 8371,
      "or19": 8372,
      "normal": 8373,
      "##mit": 8374,
      "trad": 8375,
      "cond28": 8376,
      "i313": 8377,
      "3207": 8378,
      "34564": 8379,
      "suc": 8380,
      "true75": 8381,
      "tobool25": 8382,
      "26732": 8383,
      "dtors": 8384,
      "sgot": 8385,
      "i325": 8386,
      "22333": 8387,
      "3218": 8388,
      "tobool38": 8389,
      "3631": 8390,
      "7635": 8391,
      "19016": 8392,
      "##yp": 8393,
      "27176": 8394,
      "deflate": 8395,
      "completion": 8396,
      "load1": 8397,
      "cmp88": 8398,
      "4027": 8399,
      "3208": 8400,
      "4788": 8401,
      "3212": 8402,
      "7844": 8403,
      "vf": 8404,
      "i328": 8405,
      "cmp82": 8406,
      "39320": 8407,
      "17728": 8408,
      "6046": 8409,
      "i382": 8410,
      "pex": 8411,
      "##andard": 8412,
      "else15": 8413,
      "3318": 8414,
      "7653": 8415,
      "remo": 8416,
      "awk": 8417,
      "bot": 8418,
      "2943": 8419,
      "266283": 8420,
      "pthread": 8421,
      "##copy": 8422,
      "2933": 8423,
      "conv55": 8424,
      "2771": 8425,
      "i357": 8426,
      "then110": 8427,
      "5603": 8428,
      "3025": 8429,
      "body48": 8430,
      "dep": 8431,
      "shl4": 8432,
      "3271": 8433,
      "##tok": 8434,
      "defined": 8435,
      "i340": 8436,
      "true39": 8437,
      "2995": 8438,
      "cleanup7": 8439,
      "secinfo": 8440,
      "crtend": 8441,
      "3394": 8442,
      "##losure": 8443,
      "end580": 8444,
      "statem": 8445,
      "memchr": 8446,
      "needs": 8447,
      "fetch": 8448,
      "tobool27": 8449,
      "##045": 8450,
      "sigalg": 8451,
      "bind": 8452,
      "i343": 8453,
      "i265": 8454,
      "##iant": 8455,
      "end147": 8456,
      "cmp257": 8457,
      "cmp83": 8458,
      "3707": 8459,
      "then118": 8460,
      "7899": 8461,
      "ks": 8462,
      "end137": 8463,
      "3093": 8464,
      "3249": 8465,
      "div3": 8466,
      "calc": 8467,
      "ifunc": 8468,
      "##sda": 8469,
      "scratch": 8470,
      "cd": 8471,
      "end142": 8472,
      "3522": 8473,
      "56615": 8474,
      "end97": 8475,
      "end367": 8476,
      "states": 8477,
      "##assemb": 8478,
      "arname": 8479,
      "48070": 8480,
      "3227": 8481,
      "cond19": 8482,
      "locsymcount": 8483,
      "3577": 8484,
      "epilog2": 8485,
      "10737418": 8486,
      "4291": 8487,
      "3512": 8488,
      "##escape": 8489,
      "3152": 8490,
      "lf": 8491,
      "5342": 8492,
      "argmem": 8493,
      "argmemonly": 8494,
      "20150": 8495,
      "bufp": 8496,
      "descdata": 8497,
      "translit": 8498,
      "3158": 8499,
      "mux": 8500,
      "22765": 8501,
      "bb27": 8502,
      "i258": 8503,
      "then114": 8504,
      "then855": 8505,
      "##per": 8506,
      "end232": 8507,
      "19520": 8508,
      "2673": 8509,
      "3783": 8510,
      "i205": 8511,
      "3519": 8512,
      "3317": 8513,
      "7164": 8514,
      "053": 8515,
      "3777": 8516,
      "body402": 8517,
      "266356": 8518,
      "3245": 8519,
      "067": 8520,
      "standard": 8521,
      "3438": 8522,
      "i319": 8523,
      "inet": 8524,
      "##option": 8525,
      "i251": 8526,
      "call67": 8527,
      "3161": 8528,
      "or7": 8529,
      "##heap": 8530,
      "3627": 8531,
      "i381": 8532,
      "3969": 8533,
      "17729": 8534,
      "i294": 8535,
      "inc9": 8536,
      "exit1": 8537,
      "end193": 8538,
      "arrayidx31": 8539,
      "i334": 8540,
      "variant": 8541,
      "3380": 8542,
      "sup": 8543,
      "2863": 8544,
      "3215": 8545,
      "body40": 8546,
      "3369": 8547,
      "3178": 8548,
      "3385": 8549,
      "i346": 8550,
      "i307": 8551,
      "i326": 8552,
      "3449": 8553,
      "3167": 8554,
      "literal": 8555,
      "2971": 8556,
      "body27": 8557,
      "ptr26": 8558,
      "5336": 8559,
      "blksize": 8560,
      "call76": 8561,
      "##081": 8562,
      "3183": 8563,
      "fields": 8564,
      "4684": 8565,
      "i332": 8566,
      "end134": 8567,
      "3779": 8568,
      "nacl": 8569,
      "end165": 8570,
      "end181": 8571,
      "preg": 8572,
      "3912": 8573,
      "i315": 8574,
      "outrel": 8575,
      "true26": 8576,
      "7173": 8577,
      "4059": 8578,
      "cond426": 8579,
      "cleanup130": 8580,
      "35576": 8581,
      "end173": 8582,
      "then159": 8583,
      "3935": 8584,
      "i235": 8585,
      "52391": 8586,
      "4753": 8587,
      "follow": 8588,
      "3390": 8589,
      "##ient": 8590,
      "add38": 8591,
      "3501": 8592,
      "tra": 8593,
      "3778": 8594,
      "##ocation": 8595,
      "then95": 8596,
      "##mdup": 8597,
      "true28": 8598,
      "3474": 8599,
      "arrayidx11": 8600,
      "utf8": 8601,
      "rdx": 8602,
      "call83": 8603,
      "3045": 8604,
      "tableidx": 8605,
      "script": 8606,
      "3042": 8607,
      "3856": 8608,
      "leb128": 8609,
      "nar": 8610,
      "conv43": 8611,
      "65381": 8612,
      "i311": 8613,
      "##space": 8614,
      "phnum": 8615,
      "6921": 8616,
      "236249": 8617,
      "gerror": 8618,
      "tou": 8619,
      "end160": 8620,
      "xc": 8621,
      "cmp90": 8622,
      "cmp73": 8623,
      "subs": 8624,
      "3830": 8625,
      "end711": 8626,
      "then151": 8627,
      "3430": 8628,
      "4055": 8629,
      "exit8": 8630,
      "253953": 8631,
      "removed": 8632,
      "3255": 8633,
      "putchar": 8634,
      "43637": 8635,
      "exit30": 8636,
      "disassemb": 8637,
      "##vector": 8638,
      "7847": 8639,
      "false17": 8640,
      "arrayidx25": 8641,
      "3567": 8642,
      "##ript": 8643,
      "##ns": 8644,
      "add34": 8645,
      "lsda": 8646,
      "11227": 8647,
      "ptr31": 8648,
      "cleanup1": 8649,
      "7832": 8650,
      "7889": 8651,
      "3674": 8652,
      "then443": 8653,
      "3003": 8654,
      "4090": 8655,
      "85289": 8656,
      "3895": 8657,
      "7205": 8658,
      "7691": 8659,
      "end163": 8660,
      "3229": 8661,
      "5418": 8662,
      "247451": 8663,
      "11592": 8664,
      "12600": 8665,
      "ptr59": 8666,
      "flaginfo": 8667,
      "3372": 8668,
      "7160": 8669,
      "body24": 8670,
      "3391": 8671,
      "3031": 8672,
      "27644": 8673,
      "3422": 8674,
      "4213": 8675,
      "7082": 8676,
      "7724": 8677,
      "i355": 8678,
      "3482": 8679,
      "ctrl": 8680,
      "3726": 8681,
      "3499": 8682,
      "67070": 8683,
      "delim": 8684,
      "hpp": 8685,
      "was": 8686,
      "end108": 8687,
      "7110": 8688,
      "75001": 8689,
      "65370": 8690,
      "3574": 8691,
      "7524": 8692,
      "3786": 8693,
      "##ia": 8694,
      "end128": 8695,
      "cmp100": 8696,
      "87575": 8697,
      "size2": 8698,
      "4513": 8699,
      "3201": 8700,
      "3821": 8701,
      "4011": 8702,
      "71841": 8703,
      "end537": 8704,
      "3125": 8705,
      "call68": 8706,
      "typed": 8707,
      "67165": 8708,
      "4181": 8709,
      "quote5": 8710,
      "quote6": 8711,
      "94951": 8712,
      "then96": 8713,
      "27175": 8714,
      "##dev": 8715,
      "cleanup8": 8716,
      "end148": 8717,
      "cond78": 8718,
      "3231": 8719,
      "3496": 8720,
      "66010": 8721,
      "mont": 8722,
      "7665": 8723,
      "end155": 8724,
      "add30": 8725,
      "then77": 8726,
      "data1": 8727,
      "3774": 8728,
      "6920": 8729,
      "host": 8730,
      "3179": 8731,
      "3198": 8732,
      "##eter": 8733,
      "then90": 8734,
      "3005": 8735,
      "7891": 8736,
      "70853": 8737,
      "call58": 8738,
      "3832": 8739,
      "select5": 8740,
      "puts": 8741,
      "2793": 8742,
      "2521": 8743,
      "66679": 8744,
      "7648": 8745,
      "3237": 8746,
      "3236": 8747,
      "next4": 8748,
      "67634": 8749,
      "bh": 8750,
      "then125": 8751,
      "true42": 8752,
      "tobool52": 8753,
      "3942": 8754,
      "7157": 8755,
      "##ngth": 8756,
      "end161": 8757,
      "17223": 8758,
      "unescape": 8759,
      "cleanup92": 8760,
      "i336": 8761,
      "end98": 8762,
      "cmp87": 8763,
      "3857": 8764,
      "6850": 8765,
      "8141": 8766,
      "strerror": 8767,
      "7766": 8768,
      "i241": 8769,
      "exit12": 8770,
      "goption": 8771,
      "i273": 8772,
      "tt": 8773,
      "3431": 8774,
      "and17": 8775,
      "##087": 8776,
      "3252": 8777,
      "inflatestatecheck": 8778,
      "utmp": 8779,
      "narrow": 8780,
      "pt": 8781,
      "##lx": 8782,
      "plts": 8783,
      "034": 8784,
      "udata": 8785,
      "3479": 8786,
      "tobool60": 8787,
      "div14": 8788,
      "pex64": 8789,
      "then83": 8790,
      "or6": 8791,
      "else26": 8792,
      "statbuf": 8793,
      "129954": 8794,
      "3407": 8795,
      "3155": 8796,
      "end199": 8797,
      "2661": 8798,
      "3141": 8799,
      "i347": 8800,
      "7897": 8801,
      "3961": 8802,
      "body368": 8803,
      "fromb": 8804,
      "call65": 8805,
      "sub10": 8806,
      "10927": 8807,
      "71237": 8808,
      "true23": 8809,
      "2821": 8810,
      "7569": 8811,
      "strtol": 8812,
      "tc": 8813,
      "mbrt": 8814,
      "toupper": 8815,
      "mbrtowc": 8816,
      "3465": 8817,
      "237122": 8818,
      "i289": 8819,
      "bb25": 8820,
      "then116": 8821,
      "masked": 8822,
      "4261": 8823,
      "##ite": 8824,
      "70188": 8825,
      "7185": 8826,
      "call73": 8827,
      "cond41": 8828,
      "4214": 8829,
      "leaf": 8830,
      "242083": 8831,
      "missing": 8832,
      "##xy": 8833,
      "true27": 8834,
      "6930": 8835,
      "7719": 8836,
      "minisymbol": 8837,
      "4364": 8838,
      "117763": 8839,
      "236110": 8840,
      "success": 8841,
      "7565": 8842,
      "##mac": 8843,
      "arrayidx22": 8844,
      "7860": 8845,
      "53432": 8846,
      "again": 8847,
      "frombool": 8848,
      "3375": 8849,
      "6197": 8850,
      "i309": 8851,
      "sct": 8852,
      "##046": 8853,
      "3934": 8854,
      "2171": 8855,
      "fake": 8856,
      "end125": 8857,
      "2861": 8858,
      "3293": 8859,
      "req": 8860,
      "sub1": 8861,
      "3188": 8862,
      "##versym": 8863,
      "7177": 8864,
      "gld": 8865,
      "7060": 8866,
      "3209": 8867,
      "disassemble": 8868,
      "4262": 8869,
      "eval": 8870,
      "then126": 8871,
      "conv23": 8872,
      "6924": 8873,
      "i350": 8874,
      "3206": 8875,
      "7575": 8876,
      "then87": 8877,
      "2711": 8878,
      "7065": 8879,
      "6056": 8880,
      "##own": 8881,
      "4445": 8882,
      "7573": 8883,
      "rdev": 8884,
      "conv22": 8885,
      "245354": 8886,
      "d2": 8887,
      "i349": 8888,
      "##nrealloc": 8889,
      "4713": 8890,
      "238570": 8891,
      "3286": 8892,
      "235054": 8893,
      "7089": 8894,
      "7603": 8895,
      "gotpc": 8896,
      "18790": 8897,
      "load5": 8898,
      "true31": 8899,
      "7181": 8900,
      "end740": 8901,
      "i358": 8902,
      "##dyn": 8903,
      "2641": 8904,
      "##attr": 8905,
      "exit9": 8906,
      "6918": 8907,
      "4519": 8908,
      "##imal": 8909,
      "194298": 8910,
      "196431": 8911,
      "066": 8912,
      "4298": 8913,
      "lex": 8914,
      "body88": 8915,
      "gldelf": 8916,
      "7123": 8917,
      "4095": 8918,
      "3632": 8919,
      "3716": 8920,
      "minisymbols": 8921,
      "047": 8922,
      "3823": 8923,
      "3460": 8924,
      "9475": 8925,
      "126796": 8926,
      "##els": 8927,
      "2921": 8928,
      "3846": 8929,
      "niels": 8930,
      "7742": 8931,
      "11161": 8932,
      "cmp96": 8933,
      "119835": 8934,
      "3111": 8935,
      "body33": 8936,
      "7175": 8937,
      "then97": 8938,
      "3719": 8939,
      "4664": 8940,
      "7117": 8941,
      "3804": 8942,
      "assoc": 8943,
      "118819": 8944,
      "vex": 8945,
      "then105": 8946,
      "3043": 8947,
      "incr": 8948,
      "bb32": 8949,
      "3622": 8950,
      "4329": 8951,
      "7191": 8952,
      "7542": 8953,
      "10640": 8954,
      "nb": 8955,
      "call87": 8956,
      "3623": 8957,
      "6935": 8958,
      "124101": 8959,
      "7195": 8960,
      "i376": 8961,
      "##cle": 8962,
      "##istic": 8963,
      "208881": 8964,
      "3156": 8965,
      "4125": 8966,
      "cfi": 8967,
      "wday": 8968,
      "##right": 8969,
      "childre": 8970,
      "inetutils": 8971,
      "3386": 8972,
      "7170": 8973,
      "sptr": 8974,
      "cmp92": 8975,
      "69546": 8976,
      "15014": 8977,
      "128065": 8978,
      "3280": 8979,
      "3672": 8980,
      "##ations": 8981,
      "else22": 8982,
      "97757": 8983,
      "shufflevector": 8984,
      "i271": 8985,
      "tobool37": 8986,
      "3845": 8987,
      "3800": 8988,
      "3772": 8989,
      "71377": 8990,
      "53726": 8991,
      "3563": 8992,
      "7171": 8993,
      "cmp78": 8994,
      "3446": 8995,
      "70858": 8996,
      "144055": 8997,
      "frchain": 8998,
      "022": 8999,
      "flags1": 9000,
      "3636": 9001,
      "7626": 9002,
      "310561": 9003,
      "304635": 9004,
      "end131": 9005,
      "3932": 9006,
      "3121": 9007,
      "else14": 9008,
      "5457": 9009,
      "rodata": 9010,
      "011": 9011,
      "3756": 9012,
      "i240": 9013,
      "315938": 9014,
      "pre14": 9015,
      "ptr75": 9016,
      "shnum": 9017,
      "3420": 9018,
      "tobool33": 9019,
      "call88": 9020,
      "call98": 9021,
      "body22": 9022,
      "i410": 9023,
      "3903": 9024,
      "69524": 9025,
      "preced": 9026,
      "7194": 9027,
      "ha": 9028,
      "end185": 9029,
      "2961": 9030,
      "32308": 9031,
      "copyright": 9032,
      "3222": 9033,
      "7771": 9034,
      "then120": 9035,
      "sub14": 9036,
      "3699": 9037,
      "i344": 9038,
      "add32": 9039,
      "styp": 9040,
      "9310": 9041,
      "now": 9042,
      "3500": 9043,
      "6821": 9044,
      "cmp84": 9045,
      "3837": 9046,
      "compare": 9047,
      "3337": 9048,
      "3205": 9049,
      "3162": 9050,
      "idata": 9051,
      "##recurse": 9052,
      "2931": 9053,
      "conv18": 9054,
      "tailrecurse": 9055,
      "5062": 9056,
      "48144": 9057,
      "7717": 9058,
      "3240": 9059,
      "##iby": 9060,
      "or1k": 9061,
      "e1": 9062,
      "discr": 9063,
      "7196": 9064,
      "7548": 9065,
      "end179": 9066,
      "cond17": 9067,
      "3475": 9068,
      "7681": 9069,
      "3706": 9070,
      "61827": 9071,
      "7126": 9072,
      "7576": 9073,
      "body57": 9074,
      "4655": 9075,
      "virtualaddress": 9076,
      "call74": 9077,
      "4021": 9078,
      "11014": 9079,
      "2803": 9080,
      "7189": 9081,
      "halt": 9082,
      "##env": 9083,
      "these": 9084,
      "i375": 9085,
      "get0": 9086,
      "epilog67": 9087,
      "##zen": 9088,
      "10608": 9089,
      "then93": 9090,
      "bb37": 9091,
      "3569": 9092,
      "7807": 9093,
      "frozen": 9094,
      "046": 9095,
      "cmp93": 9096,
      "4094": 9097,
      "49557": 9098,
      "36492": 9099,
      "671088": 9100,
      "3131": 9101,
      "3775": 9102,
      "7180": 9103,
      "report": 9104,
      "3334": 9105,
      "5953": 9106,
      "7689": 9107,
      "7153": 9108,
      "##041": 9109,
      "7564": 9110,
      "frv": 9111,
      "i351": 9112,
      "i562": 9113,
      "##ives": 9114,
      "conv32": 9115,
      "compute": 9116,
      "body34": 9117,
      "7664": 9118,
      "i379": 9119,
      "3368": 9120,
      "7095": 9121,
      "023": 9122,
      "psec": 9123,
      "end248": 9124,
      "inc8": 9125,
      "arrayidx36": 9126,
      "##085": 9127,
      "28459": 9128,
      "28967": 9129,
      "3243": 9130,
      "3492": 9131,
      "3300": 9132,
      "3400": 9133,
      "xcoff": 9134,
      "then124": 9135,
      "4570": 9136,
      "7903": 9137,
      "0113": 9138,
      "i353": 9139,
      "end150": 9140,
      "load13": 9141,
      "26786": 9142,
      "1d": 9143,
      "4501": 9144,
      "cver": 9145,
      "sub7": 9146,
      "cleanup24": 9147,
      "encode": 9148,
      "5281": 9149,
      "poll": 9150,
      "3879": 9151,
      "7814": 9152,
      "76699": 9153,
      "i374": 9154,
      "26843": 9155,
      "238109": 9156,
      "7893": 9157,
      "ents": 9158,
      "children": 9159,
      "arrayidx72": 9160,
      "3570": 9161,
      "4558": 9162,
      "i384": 9163,
      "7872": 9164,
      "end618": 9165,
      "3444": 9166,
      "31772": 9167,
      "created": 9168,
      "macro": 9169,
      "7162": 9170,
      "bs": 9171,
      "pre3": 9172,
      "3457": 9173,
      "4057": 9174,
      "7683": 9175,
      "1342177": 9176,
      "seed": 9177,
      "29591": 9178,
      "32204": 9179,
      "3436": 9180,
      "4244": 9181,
      "7644": 9182,
      "4969": 9183,
      "6714": 9184,
      "35577": 9185,
      "end237": 9186,
      "53481": 9187,
      "srem": 9188,
      "end861": 9189,
      "bb55": 9190,
      "2541": 9191,
      "7520": 9192,
      "090": 9193,
      "i394": 9194,
      "true20": 9195,
      "3238": 9196,
      "glibc": 9197,
      "7155": 9198,
      "7137": 9199,
      "wchar": 9200,
      "body28": 9201,
      "false30": 9202,
      "7192": 9203,
      "s27": 9204,
      "3257": 9205,
      "arrayidx43": 9206,
      "6734": 9207,
      "then238": 9208,
      "3908": 9209,
      "auxptr": 9210,
      "remaining": 9211,
      "i377": 9212,
      "end136": 9213,
      "tobool31": 9214,
      "decimal": 9215,
      "metag": 9216,
      "true61": 9217,
      "3233": 9218,
      "3418": 9219,
      "4383": 9220,
      "7188": 9221,
      "7572": 9222,
      "##pid": 9223,
      "##use": 9224,
      "3091": 9225,
      "cond57": 9226,
      "4083": 9227,
      "6903": 9228,
      "7663": 9229,
      "rtype": 9230,
      "call95": 9231,
      "3378": 9232,
      "6729": 9233,
      "80524": 9234,
      "passwd": 9235,
      "shstrndx": 9236,
      "invocation": 9237,
      "pre5": 9238,
      "3498": 9239,
      "52497": 9240,
      "3323": 9241,
      "end140": 9242,
      "6855": 9243,
      "85290": 9244,
      "26998": 9245,
      "3253": 9246,
      "server": 9247,
      "3693": 9248,
      "7179": 9249,
      "then122": 9250,
      "3219": 9251,
      "partial": 9252,
      "7174": 9253,
      "3867": 9254,
      "posn": 9255,
      "precedes": 9256,
      "7176": 9257,
      "3081": 9258,
      "cond27": 9259,
      "inc13": 9260,
      "6853": 9261,
      "3185": 9262,
      "3509": 9263,
      "4772": 9264,
      "7559": 9265,
      "ndests": 9266,
      "call81": 9267,
      "3437": 9268,
      "3733": 9269,
      "body615": 9270,
      "49312": 9271,
      "slotvec0": 9272,
      "else529": 9273,
      "end162": 9274,
      "4024": 9275,
      "3663": 9276,
      "7105": 9277,
      "i352": 9278,
      "3468": 9279,
      "78355": 9280,
      "3787": 9281,
      "cmp71": 9282,
      "i433": 9283,
      "7735": 9284,
      "msgid": 9285,
      "7150": 9286,
      "7141": 9287,
      "7098": 9288,
      "3442": 9289,
      "signext": 9290,
      "4271": 9291,
      "sv": 9292,
      "3256": 9293,
      "conv37": 9294,
      "##095": 9295,
      "6934": 9296,
      "3376": 9297,
      "##gi": 9298,
      "call72": 9299,
      "extern": 9300,
      "3759": 9301,
      "4379": 9302,
      "3191": 9303,
      "3646": 9304,
      "12701": 9305,
      "then353": 9306,
      "bb36": 9307,
      "5018": 9308,
      "2801": 9309,
      "6845": 9310,
      "##ta": 9311,
      "22397": 9312,
      "4078": 9313,
      "7210": 9314,
      "4842": 9315,
      "3365": 9316,
      "7178": 9317,
      "bsw": 9318,
      "zfree": 9319,
      "3051": 9320,
      "i416": 9321,
      "7732": 9322,
      "3203": 9323,
      "fastmap": 9324,
      "3600": 9325,
      "7156": 9326,
      "7571": 9327,
      "e2": 9328,
      "call155": 9329,
      "22398": 9330,
      "23681": 9331,
      "7088": 9332,
      "7754": 9333,
      "27430": 9334,
      "3608": 9335,
      "3765": 9336,
      "7640": 9337,
      "7690": 9338,
      "i348": 9339,
      "next1": 9340,
      "7607": 9341,
      "3689": 9342,
      "7885": 9343,
      "9308": 9344,
      "##083": 9345,
      "6944": 9346,
      "i364": 9347,
      "i369": 9348,
      "52798": 9349,
      "3405": 9350,
      "3690": 9351,
      "then158": 9352,
      "conv31": 9353,
      "3620": 9354,
      "3626": 9355,
      "3528": 9356,
      "pad0": 9357,
      "021": 9358,
      "7190": 9359,
      "7589": 9360,
      "7552": 9361,
      "end117": 9362,
      "6953": 9363,
      "charclass": 9364,
      "i443": 9365,
      "3681": 9366,
      "i390": 9367,
      "end149": 9368,
      "16c": 9369,
      "7854": 9370,
      "7808": 9371,
      "3223": 9372,
      "##sure": 9373,
      "then128": 9374,
      "3330": 9375,
      "7768": 9376,
      "xor10": 9377,
      "idxprom6": 9378,
      "3197": 9379,
      "7193": 9380,
      "##ger": 9381,
      "true30": 9382,
      "3872": 9383,
      "then132": 9384,
      "3071": 9385,
      "3618": 9386,
      "7605": 9387,
      "7823": 9388,
      "then117": 9389,
      "4279": 9390,
      "3831": 9391,
      "3311": 9392,
      "7538": 9393,
      "signer": 9394,
      "release": 9395,
      "cfa": 9396,
      "7682": 9397,
      "3322": 9398,
      "7780": 9399,
      "32592": 9400,
      "3513": 9401,
      "7530": 9402,
      "once": 9403,
      "bound0": 9404,
      "4018": 9405,
      "7877": 9406,
      "217590": 9407,
      "3701": 9408,
      "3998": 9409,
      "int1": 9410,
      "7198": 9411,
      "7557": 9412,
      "7662": 9413,
      "7739": 9414,
      "wildc": 9415,
      "3671": 9416,
      "7586": 9417,
      "packet": 9418,
      "end231": 9419,
      "3785": 9420,
      "3572": 9421,
      "4127": 9422,
      "##for": 9423,
      "true24": 9424,
      "3720": 9425,
      "3313": 9426,
      "7568": 9427,
      "67108864": 9428,
      "7187": 9429,
      "5419": 9430,
      "cmp113": 9431,
      "2147483647": 9432,
      "3225": 9433,
      "7120": 9434,
      "i396": 9435,
      "add37": 9436,
      "3869": 9437,
      "5118": 9438,
      "4665": 9439,
      "3424": 9440,
      "4097": 9441,
      "7072": 9442,
      "1879048": 9443,
      "##imit": 9444,
      "7733": 9445,
      "discrim": 9446,
      "7695": 9447,
      "3764": 9448,
      "3532": 9449,
      "i568": 9450,
      "7186": 9451,
      "i362": 9452,
      "cleanup389": 9453,
      "54487": 9454,
      "3443": 9455,
      "6947": 9456,
      "01297": 9457,
      "ptr22": 9458,
      "7820": 9459,
      "7734": 9460,
      "266287": 9461,
      "movw": 9462,
      "3327": 9463,
      "3736": 9464,
      "7075": 9465,
      "099": 9466,
      "3373": 9467,
      "tex": 9468,
      "cmp225": 9469,
      "exit44": 9470,
      "arrayidx48": 9471,
      "3527": 9472,
      "wch": 9473,
      "matchind": 9474,
      "end164": 9475,
      "253966": 9476,
      "7765": 9477,
      "then111": 9478,
      "7213": 9479,
      "3704": 9480,
      "217451": 9481,
      "gpollrec": 9482,
      "u2": 9483,
      "cmp89": 9484,
      "tobool40": 9485,
      "3379": 9486,
      "7534": 9487,
      "3790": 9488,
      "82368": 9489,
      "7154": 9490,
      "7558": 9491,
      "exist": 9492,
      "3412": 9493,
      "3981": 9494,
      "3153": 9495,
      "7694": 9496,
      "inc18": 9497,
      "7068": 9498,
      "7650": 9499,
      "end115": 9500,
      "mtim": 9501,
      "3688": 9502,
      "3590": 9503,
      "7204": 9504,
      "7773": 9505,
      "ptr68": 9506,
      "7527": 9507,
      "##ident": 9508,
      "cmp79": 9509,
      "atim": 9510,
      "7728": 9511,
      "ctim": 9512,
      "shr5": 9513,
      "##ourc": 9514,
      "29486": 9515,
      "7629": 9516,
      "i359": 9517,
      "7197": 9518,
      "24189": 9519,
      "and13": 9520,
      "3734": 9521,
      "6840": 9522,
      "##alignment": 9523,
      "7144": 9524,
      "i391": 9525,
      "##042": 9526,
      "47702": 9527,
      "##ync": 9528,
      "38057": 9529,
      "3784": 9530,
      "3700": 9531,
      "9896": 9532,
      "3576": 9533,
      "7184": 9534,
      "sz": 9535,
      "cond44": 9536,
      "cmp116": 9537,
      "dtls1": 9538,
      "7101": 9539,
      "3432": 9540,
      "arrayidx85": 9541,
      "6725": 9542,
      "i401": 9543,
      "46535": 9544,
      "4208": 9545,
      "##ian": 9546,
      "3874": 9547,
      "54582": 9548,
      "3624": 9549,
      "3724": 9550,
      "65702": 9551,
      "3263": 9552,
      "call84": 9553,
      "4026": 9554,
      "5067": 9555,
      "3737": 9556,
      "2501": 9557,
      "7601": 9558,
      "3242": 9559,
      "##msg": 9560,
      "textrel": 9561,
      "3596": 9562,
      "gcc": 9563,
      "i373": 9564,
      "##430": 9565,
      "then91": 9566,
      "false18": 9567,
      "and10": 9568,
      "4238": 9569,
      "3514": 9570,
      "xor1": 9571,
      "7782": 9572,
      "3041": 9573,
      "4076": 9574,
      "3308": 9575,
      "3402": 9576,
      "##hibit": 9577,
      "7562": 9578,
      "7747": 9579,
      "load12": 9580,
      "3936": 9581,
      "7686": 9582,
      "48715": 9583,
      "i413": 9584,
      "prompt": 9585,
      "##och": 9586,
      "32285": 9587,
      "7687": 9588,
      "end204": 9589,
      "8334": 9590,
      "3301": 9591,
      "3906": 9592,
      "then81": 9593,
      "then121": 9594,
      "arrayidx21": 9595,
      "3993": 9596,
      "discriminator": 9597,
      "offset2": 9598,
      "4053": 9599,
      "5255": 9600,
      "6956": 9601,
      "266297": 9602,
      "73538": 9603,
      "4200": 9604,
      "7172": 9605,
      "3350": 9606,
      "2841": 9607,
      "4389": 9608,
      "arrayidx26": 9609,
      "conv48": 9610,
      "i432": 9611,
      "3262": 9612,
      "4202": 9613,
      "tbl": 9614,
      "then103": 9615,
      "3411": 9616,
      "i435": 9617,
      "7716": 9618,
      "7609": 9619,
      "7583": 9620,
      "3978": 9621,
      "i366": 9622,
      "2791": 9623,
      "3892": 9624,
      "3507": 9625,
      "3573": 9626,
      "7696": 9627,
      "body253": 9628,
      "ptr27": 9629,
      "4912": 9630,
      "47193": 9631,
      "3540": 9632,
      "intel": 9633,
      "70214": 9634,
      "0242": 9635,
      "3357": 9636,
      "7199": 9637,
      "##point": 9638,
      "223248": 9639,
      "4028": 9640,
      "44914": 9641,
      "##00000000": 9642,
      "end327": 9643,
      "add11": 9644,
      "ensure": 9645,
      "stabstr": 9646,
      "3506": 9647,
      "3691": 9648,
      "end146": 9649,
      "2991": 9650,
      "tobool36": 9651,
      "bb66": 9652,
      "3937": 9653,
      "3510": 9654,
      "4412": 9655,
      "4478": 9656,
      "shr1": 9657,
      "86112": 9658,
      "end135": 9659,
      "then129": 9660,
      "3938": 9661,
      "52787": 9662,
      "218463": 9663,
      "contin": 9664,
      "matched": 9665,
      "symptr": 9666,
      "7545": 9667,
      "xdata": 9668,
      "cond46": 9669,
      "shindex": 9670,
      "else43": 9671,
      "newsyms": 9672,
      "md5": 9673,
      "4139": 9674,
      "bb23": 9675,
      "next2": 9676,
      "next3": 9677,
      "11319": 9678,
      "3490": 9679,
      "##object": 9680,
      "5375": 9681,
      "6299": 9682,
      "cu": 9683,
      "tol": 9684,
      "inc103": 9685,
      "3427": 9686,
      "78273": 9687,
      "3844": 9688,
      "74992": 9689,
      "tolower": 9690,
      "3502": 9691,
      "4205": 9692,
      "cmp75": 9693,
      "false1": 9694,
      "3454": 9695,
      "3801": 9696,
      "proxy": 9697,
      "3680": 9698,
      "7642": 9699,
      "psym": 9700,
      "3216": 9701,
      "3910": 9702,
      "nextptr": 9703,
      "2741": 9704,
      "7092": 9705,
      "63918": 9706,
      "kill": 9707,
      "cmp94": 9708,
      "3630": 9709,
      "55051": 9710,
      "i356": 9711,
      "add28": 9712,
      "3876": 9713,
      "then115": 9714,
      "calle": 9715,
      "cmp81": 9716,
      "conv30": 9717,
      "3731": 9718,
      "3536": 9719,
      "216395": 9720,
      "3798": 9721,
      "i910": 9722,
      "54096": 9723,
      "223425": 9724,
      "##reduce": 9725,
      "##ait": 9726,
      "call79": 9727,
      "##first": 9728,
      "cast7": 9729,
      "then313": 9730,
[...]
