{
  "version": "1.0",
  "truncation": null,
  "padding": null,
  "added_tokens": [
    {
      "id": 0,
      "special": true,
      "content": "[UNK]",
      "single_word": false,
      "lstrip": false,
      "rstrip": false,
      "normalized": false
    },
    {
      "id": 1,
      "special": true,
      "content": "[CLS]",
      "single_word": false,
      "lstrip": false,
      "rstrip": false,
      "normalized": false
    },
    {
      "id": 2,
      "special": true,
      "content": "[SEP]",
      "single_word": false,
      "lstrip": false,
      "rstrip": false,
      "normalized": false
    },
    {
      "id": 3,
      "special": true,
      "content": "[PAD]",
      "single_word": false,
      "lstrip": false,
      "rstrip": false,
      "normalized": false
    },
    {
      "id": 4,
      "special": true,
      "content": "[MASK]",
      "single_word": false,
      "lstrip": false,
      "rstrip": false,
      "normalized": false
    }
  ],
  "normalizer": null,
  "pre_tokenizer": {
    "type": "Whitespace"
  },
  "post_processor": null,
  "decoder": null,
  "model": {
    "type": "BPE",
    "dropout": null,
    "unk_token": "[UNK]",
    "continuing_subword_prefix": null,
    "end_of_word_suffix": null,
    "fuse_unk": false,
    "vocab": {
      "[UNK]": 0,
      "[CLS]": 1,
      "[SEP]": 2,
      "[PAD]": 3,
      "[MASK]": 4,
      "!": 5,
      "\"": 6,
      "#": 7,
      "$": 8,
      "%": 9,
      "&": 10,
      "'": 11,
      "(": 12,
      ")": 13,
      "*": 14,
      "+": 15,
      ",": 16,
      "-": 17,
      ".": 18,
      "/": 19,
      "0": 20,
      "1": 21,
      "2": 22,
      "3": 23,
      "4": 24,
      "5": 25,
      "6": 26,
      "7": 27,
      "8": 28,
      "9": 29,
      ":": 30,
      ";": 31,
      "<": 32,
      "=": 33,
      ">": 34,
      "?": 35,
      "@": 36,
      "A": 37,
      "B": 38,
      "C": 39,
      "D": 40,
      "E": 41,
      "F": 42,
      "G": 43,
      "H": 44,
      "I": 45,
      "J": 46,
      "K": 47,
      "L": 48,
      "M": 49,
      "N": 50,
      "O": 51,
      "P": 52,
      "Q": 53,
      "R": 54,
      "S": 55,
      "T": 56,
      "U": 57,
      "V": 58,
      "W": 59,
      "X": 60,
      "Y": 61,
      "Z": 62,
      "[": 63,
      "\\": 64,
      "]": 65,
      "^": 66,
      "_": 67,
      "`": 68,
      "a": 69,
      "b": 70,
      "c": 71,
      "d": 72,
      "e": 73,
      "f": 74,
      "g": 75,
      "h": 76,
      "i": 77,
      "j": 78,
      "k": 79,
      "l": 80,
      "m": 81,
      "n": 82,
      "o": 83,
      "p": 84,
      "q": 85,
      "r": 86,
      "s": 87,
      "t": 88,
      "u": 89,
      "v": 90,
      "w": 91,
      "x": 92,
      "y": 93,
      "z": 94,
      "{": 95,
      "|": 96,
      "}": 97,
      "~": 98,
      "in": 99,
      "ta": 100,
      "co": 101,
      "pe": 102,
      "me": 103,
      "ca": 104,
      "tr": 105,
      "db": 106,
      "dbg": 107,
      "DI": 108,
      "lin": 109,
      "line": 110,
      "on": 111,
      "ion": 112,
      "64": 113,
      "ct": 114,
      "32": 115,
      "lu": 116,
      "i8": 117,
      "sco": 118,
      "scope": 119,
      "le": 120,
      "ll": 121,
      "tru": 122,
      "re": 123,
      "ata": 124,
      "data": 125,
      "DIL": 126,
      "oca": 127,
      "nd": 128,
      "meta": 129,
      "metadata": 130,
      "truct": 131,
      "struct": 132,
      "mn": 133,
      "lumn": 134,
      "column": 135,
      "i64": 136,
      "DILoca": 137,
      "i32": 138,
      "tion": 139,
      "11": 140,
      "se": 141,
      "DILocation": 142,
      "ype": 143,
      "10": 144,
      "er": 145,
      "12": 146,
      "16": 147,
      "call": 148,
      "la": 149,
      "pre": 150,
      "el": 151,
      "if": 152,
      "15": 153,
      "14": 154,
      "13": 155,
      "ad": 156,
      "al": 157,
      "17": 158,
      "19": 159,
      "18": 160,
      "st": 161,
      "bf": 162,
      "ba": 163,
      "ile": 164,
      "id": 165,
      "22": 166,
      "Type": 167,
      "lo": 168,
      "bo": 169,
      "bfd": 170,
      "20": 171,
      "file": 172,
      "te": 173,
      "24": 174,
      "va": 175,
      "na": 176,
      "name": 177,
      "mp": 178,
      "ig": 179,
      "*,": 180,
      "nt": 181,
      "23": 182,
      "vo": 183,
      "void": 184,
      "25": 185,
      "end": 186,
      "ge": 187,
      "ign": 188,
      "\",": 189,
      "ss": 190,
      "At": 191,
      "en": 192,
      "lab": 193,
      "label": 194,
      "lue": 195,
      "value": 196,
      "ptr": 197,
      "inline": 198,
      "dAt": 199,
      "inlinedAt": 200,
      "vm": 201,
      "DIE": 202,
      "llvm": 203,
      "ed": 204,
      "cmp": 205,
      "27": 206,
      "align": 207,
      "29": 208,
      "ar": 209,
      "ex": 210,
      "iz": 211,
      "26": 212,
      "or": 213,
      "ssion": 214,
      "))": 215,
      "28": 216,
      "pression": 217,
      "30": 218,
      "xpression": 219,
      "bfd_": 220,
      "DIExpression": 221,
      "],": 222,
      "ize": 223,
      "size": 224,
      "34": 225,
      "())": 226,
      "ment": 227,
      "W_": 228,
      "DW_": 229,
      "35": 230,
      "it": 231,
      "38": 232,
      "th": 233,
      "type": 234,
      "lement": 235,
      "39": 236,
      "iv": 237,
      "und": 238,
      "37": 239,
      "tba": 240,
      "tbaa": 241,
      "add": 242,
      "tag": 243,
      "G_": 244,
      "TA": 245,
      "telement": 246,
      "nu": 247,
      "getelement": 248,
      "getelementptr": 249,
      "36": 250,
      "TAG_": 251,
      "bound": 252,
      "DW_TAG_": 253,
      "bounds": 254,
      "inbounds": 255,
      "54": 256,
      "br": 257,
      "to": 258,
      "base": 259,
      "ds": 260,
      "50": 261,
      "baseType": 262,
      "60": 263,
      "di": 264,
      "57": 265,
      "edType": 266,
      "eriv": 267,
      "DID": 268,
      "erivedType": 269,
      "DIDerivedType": 270,
      "then": 271,
      "40": 272,
      "load": 273,
      "69": 274,
      "ff": 275,
      "78": 276,
      "preds": 277,
      "58": 278,
      "68": 279,
      "59": 280,
      "70": 281,
      "de": 282,
      "ck": 283,
      "48": 284,
      "stin": 285,
      "distin": 286,
      "distinct": 287,
      "79": 288,
      "mb": 289,
      "49": 290,
      "set": 291,
      "()),": 292,
      "mber": 293,
      "member": 294,
      "DW_TAG_member": 295,
      "un": 296,
      "**": 297,
      "off": 298,
      "ction": 299,
      "sh": 300,
      "i1": 301,
      "56": 302,
      "f_": 303,
      "offset": 304,
      "true": 305,
      "ra": 306,
      "44": 307,
      "ble": 308,
      "str": 309,
      "77": 310,
      "00": 311,
      "for": 312,
      "pr": 313,
      "int": 314,
      "(%": 315,
      "section": 316,
      "elf_": 317,
      "67": 318,
      "ph": 319,
      "icmp": 320,
      "99": 321,
      "dy": 322,
      "null": 323,
      "88": 324,
      "55": 325,
      "47": 326,
      "d_": 327,
      "33": 328,
      "con": 329,
      "lock": 330,
      "80": 331,
      "66": 332,
      "*)": 333,
      "hs": 334,
      "ica": 335,
      "ical": 336,
      "body": 337,
      "entr": 338,
      "Block": 339,
      "DILex": 340,
      "icalBlock": 341,
      "DILexicalBlock": 342,
      "entry": 343,
      "90": 344,
      "46": 345,
      "sta": 346,
      "21": 347,
      "sw": 348,
      "lhs": 349,
      "45": 350,
      "ia": 351,
      "89": 352,
      "cond": 353,
      "is": 354,
      "fo": 355,
      "inter": 356,
      "lag": 357,
      "65": 358,
      "_in": 359,
      "ut": 360,
      "eq": 361,
      "addr": 362,
      "31": 363,
      "ol": 364,
      "iable": 365,
      "ore": 366,
      "idx": 367,
      "87": 368,
      "ch": 369,
      "bfd_section": 370,
      "Var": 371,
      "Variable": 372,
      "sy": 373,
      "inc": 374,
      "_type": 375,
      "arg": 376,
      "link": 377,
      "store": 378,
      "phi": 379,
      "!{": 380,
      "86": 381,
      "non": 382,
      "74": 383,
      "il": 384,
      "76": 385,
      "lVariable": 386,
      "DILocalVariable": 387,
      "sym": 388,
      "cast": 389,
      "ma": 390,
      "!{!": 391,
      "@.": 392,
      "84": 393,
      "ub": 394,
      "97": 395,
      "ha": 396,
      "82": 397,
      "land": 398,
      "53": 399,
      "bit": 400,
      "ray": 401,
      "array": 402,
      "bool": 403,
      "43": 404,
      "_info": 405,
      "fal": 406,
      "false": 407,
      "tobool": 408,
      "sh_": 409,
      "98": 410,
      "96": 411,
      "]*": 412,
      "no": 413,
      "bu": 414,
      "52": 415,
      "exit": 416,
      "bitcast": 417,
      "get": 418,
      "51": 419,
      "ext": 420,
      "94": 421,
      "c_": 422,
      "ing": 423,
      "al_": 424,
      "75": 425,
      "nonnull": 426,
      "42": 427,
      "sub": 428,
      "ine": 429,
      "i16": 430,
      "),": 431,
      "out": 432,
      "41": 433,
      "and": 434,
      "85": 435,
      "flag": 436,
      "95": 437,
      "63": 438,
      "hash_": 439,
      "bb": 440,
      "arrayidx": 441,
      "conv": 442,
      "62": 443,
      "110": 444,
      "([": 445,
      "intern": 446,
      "tail": 447,
      "e_": 448,
      "cle": 449,
      "wh": 450,
      "flags": 451,
      "else": 452,
      "72": 453,
      "while": 454,
      "61": 455,
      "bfd_link": 456,
      "73": 457,
      "ro": 458,
      "ind": 459,
      "po": 460,
      "internal_": 461,
      "09": 462,
      "71": 463,
      "_st": 464,
      "bol": 465,
      "83": 466,
      "pro": 467,
      "93": 468,
      "symbol": 469,
      "named_": 470,
      "unnamed_": 471,
      "unnamed_addr": 472,
      "ocal": 473,
      "clea": 474,
      "nup": 475,
      "cleanup": 476,
      "08": 477,
      "p_": 478,
      "DIS": 479,
      "07": 480,
      "dec": 481,
      "92": 482,
      "ti": 483,
      "table": 484,
      "do": 485,
      "128": 486,
      "*)*,": 487,
      "04": 488,
      "op": 489,
      "_t": 490,
      "tar": 491,
      "ret": 492,
      "_data": 493,
      "ul": 494,
      "_hash_": 495,
      "DIF": 496,
      "06": 497,
      "_co": 498,
      "05": 499,
      "P_": 500,
      "lor": 501,
      "91": 502,
      "target": 503,
      "},": 504,
      "elf_internal_": 505,
      "pointer": 506,
      "he": 507,
      "ns": 508,
      "81": 509,
      "read": 510,
      "qu": 511,
      "DIFlag": 512,
      "106": 513,
      "02": 514,
      "pri": 515,
      "pointer_type": 516,
      "DW_TAG_pointer_type": 517,
      "OP_": 518,
      "_bfd_": 519,
      "vate": 520,
      "bfd_target": 521,
      "private": 522,
      "DW_OP_": 523,
      "head": 524,
      "03": 525,
      "132": 526,
      "ng": 527,
      "stant": 528,
      "constant": 529,
      "next": 530,
      "217": 531,
      "igned": 532,
      "ite": 533,
      "t_": 534,
      "tra": 535,
      "def": 536,
      "s_": 537,
      "tor": 538,
      "quo": 539,
      "_I": 540,
      "164": 541,
      "rs": 542,
      "relo": 543,
      "dr": 544,
      "100": 545,
      "_f": 546,
      "header": 547,
      "ef": 548,
      "*)*": 549,
      "%.": 550,
      "bfd_link_info": 551,
      "mera": 552,
      "212": 553,
      "print": 554,
      "_l": 555,
      "ent": 556,
      "ubr": 557,
      "DISubr": 558,
      "merator": 559,
      "numerator": 560,
      "DIEnumerator": 561,
      "types": 562,
      "214": 563,
      "Uns": 564,
      "Unsigned": 565,
      "isUnsigned": 566,
      "215": 567,
      "put": 568,
      "ob": 569,
      "256": 570,
      "218": 571,
      "outine": 572,
      "union": 573,
      "DISubroutine": 574,
      "DISubroutineType": 575,
      "_c": 576,
      "01": 577,
      "len": 578,
      "_hash_entry": 579,
      "**,": 580,
      "back": 581,
      "130": 582,
      "incdec": 583,
      "216": 584,
      "ure": 585,
      "219": 586,
      "ep": 587,
      "bfd_symbol": 588,
      "109": 589,
      "preheader": 590,
      "232": 591,
      "211": 592,
      "..": 593,
      "obj": 594,
      "ver": 595,
      "val": 596,
      "RE": 597,
      "ope": 598,
      "_comp": 599,
      "end82": 600,
      "ve": 601,
      "386": 602,
      "O_": 603,
      "xt": 604,
      "139": 605,
      "string": 606,
      "lect": 607,
      "108": 608,
      "120": 609,
      "107": 610,
      "ne": 611,
      "select": 612,
      "ssa": 613,
      "_s": 614,
      "lc": 615,
      "117": 616,
      "119": 617,
      "onent": 618,
      "114": 619,
      "192": 620,
      "lcssa": 621,
      "extra": 622,
      "shr": 623,
      "104": 624,
      "118": 625,
      "ist": 626,
      "re_": 627,
      "mang": 628,
      "mangle": 629,
      "iel": 630,
      "264": 631,
      "os": 632,
      "rt": 633,
      "stack": 634,
      "state": 635,
      "_IO_": 636,
      "p0": 637,
      "abfd": 638,
      "p0i8": 639,
      "Co": 640,
      "105": 641,
      "Data": 642,
      "ition": 643,
      "it_": 644,
      "des": 645,
      "213": 646,
      "LE": 647,
      "160": 648,
      "element": 649,
      "ield": 650,
      "Comp": 651,
      "DIComp": 652,
      "unt": 653,
      "shl": 654,
      "demangle": 655,
      "Bit": 656,
      "pl": 657,
      "Field": 658,
      "DIFlagBit": 659,
      "extraData": 660,
      "DIFlagBitField": 661,
      "180": 662,
      "177": 663,
      "129": 664,
      "150": 665,
      "info": 666,
      "pec": 667,
      "all": 668,
      "reloc_": 669,
      "_tdata": 670,
      "127": 671,
      "osite": 672,
      "DIComposite": 673,
      "DICompositeType": 674,
      "199": 675,
      "coff": 676,
      "140": 677,
      "quote": 678,
      "d_print": 679,
      "elements": 680,
      "vars": 681,
      "159": 682,
      "C_": 683,
      "nsw": 684,
      "220": 685,
      "ILE": 686,
      "147": 687,
      "190": 688,
      "148": 689,
      "ur": 690,
      "option": 691,
      "inition": 692,
      "time": 693,
      "buff": 694,
      "spec": 695,
      "144": 696,
      "157": 697,
      "REL": 698,
      "116": 699,
      "edge": 700,
      "mul": 701,
      "buffer": 702,
      "149": 703,
      "158": 704,
      "138": 705,
      "124": 706,
      "210": 707,
      "170": 708,
      "Local": 709,
      "Def": 710,
      "134": 711,
      "isLocal": 712,
      "isDef": 713,
      "isDefinition": 714,
      "136": 715,
      "137": 716,
      "zext": 717,
      "189": 718,
      "indvars": 719,
      "224": 720,
      "146": 721,
      "elf_link": 722,
      "FILE": 723,
      "320": 724,
      "_component": 725,
      "126": 726,
      "i4": 727,
      "154": 728,
      "demangle_component": 729,
      "ult": 730,
      "wind": 731,
      "fa": 732,
      "115": 733,
      "179": 734,
      "xor": 735,
      "200": 736,
      "145": 737,
      "169": 738,
      "unit": 739,
      "unction": 740,
      "y_": 741,
      "tim": 742,
      "236": 743,
      "_IO_FILE": 744,
      "208": 745,
      "D_": 746,
      "168": 747,
      "prog": 748,
      "ing_": 749,
      "178": 750,
      "__": 751,
      "err": 752,
      "ized": 753,
      "184": 754,
      "156": 755,
      "backend": 756,
      "174": 757,
      "Op": 758,
      "pend": 759,
      "197": 760,
      "167": 761,
      "at": 762,
      "135": 763,
      "_cr": 764,
      "thread": 765,
      "ram": 766,
      "187": 767,
      "cach": 768,
      "176": 769,
      "program": 770,
      "lr": 771,
      "188": 772,
      "125": 773,
      "timized": 774,
      "_struct": 775,
      "Optimized": 776,
      "isOptimized": 777,
      "155": 778,
      "240": 779,
      "retval": 780,
      "195": 781,
      "260": 782,
      "230": 783,
      "it_edge": 784,
      "_crit_edge": 785,
      "tain": 786,
      "165": 787,
      "249": 788,
      "166": 789,
      "248": 790,
      "unwind": 791,
      "retain": 792,
      "prom": 793,
      "st_": 794,
      "nounwind": 795,
      "238": 796,
      "175": 797,
      "227": 798,
      "buf": 799,
      "228": 800,
      "BF": 801,
      "266": 802,
      "198": 803,
      "es": 804,
      "294": 805,
      "No": 806,
      "209": 807,
      "node": 808,
      "204": 809,
      "194": 810,
      "up": 811,
      "237": 812,
      "elf_obj": 813,
      "Line": 814,
      "trs": 815,
      "anon": 816,
      "RELO": 817,
      "BFD_": 818,
      "123": 819,
      "133": 820,
      "_section": 821,
      "retained": 822,
      "Nodes": 823,
      "scopeLine": 824,
      "ubprogram": 825,
      "DISubprogram": 826,
      "retainedNodes": 827,
      "Function": 828,
      "186": 829,
      "BFD_RELO": 830,
      "Attrs": 831,
      "255": 832,
      "244": 833,
      "log": 834,
      "113": 835,
      "245": 836,
      "308": 837,
      "229": 838,
      "ctor": 839,
      "121": 840,
      "idxprom": 841,
      "in_": 842,
      "vec": 843,
      "207": 844,
      "i386": 845,
      "226": 846,
      "196": 847,
      "BFD_RELOC_": 848,
      "cache_": 849,
      "185": 850,
      "103": 851,
      "Pro": 852,
      "246": 853,
      "325": 854,
      "225": 855,
      "239": 856,
      "typed": 857,
      "totyped": 858,
      "DIFlagPro": 859,
      "DIFlagPrototyped": 860,
      "count": 861,
      "*),": 862,
      "270": 863,
      "ref": 864,
      "254": 865,
      "rela": 866,
      "local": 867,
      "tab": 868,
      "structure": 869,
      "structure_type": 870,
      "DW_TAG_structure_type": 871,
      "247": 872,
      "options": 873,
      "cache_entry": 874,
      "am": 875,
      "288": 876,
      "ilog": 877,
      "d_print_info": 878,
      "250": 879,
      "nc": 880,
      "206": 881,
      ")),": 882,
      "const": 883,
      "lif": 884,
      "205": 885,
      "bug": 886,
      "760": 887,
      "elf_link_hash_entry": 888,
      "coff_": 889,
      "etime": 890,
      "lifetime": 891,
      "i386_": 892,
      "rand": 893,
      "143": 894,
      "298": 895,
      "epilog": 896,
      "101": 897,
      "mem": 898,
      "259": 899,
      "define": 900,
      "152": 901,
      "234": 902,
      "344": 903,
      "sro": 904,
      "sroa": 905,
      "0A": 906,
      "n_": 907,
      "512": 908,
      "oc": 909,
      "223": 910,
      "backend_data": 911,
      "163": 912,
      "arch": 913,
      "rhs": 914,
      "uw": 915,
      "tre": 916,
      "local_": 917,
      ")*": 918,
      "257": 919,
      "uwtable": 920,
      "_local": 921,
      "709": 922,
      "153": 923,
      "elf_obj_tdata": 924,
      "384": 925,
      "243": 926,
      "235": 927,
      ")*,": 928,
      "268": 929,
      "char": 930,
      "193": 931,
      "operand": 932,
      "loop": 933,
      "pt": 934,
      "112": 935,
      "296": 936,
      "293": 937,
      "102": 938,
      "335": 939,
      "lob": 940,
      "111": 941,
      "operand_type": 942,
      "_N": 943,
      "304": 944,
      "i386_operand_type": 945,
      "hdr": 946,
      "gt": 947,
      "509": 948,
      "ce": 949,
      "173": 950,
      "text": 951,
      "183": 952,
      "local_unnamed_addr": 953,
      "bfd_elf_": 954,
      "_list": 955,
      "debug": 956,
      "290": 957,
      "sec": 958,
      "_hash_table": 959,
      "buffersize": 960,
      "quot": 961,
      "i5": 962,
      "stre": 963,
      "pa": 964,
      "trunc": 965,
      "122": 966,
      "131": 967,
      "sion": 968,
      "580": 969,
      "640": 970,
      "dso": 971,
      "stream": 972,
      "299": 973,
      "...": 974,
      "rea": 975,
      "284": 976,
      "undef": 977,
      "ctx": 978,
      "lobal": 979,
      "dso_local": 980,
      "ap": 981,
      "318": 982,
      "_value": 983,
      "1020": 984,
      "rel": 985,
      "300": 986,
      "269": 987,
      "ke": 988,
      "258": 989,
      "h_": 990,
      "280": 991,
      "iter": 992,
      "274": 993,
      "reloc": 994,
      "286": 995,
      "548": 996,
      "295": 997,
      "us": 998,
      "695": 999,
      "w_": 1000,
      "233": 1001,
      "start": 1002,
      "comp": 1003,
      "289": 1004,
      "xit": 1005,
      "deref": 1006,
      "_G": 1007,
      "7835": 1008,
      "172": 1009,
      "DW_OP_deref": 1010,
      "loope": 1011,
      "loopexit": 1012,
      "output": 1013,
      "mat": 1014,
      "age": 1015,
      "768": 1016,
      "576": 1017,
      "noca": 1018,
      "pture": 1019,
      "nocapture": 1020,
      "shdr": 1021,
      "276": 1022,
      "142": 1023,
      "ly": 1024,
      "...)": 1025,
      "m_": 1026,
      "544": 1027,
      "pi": 1028,
      "zer": 1029,
      "reloc_cache_entry": 1030,
      "xvec": 1031,
      "448": 1032,
      "267": 1033,
      "203": 1034,
      "287": 1035,
      "error": 1036,
      "324": 1037,
      "rite": 1038,
      "r_": 1039,
      "plu": 1040,
      "340": 1041,
      "mo": 1042,
      "303": 1043,
      "cha": 1044,
      "278": 1045,
      "171": 1046,
      "itch": 1047,
      "ON": 1048,
      "309": 1049,
      "310": 1050,
      "switch": 1051,
      "151": 1052,
      "277": 1053,
      "323": 1054,
      "368": 1055,
      "397": 1056,
      "348": 1057,
      "275": 1058,
      "div": 1059,
      "796": 1060,
      "606": 1061,
      "423": 1062,
      "265": 1063,
      "x_": 1064,
      "697": 1065,
      "sext": 1066,
      "307": 1067,
      "ow": 1068,
      "quoting_": 1069,
      "279": 1070,
      "cay": 1071,
      "decay": 1072,
      "arraydecay": 1073,
      "141": 1074,
      "tree_": 1075,
      "L_": 1076,
      "390": 1077,
      "epil": 1078,
      "stat": 1079,
      "DW_OP_stack": 1080,
      "DW_OP_stack_value": 1081,
      "zero": 1082,
      "x86": 1083,
      "lshr": 1084,
      "370": 1085,
      "380": 1086,
      "161": 1087,
      "181": 1088,
      "328": 1089,
      "329": 1090,
      "500": 1091,
      "191": 1092,
      "575": 1093,
      "dire": 1094,
      "281": 1095,
      "mer": 1096,
      "cc": 1097,
      "263": 1098,
      "305": 1099,
      "162": 1100,
      "ree": 1101,
      "297": 1102,
      "dpi": 1103,
      "306": 1104,
      "648": 1105,
      "360": 1106,
      "273": 1107,
      "704": 1108,
      "285": 1109,
      "182": 1110,
      "quoting_options": 1111,
      "399": 1112,
      "379": 1113,
      "*)**": 1114,
      "bfd_link_hash_entry": 1115,
      "ll_": 1116,
      "ssl": 1117,
      "elf_internal_shdr": 1118,
      "\"=": 1119,
      "221": 1120,
      "merge": 1121,
      "prol": 1122,
      "\"=\"": 1123,
      "DIG": 1124,
      "354": 1125,
      "i6": 1126,
      "igh": 1127,
      "bin_": 1128,
      "append": 1129,
      "mi": 1130,
      "ias": 1131,
      "ok": 1132,
      "387": 1133,
      "600": 1134,
      "clear": 1135,
      "version": 1136,
      "dis": 1137,
      "write": 1138,
      "_name": 1139,
      "esca": 1140,
      "gro": 1141,
      "784": 1142,
      "302": 1143,
      "init": 1144,
      "349": 1145,
      "argsize": 1146,
      "253": 1147,
      "i3": 1148,
      "376": 1149,
      "389": 1150,
      "hash_entry": 1151,
      "py": 1152,
      "ial": 1153,
      "get_": 1154,
      "um": 1155,
      "350": 1156,
      "urn": 1157,
      "alias": 1158,
      "only": 1159,
      "326": 1160,
      "_p": 1161,
      "644": 1162,
      "395": 1163,
      "378": 1164,
      "ot": 1165,
      "283": 1166,
      "nuw": 1167,
      "352": 1168,
      "202": 1169,
      "_end": 1170,
      "374": 1171,
      "356": 1172,
      "222": 1173,
      "bfd_h_": 1174,
      "282": 1175,
      "454": 1176,
      "dfa": 1177,
      "790": 1178,
      "369": 1179,
      "365": 1180,
      "357": 1181,
      "ev": 1182,
      "398": 1183,
      "*)*),": 1184,
      "var": 1185,
      "327": 1186,
      "345": 1187,
      "elf_internal_sym": 1188,
      "359": 1189,
      "_NL_": 1190,
      "592": 1191,
      "dc": 1192,
      "201": 1193,
      "cmp1": 1194,
      "540": 1195,
      "593": 1196,
      "hash": 1197,
      "504": 1198,
      "match": 1199,
      "call1": 1200,
      "s_u": 1201,
      "346": 1202,
      "x86_": 1203,
      "292": 1204,
      "1_": 1205,
      "escape": 1206,
      "she": 1207,
      "347": 1208,
      "elf_internal_rela": 1209,
      "bin_tree_": 1210,
      "375": 1211,
      "conte": 1212,
      "rc_": 1213,
      "507": 1214,
      "fast": 1215,
      "attr": 1216,
      "t_quote": 1217,
      "alloca": 1218,
      "388": 1219,
      "initial": 1220,
      "alloc": 1221,
      "by": 1222,
      "wor": 1223,
      "377": 1224,
      "return": 1225,
      "map": 1226,
      "291": 1227,
      "355": 1228,
      "396": 1229,
      "358": 1230,
      "312": 1231,
      "sl": 1232,
      "570": 1233,
      "301": 1234,
      "au": 1235,
      "322": 1236,
      "385": 1237,
      "251": 1238,
      "DW_OP_plu": 1239,
      "fastcc": 1240,
      "list": 1241,
      "603": 1242,
      "565": 1243,
      "vaarg": 1244,
      "917": 1245,
      "271": 1246,
      "608": 1247,
      "383": 1248,
      "filename": 1249,
      "333": 1250,
      "key": 1251,
      "izer": 1252,
      "590": 1253,
      "initializer": 1254,
      "zeroinitializer": 1255,
      "te_": 1256,
      "252": 1257,
      "CT": 1258,
      "362": 1259,
      "readonly": 1260,
      "542": 1261,
      "exp_": 1262,
      "546": 1263,
      "buil": 1264,
      "as": 1265,
      "367": 1266,
      "366": 1267,
      "shell_": 1268,
      "argp_": 1269,
      "ft": 1270,
      "ern": 1271,
      "getx": 1272,
      "s_uconst": 1273,
      "DW_OP_plus_uconst": 1274,
      "691": 1275,
      "lobalVariable": 1276,
      "DIGlobalVariable": 1277,
      "649": 1278,
      "319": 1279,
      "242": 1280,
      "607": 1281,
      "311": 1282,
      "688": 1283,
      "typedef": 1284,
      "_ptr": 1285,
      "DW_TAG_typedef": 1286,
      "400": 1287,
      "321": 1288,
      "479": 1289,
      "543": 1290,
      "599": 1291,
      "elf_backend_data": 1292,
      "evp_": 1293,
      "slt": 1294,
      "343": 1295,
      "righ": 1296,
      "579": 1297,
      "394": 1298,
      "231": 1299,
      "780": 1300,
      "361": 1301,
      "647": 1302,
      "372": 1303,
      "708": 1304,
      "547": 1305,
      "342": 1306,
      "content": 1307,
      "393": 1308,
      "480": 1309,
      "641": 1310,
      "508": 1311,
      "1014": 1312,
      "dyn": 1313,
      "director": 1314,
      "713": 1315,
      "382": 1316,
      "404": 1317,
      "reg": 1318,
      "use": 1319,
      "706": 1320,
      "261": 1321,
      "272": 1322,
      "internal": 1323,
      "262": 1324,
      "646": 1325,
      "566": 1326,
      "745": 1327,
      "end4": 1328,
      "i10": 1329,
      "241": 1330,
      "373": 1331,
      "le_": 1332,
      "()": 1333,
      "314": 1334,
      "447": 1335,
      "490": 1336,
      "458": 1337,
      "bfd_link_hash_table": 1338,
      "392": 1339,
      "330": 1340,
      "li": 1341,
      "1540": 1342,
      "fi": 1343,
      "_stack": 1344,
      "696": 1345,
      "_set": 1346,
      "phdr": 1347,
      "685": 1348,
      "391": 1349,
      "exp_node": 1350,
      "flo": 1351,
      "er_": 1352,
      "574": 1353,
      "313": 1354,
      "642": 1355,
      "contents": 1356,
      "directory": 1357,
      "rsrc_": 1358,
      "64_": 1359,
      "699": 1360,
      "363": 1361,
      "351": 1362,
      "506": 1363,
      "597": 1364,
      "353": 1365,
      "341": 1366,
      "pending_": 1367,
      "643": 1368,
      "690": 1369,
      "381": 1370,
      "567": 1371,
      "_S": 1372,
      "group": 1373,
      "cmp3": 1374,
      "lay": 1375,
      "501": 1376,
      ">*": 1377,
      "1107": 1378,
      "_bfd_elf_": 1379,
      "549": 1380,
      "589": 1381,
      "gment": 1382,
      "res": 1383,
      "645": 1384,
      "sgt": 1385,
      "604": 1386,
      "_size": 1387,
      "798": 1388,
      "716": 1389,
      "317": 1390,
      "arg_": 1391,
      "371": 1392,
      "405": 1393,
      "315": 1394,
      "1626": 1395,
      "wid": 1396,
      "com": 1397,
      "vector": 1398,
      "sa": 1399,
      "331": 1400,
      "ernal_": 1401,
      "pos": 1402,
      "ke_": 1403,
      "683": 1404,
      "par": 1405,
      "1174": 1406,
      "681": 1407,
      "602": 1408,
      "PE": 1409,
      "new": 1410,
      "sert": 1411,
      "578": 1412,
      "505": 1413,
      "551": 1414,
      "dyna": 1415,
      "680": 1416,
      "expr": 1417,
      "587": 1418,
      "483": 1419,
      "output_": 1420,
      "bfd_elf_section": 1421,
      "407": 1422,
      "defa": 1423,
      "577": 1424,
      "572": 1425,
      "316": 1426,
      "465": 1427,
      "then10": 1428,
      "index": 1429,
      "718": 1430,
      "684": 1431,
      "799": 1432,
      "dynami": 1433,
      "nge": 1434,
      "609": 1435,
      "putx": 1436,
      "enco": 1437,
      "700": 1438,
      "block": 1439,
      "re_dfa": 1440,
      "686": 1441,
      "<{": 1442,
      "406": 1443,
      "409": 1444,
      "591": 1445,
      "494": 1446,
      "698": 1447,
      "595": 1448,
      "555": 1449,
      "bfd_link_": 1450,
      "408": 1451,
      "586": 1452,
      "545": 1453,
      "cmp4": 1454,
      "596": 1455,
      "598": 1456,
      "808": 1457,
      "exp": 1458,
      "ink": 1459,
      "712": 1460,
      "note": 1461,
      "693": 1462,
      "byte": 1463,
      "hol": 1464,
      "string_": 1465,
      "498": 1466,
      "585": 1467,
      "674": 1468,
      "make_": 1469,
      "i9": 1470,
      "594": 1471,
      "cur": 1472,
      "497": 1473,
      "lineno": 1474,
      "lang": 1475,
      "plit": 1476,
      "gettext": 1477,
      "788": 1478,
      "1024": 1479,
      "over": 1480,
      "739": 1481,
      "ugt": 1482,
      "war": 1483,
      "is_": 1484,
      "dcgettext": 1485,
      "499": 1486,
      "num": 1487,
      "588": 1488,
      "563": 1489,
      "573": 1490,
      "487": 1491,
      "787": 1492,
      "eck": 1493,
      "503": 1494,
      "484": 1495,
      "orig": 1496,
      "ed_": 1497,
      "bin_tree_t": 1498,
      "694": 1499,
      "1570": 1500,
      "check": 1501,
      "495": 1502,
      "2286": 1503,
      "bfd_elf_section_data": 1504,
      "fp": 1505,
      "_entry": 1506,
      "789": 1507,
      "}>": 1508,
      "896": 1509,
      "sink": 1510,
      "how": 1511,
      "end7": 1512,
      "777": 1513,
      "plt": 1514,
      "794": 1515,
      "root": 1516,
      "shell_escape": 1517,
      "elf_x86_": 1518,
      "_char": 1519,
      "786": 1520,
      "end_crit_edge": 1521,
      "unr": 1522,
      "571": 1523,
      "3429": 1524,
      "\"/": 1525,
      "584": 1526,
      "488": 1527,
      "502": 1528,
      "561": 1529,
      "702": 1530,
      "707": 1531,
      "676": 1532,
      "3428": 1533,
      "687": 1534,
      "486": 1535,
      "429": 1536,
      "775": 1537,
      "end8": 1538,
      "605": 1539,
      "562": 1540,
      "553": 1541,
      "402": 1542,
      "541": 1543,
      "howto": 1544,
      "ner": 1545,
      "ctx_st": 1546,
      "601": 1547,
      "GN": 1548,
      "component": 1549,
      "771": 1550,
      "832": 1551,
      "T_": 1552,
      "io": 1553,
      "ord": 1554,
      "785": 1555,
      "5661": 1556,
      "split": 1557,
      "4039": 1558,
      "DE": 1559,
      "663": 1560,
      "bign": 1561,
      "489": 1562,
      "z_": 1563,
      "internal_state": 1564,
      "689": 1565,
      "705": 1566,
      "sec_": 1567,
      "782": 1568,
      "496": 1569,
      "red_": 1570,
      "l_": 1571,
      "475": 1572,
      "797": 1573,
      "ser": 1574,
      "vma": 1575,
      "strtab": 1576,
      "noalias": 1577,
      "ve_": 1578,
      "unc": 1579,
      "332": 1580,
      "component_stack": 1581,
      "511": 1582,
      "trans": 1583,
      "692": 1584,
      "795": 1585,
      "set_": 1586,
      "1311": 1587,
      "elf_internal_ver": 1588,
      "end6": 1589,
      "ci": 1590,
      "aout": 1591,
      "hash_table": 1592,
      "pending_shell_escape": 1593,
      "pending_shell_escape_end": 1594,
      "474": 1595,
      "overflo": 1596,
      "715": 1597,
      "TE": 1598,
      "1032": 1599,
      "552": 1600,
      "672": 1601,
      "493": 1602,
      "d_append": 1603,
      "485": 1604,
      "445": 1605,
      "10616": 1606,
      "AR": 1607,
      "5344": 1608,
      "code": 1609,
      "end5": 1610,
      "4709": 1611,
      "ibu": 1612,
      "dynamic_": 1613,
      "5260": 1614,
      "lf": 1615,
      "776": 1616,
      "424": 1617,
      "cmp5": 1618,
      "583": 1619,
      "AL": 1620,
      "cmp2": 1621,
      "451": 1622,
      "446": 1623,
      "675": 1624,
      "781": 1625,
      "S_": 1626,
      "decla": 1627,
      "_symbol": 1628,
      "i7": 1629,
      "774": 1630,
      "ibute": 1631,
      "337": 1632,
      "declare": 1633,
      "444": 1634,
      "Y_": 1635,
      "rent": 1636,
      "32293": 1637,
      "26443": 1638,
      "orig_": 1639,
      "_state": 1640,
      "attribute": 1641,
      "_data_struct": 1642,
      "tdata": 1643,
      "581": 1644,
      "cmp8": 1645,
      "666": 1646,
      "leng": 1647,
      "ckage": 1648,
      "rc": 1649,
      "d_info": 1650,
      "segment": 1651,
      "length": 1652,
      "min": 1653,
      "682": 1654,
      "338": 1655,
      "2240": 1656,
      "_free": 1657,
      "652": 1658,
      "459": 1659,
      "665": 1660,
      "R_": 1661,
      "783": 1662,
      "792": 1663,
      "582": 1664,
      "401": 1665,
      "472": 1666,
      "tok": 1667,
      "then7": 1668,
      "_ind": 1669,
      "9117": 1670,
      "673": 1671,
      "orig_buffersize": 1672,
      "AS": 1673,
      "524": 1674,
      "g_": 1675,
      "yle": 1676,
      "area": 1677,
      "_count": 1678,
      "cke": 1679,
      "791": 1680,
      "471": 1681,
      "i24": 1682,
      "1088": 1683,
      "412": 1684,
      "807": 1685,
      "mall": 1686,
      "336": 1687,
      "339": 1688,
      "stab": 1689,
      "1168": 1690,
      "then4": 1691,
      "plt_": 1692,
      "insert": 1693,
      "printf": 1694,
      "441": 1695,
      "need": 1696,
      "7841": 1697,
      "gep": 1698,
      "476": 1699,
      "end9": 1700,
      "GNU": 1701,
      "mt": 1702,
      "701": 1703,
      "1620": 1704,
      "481": 1705,
      "527": 1706,
      "534": 1707,
      "482": 1708,
      "debug_": 1709,
      "sing": 1710,
      "_fra": 1711,
      "d_append_char": 1712,
      "elf_size": 1713,
      "960": 1714,
      "elf": 1715,
      "aout_data_struct": 1716,
      "so": 1717,
      "2300": 1718,
      "491": 1719,
      "single_": 1720,
      "_index": 1721,
      "513": 1722,
      "order": 1723,
      "end10": 1724,
      "elf_size_info": 1725,
      "section_": 1726,
      "elf_backend": 1727,
      "unte": 1728,
      "415": 1729,
      "single_quote": 1730,
      "encounte": 1731,
      "bignum": 1732,
      "403": 1733,
      "then5": 1734,
      "800": 1735,
      "gnu": 1736,
      "encountered_": 1737,
      "671": 1738,
      "cmp6": 1739,
      "encountered_single_quote": 1740,
      "meth": 1741,
      "411": 1742,
      "364": 1743,
      "523": 1744,
      "bignum_st": 1745,
      "state_t": 1746,
      "ocation": 1747,
      "908": 1748,
      "772": 1749,
      "703": 1750,
      "492": 1751,
      "806": 1752,
      "560": 1753,
      "_idx": 1754,
      "last_": 1755,
      "ther": 1756,
      "1564": 1757,
      "sk": 1758,
      "fin": 1759,
      "(.": 1760,
      "be": 1761,
      "global": 1762,
      "token": 1763,
      "889": 1764,
      "MON": 1765,
      "*)(%": 1766,
      "util": 1767,
      "version_": 1768,
      "elf_internal_phdr": 1769,
      "918": 1770,
      "2539": 1771,
      "lib": 1772,
      "334": 1773,
      "chain": 1774,
      "757": 1775,
      "context": 1776,
      "442": 1777,
      "618": 1778,
      "443": 1779,
      "2299": 1780,
      "callback": 1781,
      "archiv": 1782,
      "bfd_h_getx": 1783,
      "utils": 1784,
      "bfd_h_putx": 1785,
      "\")": 1786,
      "717": 1787,
      "DIFile": 1788,
      "417": 1789,
      "i23": 1790,
      "free": 1791,
      "read_": 1792,
      "auth": 1793,
      "662": 1794,
      "relocs": 1795,
      "461": 1796,
      "right_quote": 1797,
      "input": 1798,
      "asn": 1799,
      "prope": 1800,
      "ckages": 1801,
      "end12": 1802,
      "cu": 1803,
      "i11": 1804,
      "call4": 1805,
      "eh": 1806,
      "Ver": 1807,
      "max": 1808,
      "463": 1809,
      "builds": 1810,
      "2280": 1811,
      "651": 1812,
      "ER": 1813,
      "YPE": 1814,
      "773": 1815,
      "fmt": 1816,
      "462": 1817,
      "end11": 1818,
      "1280": 1819,
      "d_component_stack": 1820,
      "517": 1821,
      "453": 1822,
      "bfd_hash_entry": 1823,
      "sections": 1824,
      "malloc": 1825,
      "990": 1826,
      "32_": 1827,
      "1000": 1828,
      "880": 1829,
      "math": 1830,
      "ptrto": 1831,
      "ptrtoint": 1832,
      "number": 1833,
      "568": 1834,
      "661": 1835,
      "436": 1836,
      "write_": 1837,
      "793": 1838,
      "655": 1839,
      "chable": 1840,
      "ssl_st": 1841,
      "lef": 1842,
      "reachable": 1843,
      "overflow_": 1844,
      "core": 1845,
      "936": 1846,
      "76022": 1847,
      "unreachable": 1848,
      "then3": 1849,
      "724": 1850,
      "up_": 1851,
      "473": 1852,
      "536": 1853,
      "1600": 1854,
      "1120": 1855,
      "look": 1856,
      "422": 1857,
      "CO": 1858,
      "Ext": 1859,
      "**)*,": 1860,
      "720": 1861,
      "External_": 1862,
      "890": 1863,
      "520": 1864,
      "Expression": 1865,
      "DIGlobalVariableExpression": 1866,
      "bfd_arch": 1867,
      "452": 1868,
      "reloc_howto": 1869,
      "hand": 1870,
      "fla": 1871,
      "copy": 1872,
      "num_": 1873,
      "998": 1874,
      "439": 1875,
      "619": 1876,
      "dwar": 1877,
      "arg_area": 1878,
      "overflow_arg_area": 1879,
      "437": 1880,
      "464": 1881,
      "cpy": 1882,
      "struction": 1883,
      "898": 1884,
      "ic_": 1885,
      "oc_": 1886,
      "888": 1887,
      "gener": 1888,
      "i12": 1889,
      "word_": 1890,
      "then12": 1891,
      "end15": 1892,
      "438": 1893,
      "738": 1894,
      "841": 1895,
      "653": 1896,
      "_instruction": 1897,
      "900": 1898,
      "2250": 1899,
      "end13": 1900,
      "5744": 1901,
      "416": 1902,
      "460": 1903,
      "lineno_": 1904,
      "i_": 1905,
      "re_node": 1906,
      "re_node_set": 1907,
      "*(.": 1908,
      "z_stream": 1909,
      "exp_instruction": 1910,
      "766": 1911,
      "evp_p": 1912,
      "519": 1913,
      "default": 1914,
      "call2": 1915,
      "left_quote": 1916,
      "907": 1917,
      "ors": 1918,
      "2332": 1919,
      "430": 1920,
      "parse": 1921,
      "reloc_howto_struct": 1922,
      "bucke": 1923,
      "orage": 1924,
      "metho": 1925,
      "mod": 1926,
      "ect": 1927,
      "994": 1928,
      "itmp": 1929,
      "phitmp": 1930,
      "desc": 1931,
      "then6": 1932,
      "_file": 1933,
      "528": 1934,
      "wide": 1935,
      "then2": 1936,
      "842": 1937,
      "idd": 1938,
      "934": 1939,
      "419": 1940,
      "2229": 1941,
      "2164": 1942,
      "532": 1943,
      "ress": 1944,
      "fmtstream": 1945,
      "tree": 1946,
      "749": 1947,
      "lineno_cache_entry": 1948,
      "999": 1949,
      "dir": 1950,
      "1664": 1951,
      "fir": 1952,
      "909": 1953,
      "809": 1954,
      "426": 1955,
      "storage": 1956,
      "argp_fmtstream": 1957,
      "then9": 1958,
      "X509": 1959,
      "639": 1960,
      "1119": 1961,
      "432": 1962,
      "then8": 1963,
      "2264": 1964,
      "2350": 1965,
      "rpl": 1966,
      "514": 1967,
      "2540": 1968,
      "878": 1969,
      "997": 1970,
      "1312": 1971,
      "425": 1972,
      "const_type": 1973,
      "authors": 1974,
      "420": 1975,
      "ps": 1976,
      "996": 1977,
      "z_stream_s": 1978,
      "cmp7": 1979,
      "DW_TAG_const_type": 1980,
      "mode": 1981,
      "525": 1982,
      "string_append": 1983,
      ">,": 1984,
      "handle": 1985,
      "obj_": 1986,
      "1638": 1987,
      "ME": 1988,
      "522": 1989,
      "_hash": 1990,
      "call3": 1991,
      "449": 1992,
      "call5": 1993,
      "1310": 1994,
      "_table": 1995,
      "yy": 1996,
      "TL": 1997,
      "886": 1998,
      "disp": 1999,
      "805": 2000,
      "763": 2001,
      "823": 2002,
      "asn1_": 2003,
      "418": 2004,
      "1559": 2005,
      "bits": 2006,
      "segment_": 2007,
      "memcpy": 2008,
      "2232": 2009,
      "symtab": 2010,
      "1004": 2011,
      "729": 2012,
      "ce_": 2013,
      "734": 2014,
      "537": 2015,
      "output_section": 2016,
      "516": 2017,
      "coff_tdata": 2018,
      "435": 2019,
      "518": 2020,
      "529": 2021,
      "htab": 2022,
      "i14": 2023,
      "1610": 2024,
      "569": 2025,
      "mon": 2026,
      "Pa": 2027,
      "515": 2028,
      "949": 2029,
      "bfd_getx": 2030,
      "1159": 2031,
      "887": 2032,
      "457": 2033,
      "636": 2034,
      "storemerge": 2035,
      "000": 2036,
      "750": 2037,
      "ted": 2038,
      "550": 2039,
      "generic_": 2040,
      "end14": 2041,
      "1048": 2042,
      "469": 2043,
      "434": 2044,
      "opt": 2045,
      "ION": 2046,
      "558": 2047,
      "876": 2048,
      "re_dfastate_t": 2049,
      "_h": 2050,
      "i25": 2051,
      "470": 2052,
      "act": 2053,
      "901": 2054,
      "elf_link_hash_table": 2055,
      "624": 2056,
      "410": 2057,
      "611": 2058,
      "1102": 2059,
      "object": 2060,
      "1216": 2061,
      "stack_st": 2062,
      "and_": 2063,
      "cess": 2064,
      "cmp11": 2065,
      "left": 2066,
      "428": 2067,
      "849": 2068,
      "bfd_arch_info": 2069,
      "tmp": 2070,
      "669": 2071,
      "939": 2072,
      "2432": 2073,
      "905": 2074,
      "decl": 2075,
      "_hdr": 2076,
      "1299": 2077,
      "MON_": 2078,
      "941": 2079,
      "alloc_": 2080,
      "key_st": 2081,
      "894": 2082,
      "861": 2083,
      "result": 2084,
      "820": 2085,
      "875": 2086,
      "741": 2087,
      "sz": 2088,
      "855": 2089,
      "flu": 2090,
      "2420": 2091,
      "LA": 2092,
      "rele": 2093,
      "668": 2094,
      "1038": 2095,
      "450": 2096,
      "dst": 2097,
      "714": 2098,
      "\".": 2099,
      "468": 2100,
      "error_": 2101,
      "prev": 2102,
      "epilog593": 2103,
      "1067": 2104,
      "Other": 2105,
      "laz": 2106,
      "1536": 2107,
      "1408": 2108,
      "670": 2109,
      "Packages": 2110,
      "OtherPackages": 2111,
      "mand": 2112,
      "538": 2113,
      "match_": 2114,
      "1344": 2115,
      "ASN": 2116,
      "call21": 2117,
      "478": 2118,
      "1728": 2119,
      "propert": 2120,
      "625": 2121,
      "syms": 2122,
      "2239": 2123,
      "src": 2124,
      "i37": 2125,
      "650": 2126,
      "5421": 2127,
      "1135": 2128,
      "FF": 2129,
      "779": 2130,
      "not": 2131,
      "748": 2132,
      "940": 2133,
      "617": 2134,
      "427": 2135,
      "828": 2136,
      "1186": 2137,
      "938": 2138,
      "***": 2139,
      "899": 2140,
      "_com": 2141,
      "i19": 2142,
      "func": 2143,
      "lazy_": 2144,
      "uble": 2145,
      "end17": 2146,
      "1010": 2147,
      "to_": 2148,
      "895": 2149,
      "1152": 2150,
      "804": 2151,
      "ie": 2152,
      "1499": 2153,
      "double": 2154,
      "LO": 2155,
      "ark": 2156,
      "da": 2157,
      "870": 2158,
      "fre": 2159,
      "873": 2160,
      "strlen": 2161,
      "property": 2162,
      "2757": 2163,
      "p_offset": 2164,
      "2048": 2165,
      "_style": 2166,
      "end20": 2167,
      "_chain": 2168,
      "}\\": 2169,
      "mask": 2170,
      "818": 2171,
      "906": 2172,
      "map_": 2173,
      "730": 2174,
      "1025": 2175,
      "843": 2176,
      "_input": 2177,
      "759": 2178,
      "1500": 2179,
      "801": 2180,
      "535": 2181,
      "1035": 2182,
      "2747": 2183,
      "2230": 2184,
      "477": 2185,
      "440": 2186,
      "554": 2187,
      "du": 2188,
      "803": 2189,
      "728": 2190,
      "1069": 2191,
      "526": 2192,
      "union_type": 2193,
      "elf_internal_note": 2194,
      "630": 2195,
      "ux": 2196,
      "DW_TAG_union_type": 2197,
      "segment_map": 2198,
      "cmp10": 2199,
      "i40": 2200,
      ">*,": 2201,
      "flush_": 2202,
      "2718": 2203,
      "869": 2204,
      "_fa": 2205,
      "rsrc_entry": 2206,
      "_P": 2207,
      "743": 2208,
      "right": 2209,
      "cmp9": 2210,
      "864": 2211,
      "ap_": 2212,
      "1023": 2213,
      "897": 2214,
      "ndx": 2215,
      "863": 2216,
      "742": 2217,
      "bfd_coff_": 2218,
      "992": 2219,
      "679": 2220,
      "display": 2221,
      "1018": 2222,
      "1556": 2223,
      "IN": 2224,
      "ms": 2225,
      "564": 2226,
      "660": 2227,
      "891": 2228,
      "then13": 2229,
      "save_": 2230,
      "510": 2231,
      "2335": 2232,
      "ec_": 2233,
      "2712": 2234,
      "of_": 2235,
      "735": 2236,
      "871": 2237,
      "942": 2238,
      "937": 2239,
      "879": 2240,
      "719": 2241,
      "1200": 2242,
      "632": 2243,
      "1440": 2244,
      "530": 2245,
      "1125": 2246,
      "824": 2247,
      "re_dfa_t": 2248,
      "rem": 2249,
      "622": 2250,
      "fro": 2251,
      "623": 2252,
      "1136": 2253,
      "bfd_coff_backend_data": 2254,
      "839": 2255,
      "627": 2256,
      "elf_segment_map": 2257,
      "CTYPE": 2258,
      "1078": 2259,
      "backedge": 2260,
      "950": 2261,
      "932": 2262,
      "bio": 2263,
      "883": 2264,
      "778": 2265,
      "919": 2266,
      "pe_tdata": 2267,
      "_list_": 2268,
      "d_make_": 2269,
      "926": 2270,
      "3554": 2271,
      "874": 2272,
      "lot": 2273,
      "i18": 2274,
      "725": 2275,
      "1532": 2276,
      "bfd_elf_version_": 2277,
      "935": 2278,
      "819": 2279,
      "_NL_CTYPE": 2280,
      "call10": 2281,
      "732": 2282,
      "977": 2283,
      "address": 2284,
      "d_printing": 2285,
      "_section_": 2286,
      "3555": 2287,
      "UN": 2288,
      "414": 2289,
      "2269": 2290,
      "929": 2291,
      "726": 2292,
      "midd": 2293,
      "middle": 2294,
      "628": 2295,
      "swap_": 2296,
      "762": 2297,
      "mark": 2298,
      "2234": 2299,
      "885": 2300,
      "i13": 2301,
      "1128": 2302,
      "638": 2303,
      "by_": 2304,
      "elf_obj_data": 2305,
      "902": 2306,
      "769": 2307,
      "array_type": 2308,
      "816": 2309,
      "mpt": 2310,
      "455": 2311,
      "3487": 2312,
      "then11": 2313,
      "MA": 2314,
      "664": 2315,
      "466": 2316,
      "736": 2317,
      "947": 2318,
      "max_": 2319,
      "467": 2320,
      "d_st": 2321,
      "curs": 2322,
      "niter": 2323,
      "process": 2324,
      "1657": 2325,
      "924": 2326,
      "1235": 2327,
      "539": 2328,
      "629": 2329,
      "syment": 2330,
      "5434": 2331,
      "991": 2332,
      "559": 2333,
      "ies": 2334,
      "1650": 2335,
      "2418": 2336,
      "892": 2337,
      "723": 2338,
      "call8": 2339,
      "1948": 2340,
      "620": 2341,
      "637": 2342,
      "i17": 2343,
      "an": 2344,
      "_frame": 2345,
      "sce": 2346,
      "954": 2347,
      "scev": 2348,
      "elf_property": 2349,
      "1070": 2350,
      "850": 2351,
      "1257": 2352,
      "none": 2353,
      "884": 2354,
      "737": 2355,
      "elf_strtab": 2356,
      "Elf": 2357,
      "770": 2358,
      "DW_OP_const": 2359,
      "_po": 2360,
      "959": 2361,
      "911": 2362,
      "903": 2363,
      "AB": 2364,
      "per_": 2365,
      ",+": 2366,
      "413": 2367,
      "615": 2368,
      "722": 2369,
      "Version": 2370,
      "1240": 2371,
      "834": 2372,
      "6569": 2373,
      "DW_TAG_array_type": 2374,
      "862": 2375,
      "2926": 2376,
      "add_": 2377,
      "DW_OP_constu": 2378,
      "1117": 2379,
      "end16": 2380,
      "ssl_": 2381,
      "614": 2382,
      "1259": 2383,
      "758": 2384,
      "1022": 2385,
      "854": 2386,
      "857": 2387,
      "neg": 2388,
      "835": 2389,
      "readnone": 2390,
      "1068": 2391,
      "**)*": 2392,
      "i38": 2393,
      "882": 2394,
      "coreutils": 2395,
      "814": 2396,
      "678": 2397,
      "964": 2398,
      "920": 2399,
      "27042": 2400,
      "1132": 2401,
      "1099": 2402,
      "scevgep": 2403,
      "4858": 2404,
      "isy": 2405,
      "1130": 2406,
      "lass": 2407,
      "2923": 2408,
      "10960": 2409,
      "1568": 2410,
      "TR": 2411,
      "1124": 2412,
      "761": 2413,
      "infla": 2414,
      "1140": 2415,
      "ciph": 2416,
      "848": 2417,
      "relent": 2418,
      "612": 2419,
      "1100": 2420,
      "dis386": 2421,
      "1127": 2422,
      "958": 2423,
      "968": 2424,
      "sse": 2425,
      "1134": 2426,
      "end3": 2427,
      "ter": 2428,
      "i2": 2429,
      "elf_backend_": 2430,
      "1177": 2431,
      "1154": 2432,
      "1464": 2433,
      "end18": 2434,
      "3488": 2435,
      "727": 2436,
      "valid": 2437,
      "1188": 2438,
      "empt": 2439,
      "961": 2440,
      "830": 2441,
      "last": 2442,
      "wit": 2443,
      "lon": 2444,
      "1249": 2445,
      "clo": 2446,
      "557": 2447,
      "1160": 2448,
      "aux": 2449,
      "7041": 2450,
      "813": 2451,
      "defaul": 2452,
      "860": 2453,
      "1400": 2454,
      "tobool1": 2455,
      "657": 2456,
      "lookup": 2457,
      "mbu": 2458,
      "533": 2459,
      "979": 2460,
      "false2": 2461,
      "930": 2462,
      "1578": 2463,
      "838": 2464,
      "2454": 2465,
      "i26": 2466,
      "1228": 2467,
      "argv": 2468,
      "copyload": 2469,
      "928": 2470,
      "_flags": 2471,
      "1178": 2472,
      "1234": 2473,
      "815": 2474,
      "que": 2475,
      "826": 2476,
      "1040": 2477,
      "825": 2478,
      "core_": 2479,
      "format": 2480,
      "sent": 2481,
      "win": 2482,
      "ref_": 2483,
      "1009": 2484,
      "_signed": 2485,
      "2244": 2486,
      "1920": 2487,
      "881": 2488,
      "2_": 2489,
      "1560": 2490,
      "616": 2491,
      "634": 2492,
      "1064": 2493,
      "IT": 2494,
      "613": 2495,
      "1028": 2496,
      "obj_attribute": 2497,
      "2270": 2498,
      "1190": 2499,
      "ptr_struct": 2500,
      "coff_ptr_struct": 2501,
      "i48": 2502,
      "927": 2503,
      "sec_merge": 2504,
      "948": 2505,
      "timespec": 2506,
      "1046": 2507,
      "635": 2508,
      "1034": 2509,
      "858": 2510,
      "eh_frame": 2511,
      "can": 2512,
      "817": 2513,
      "1150": 2514,
      "957": 2515,
      "2746": 2516,
      "cer": 2517,
      "find_": 2518,
      "1164": 2519,
      "ial_": 2520,
      "91745": 2521,
      "current": 2522,
      "2688": 2523,
      "829": 2524,
      "1258": 2525,
      "1300": 2526,
      "1148": 2527,
      "std": 2528,
      "969": 2529,
      "got": 2530,
      "1199": 2531,
      "4246": 2532,
      "1830": 2533,
      "747": 2534,
      "859": 2535,
      "1090": 2536,
      "_ft": 2537,
      "cmp14": 2538,
      "1900": 2539,
      "893": 2540,
      "1448": 2541,
      "ort": 2542,
      "975": 2543,
      "2121": 2544,
      "py_": 2545,
      "972": 2546,
      "456": 2547,
      "1198": 2548,
      "2318": 2549,
      "non_": 2550,
      "1227": 2551,
      "1618": 2552,
      "status": 2553,
      "ive": 2554,
      "1278": 2555,
      "1549": 2556,
      "868": 2557,
      "ange": 2558,
      "2426": 2559,
      "cr": 2560,
      "1359": 2561,
      "ea": 2562,
      "ls": 2563,
      "1037": 2564,
      "1969": 2565,
      "2399": 2566,
      "1517": 2567,
      "gp_offset": 2568,
      ")*),": 2569,
      "_NL_W": 2570,
      "925": 2571,
      "ip": 2572,
      "872": 2573,
      "unk": 2574,
      "gc_": 2575,
      "1614": 2576,
      "cmp12": 2577,
      "1529": 2578,
      "1080": 2579,
      "1924": 2580,
      "1350": 2581,
      "bfd_link_order": 2582,
      "MM": 2583,
      "840": 2584,
      "1890": 2585,
      "i34": 2586,
      "1057": 2587,
      "962": 2588,
      "flush_count": 2589,
      "626": 2590,
      "1629": 2591,
      "985": 2592,
      "1539": 2593,
      "_string": 2594,
      "1250": 2595,
      "temp": 2596,
      "1054": 2597,
      "_ftsent": 2598,
      "1169": 2599,
      "754": 2600,
      "alignment": 2601,
      "1129": 2602,
      "1534": 2603,
      "11911": 2604,
      "1157": 2605,
      "_GP": 2606,
      "827": 2607,
      "764": 2608,
      "978": 2609,
      "2049": 2610,
      "loc": 2611,
      "mpz": 2612,
      "call6": 2613,
      "1339": 2614,
      "DA": 2615,
      "1430": 2616,
      "1019": 2617,
      "1248": 2618,
      "7978": 2619,
      "memset": 2620,
      "quotearg_": 2621,
      "i22": 2622,
      "1724": 2623,
      "ju": 2624,
      "26512": 2625,
      "x509": 2626,
      "2360": 2627,
      "default_": 2628,
      "971": 2629,
      "1158": 2630,
      "mach": 2631,
      "\"%": 2632,
      "99228": 2633,
      "1368": 2634,
      "802": 2635,
      "33576": 2636,
      "4045": 2637,
      "970": 2638,
      "1964": 2639,
      "ic": 2640,
      "1557": 2641,
      "pp": 2642,
      "1370": 2643,
      "837": 2644,
      "4967": 2645,
      "1558": 2646,
      "i20": 2647,
      "call11": 2648,
      "nodes": 2649,
      "1027": 2650,
      "CR": 2651,
      "904": 2652,
      "1635": 2653,
      "hold": 2654,
      "then14": 2655,
      "entry1": 2656,
      "1268": 2657,
      "coff_link": 2658,
      "1214": 2659,
      "974": 2660,
      "740": 2661,
      "1309": 2662,
      "1049": 2663,
      "1827": 2664,
      "943": 2665,
      "989": 2666,
      "1520": 2667,
      "2249": 2668,
      "De": 2669,
      "767": 2670,
      "bytes": 2671,
      "1050": 2672,
      "1554": 2673,
      "1714": 2674,
      "fprintf": 2675,
      "1149": 2676,
      "5667": 2677,
      "quoting": 2678,
      "1239": 2679,
      "OR": 2680,
      "2200": 2681,
      "conv16": 2682,
      "fd": 2683,
      "i39": 2684,
      "lude": 2685,
      "sp": 2686,
      "1317": 2687,
      "1658": 2688,
      "bin_tree_storage": 2689,
      "elf_internal_versym": 2690,
      "bin_tree_storage_t": 2691,
      "914": 2692,
      "658": 2693,
      "844": 2694,
      "1318": 2695,
      "1030": 2696,
      "d_print_comp": 2697,
      "1628": 2698,
      "1378": 2699,
      "1137": 2700,
      "1229": 2701,
      "1079": 2702,
      "1700": 2703,
      "981": 2704,
      "1636": 2705,
      "1799": 2706,
      "1059": 2707,
      "1699": 2708,
      "1379": 2709,
      "tobool2": 2710,
      "1005": 2711,
      "used_": 2712,
      "variable": 2713,
      "1026": 2714,
      "1958": 2715,
      "1077": 2716,
      "1332": 2717,
      "command": 2718,
      "1180": 2719,
      "1480": 2720,
      "key_": 2721,
      "ory": 2722,
      "744": 2723,
      "1170": 2724,
      "1230": 2725,
      "1654": 2726,
      "1535": 2727,
      "PRE": 2728,
      "78478": 2729,
      "1039": 2730,
      "1800": 2731,
      "1524": 2732,
      "677": 2733,
      "973": 2734,
      "_IN": 2735,
      "_fin": 2736,
      "980": 2737,
      "1335": 2738,
      "debug_type": 2739,
      "1338": 2740,
      "1449": 2741,
      "1725": 2742,
      "1779": 2743,
      "1639": 2744,
      "width": 2745,
      "2150": 2746,
      "im": 2747,
      "1848": 2748,
      "1439": 2749,
      "parent": 2750,
      "line_": 2751,
      "1727": 2752,
      "end22": 2753,
      "1254": 2754,
      "1459": 2755,
      "1369": 2756,
      "1825": 2757,
      "1523": 2758,
      "archive_": 2759,
      "1660": 2760,
      "args": 2761,
      "TP": 2762,
      "877": 2763,
      "cook": 2764,
      "1388": 2765,
      "5422": 2766,
      "1637": 2767,
      "1429": 2768,
      "1460": 2769,
      "1126": 2770,
      "1599": 2771,
      "1419": 2772,
      "rl_": 2773,
      "1528": 2774,
      "F_": 2775,
      "1888": 2776,
      "1634": 2777,
      "slot": 2778,
      "1060": 2779,
      "1519": 2780,
      "*)*)(%": 2781,
      "1537": 2782,
      "654": 2783,
      "2000": 2784,
      "new_": 2785,
      "1497": 2786,
      "i29": 2787,
      "i30": 2788,
      "22337": 2789,
      "1036": 2790,
      "988": 2791,
      "10622": 2792,
      "1834": 2793,
      "1006": 2794,
      "1047": 2795,
      "1058": 2796,
      "!{!\"": 2797,
      "1527": 2798,
      "close": 2799,
      "1548": 2800,
      "1260": 2801,
      "multi": 2802,
      "needed": 2803,
      "sig": 2804,
      "next_": 2805,
      "1269": 2806,
      "ime": 2807,
      "i50": 2808,
      "bfd_hash_table": 2809,
      "923": 2810,
      "847": 2811,
      "1478": 2812,
      "FUN": 2813,
      "1279": 2814,
      "_in_": 2815,
      "4256": 2816,
      "1622": 2817,
      "__va": 2818,
      "1428": 2819,
      "1337": 2820,
      "1868": 2821,
      "cmp17": 2822,
      "_list_tag": 2823,
      "__va_list_tag": 2824,
      "2120": 2825,
      "1288": 2826,
      "1659": 2827,
      "1670": 2828,
      "1879": 2829,
      "v_": 2830,
      "1179": 2831,
      "1760": 2832,
      "1839": 2833,
      "1538": 2834,
      "2474": 2835,
      "1390": 2836,
      "16_": 2837,
      "1932": 2838,
      "1222": 2839,
      "_signed_": 2840,
      "1425": 2841,
      "4259": 2842,
      "ASN1_": 2843,
      "pc": 2844,
      "1735": 2845,
      "re_token": 2846,
      "983": 2847,
      "1869": 2848,
      "4791": 2849,
      "1138": 2850,
      "733": 2851,
      "re_token_t": 2852,
      "i27": 2853,
      "callbacks": 2854,
      "CH": 2855,
      "input_": 2856,
      "1959": 2857,
      "range": 2858,
      "cp": 2859,
      "24811": 2860,
      "1270": 2861,
      "1858": 2862,
      "1550": 2863,
      "1454": 2864,
      "1922": 2865,
      "1437": 2866,
      "2088": 2867,
      "746": 2868,
      "1589": 2869,
      "1470": 2870,
      "1348": 2871,
      "963": 2872,
      "1472": 2873,
      "1093": 2874,
      "1360": 2875,
      "recurs": 2876,
      "1688": 2877,
      "fe": 2878,
      "1928": 2879,
      "SE": 2880,
      "1264": 2881,
      "1029": 2882,
      "1826": 2883,
      "1999": 2884,
      "1495": 2885,
      "836": 2886,
      "self": 2887,
      "431": 2888,
      "1717": 2889,
      "from": 2890,
      "1856": 2891,
      "1828": 2892,
      "_re": 2893,
      "1123": 2894,
      "1224": 2895,
      "empty": 2896,
      "ERR_": 2897,
      "lf_": 2898,
      "__mpz": 2899,
      "1340": 2900,
      "obj_data": 2901,
      "1246": 2902,
      "i35": 2903,
      "__mpz_struct": 2904,
      "1679": 2905,
      "1624": 2906,
      "_offset": 2907,
      "1017": 2908,
      "1488": 2909,
      "SS": 2910,
      "then20": 2911,
      "call7": 2912,
      "1211": 2913,
      "5266": 2914,
      "659": 2915,
      "end19": 2916,
      "end25": 2917,
      "556": 2918,
      "wa": 2919,
      "_ci": 2920,
      "001": 2921,
      "re_string": 2922,
      "1840": 2923,
      "entries": 2924,
      "then19": 2925,
      "plug": 2926,
      "1358": 2927,
      "CTION": 2928,
      "1588": 2929,
      "1094": 2930,
      "1238": 2931,
      "re_string_t": 2932,
      "1490": 2933,
      "2248": 2934,
      "inflate_": 2935,
      "strcmp": 2936,
      "1468": 2937,
      "[%": 2938,
      "wc": 2939,
      "dwarf": 2940,
      "1089": 2941,
      "go": 2942,
      "2035": 2943,
      "2368": 2944,
      "2237": 2945,
      "ek": 2946,
      "1287": 2947,
      "1236": 2948,
      "1625": 2949,
      "free_": 2950,
      "link_info": 2951,
      "1640": 2952,
      "KE": 2953,
      "1450": 2954,
      "1768": 2955,
      "1189": 2956,
      "1925": 2957,
      "1939": 2958,
      "debug_type_s": 2959,
      "then15": 2960,
      "1380": 2961,
      "sizeof_": 2962,
      "1757": 2963,
      "argp": 2964,
      "656": 2965,
      ")*)(%": 2966,
      "1364": 2967,
      "10637": 2968,
      "then17": 2969,
      "em": 2970,
      "1176": 2971,
      "944": 2972,
      "1349": 2973,
      "oll": 2974,
      "errno": 2975,
      "argp_option": 2976,
      "3027": 2977,
      "wer": 2978,
      "1357": 2979,
      "1968": 2980,
      "exitcond": 2981,
      "1424": 2982,
      "recursion": 2983,
      "DS": 2984,
      "995": 2985,
      "1420": 2986,
      "_GPoll": 2987,
      "bio_st": 2988,
      "1479": 2989,
      "exte": 2990,
      "1220": 2991,
      "1882": 2992,
      "xtra": 2993,
      "1530": 2994,
      "1726": 2995,
      "realloc": 2996,
      "916": 2997,
      "1780": 2998,
      "end24": 2999,
      "sroa_idx": 3000,
      "1525": 3001,
      "copy_": 3002,
      "2378": 3003,
      "path": 3004,
      "2132": 3005,
      "buf_": 3006,
      "evp_pkey_st": 3007,
      "end21": 3008,
      "1790": 3009,
      "1950": 3010,
      "1829": 3011,
      "evp_ciph": 3012,
      "by_bfd": 3013,
      "used_by_bfd": 3014,
      "cmp16": 3015,
      "1330": 3016,
      "unlock": 3017,
      "cookie": 3018,
      "1122": 3019,
      "1377": 3020,
      "1212": 3021,
      "4294967": 3022,
      "1579": 3023,
      "667": 3024,
      "1139": 3025,
      "1929": 3026,
      "1196": 3027,
      "1668": 3028,
      "i54": 3029,
      "bfd_putx": 3030,
      "2359": 3031,
      "1935": 3032,
      "76011": 3033,
      "c_and_": 3034,
      "cor": 3035,
      "1854": 3036,
      "1878": 3037,
      "bfd_h_putx32": 3038,
      "ehdr": 3039,
      "relent_chain": 3040,
      "inflate_state": 3041,
      "List": 3042,
      "have": 3043,
      "bfd_get": 3044,
      "822": 3045,
      "1232": 3046,
      "1632": 3047,
      "1864": 3048,
      "pending": 3049,
      "755": 3050,
      "prof": 3051,
      "1056": 3052,
      "1237": 3053,
      "1778": 3054,
      "1850": 3055,
      "1457": 3056,
      "xtraiter": 3057,
      "2267": 3058,
      "1630": 3059,
      "fts_": 3060,
      "1899": 3061,
      "1754": 3062,
      "1045": 3063,
      "1824": 3064,
      "1978": 3065,
      "1015": 3066,
      "_GO": 3067,
      "has_": 3068,
      "1857": 3069,
      "1667": 3070,
      "opa": 3071,
      "opaque": 3072,
      "1334": 3073,
      "1740": 3074,
      "756": 3075,
      "1678": 3076,
      "Re": 3077,
      "1205": 3078,
      "1389": 3079,
      "1434": 3080,
      "2400": 3081,
      "1930": 3082,
      "1677": 3083,
      "2558": 3084,
      "1354": 3085,
      "2334": 3086,
      "1749": 3087,
      "one": 3088,
      "867": 3089,
      "Elf_": 3090,
      "TT": 3091,
      "the": 3092,
      "2379": 3093,
      "1739": 3094,
      "1870": 3095,
      "32299": 3096,
      "26500": 3097,
      "car": 3098,
      "2227": 3099,
      "1055": 3100,
      "1844": 3101,
      "handler": 3102,
      "isym": 3103,
      "i49": 3104,
      "i28": 3105,
      "1320": 3106,
      "2257": 3107,
      "1627": 3108,
      "1949": 3109,
      "point": 3110,
      "2057": 3111,
      "1208": 3112,
      "1438": 3113,
      "2320": 3114,
      "pn": 3115,
      "then18": 3116,
      "our": 3117,
      "11030": 3118,
      "1764": 3119,
      "1167": 3120,
      "2259": 3121,
      "md_": 3122,
      "1469": 3123,
      "ld": 3124,
      "string_st": 3125,
      "1008": 3126,
      "cmp13": 3127,
      "1938": 3128,
      "1758": 3129,
      "1940": 3130,
      "2450": 3131,
      "1209": 3132,
      "strm": 3133,
      "2337": 3134,
      "2339": 3135,
      "1226": 3136,
      "1477": 3137,
      "LL": 3138,
      "1166": 3139,
      "FUNCTION": 3140,
      "2190": 3141,
      "3159": 3142,
      "word_list": 3143,
      "end23": 3144,
      "1066": 3145,
      "1435": 3146,
      "FD": 3147,
      "1730": 3148,
      "X_": 3149,
      "1970": 3150,
      "1315": 3151,
      "context_t": 3152,
      "1427": 3153,
      "fra": 3154,
      "1737": 3155,
      "1788": 3156,
      "856": 3157,
      "1669": 3158,
      "print_": 3159,
      "conv19": 3160,
      "2440": 3161,
      "2080": 3162,
      "2028": 3163,
      "ide_": 3164,
      "TTY_": 3165,
      "PRETTY_": 3166,
      "__PRETTY_": 3167,
      "FUNCTION__": 3168,
      "__PRETTY_FUNCTION__": 3169,
      "1569": 3170,
      "minus": 3171,
      "2439": 3172,
      "asn1_string_st": 3173,
      "words": 3174,
      "_NL_CTYPE_": 3175,
      "846": 3176,
      "2348": 3177,
      "_statement": 3178,
      "hex": 3179,
      "1832": 3180,
      "2370": 3181,
      "in_mem": 3182,
      "unlocked": 3183,
      "1436": 3184,
      "2265": 3185,
      "ele": 3186,
      "1044": 3187,
      "DW_OP_minus": 3188,
      "2559": 3189,
      "1084": 3190,
      "2070": 3191,
      "2560": 3192,
      "945": 3193,
      "then16": 3194,
      "window": 3195,
      "1612": 3196,
      "2438": 3197,
      "2268": 3198,
      "11058": 3199,
      "1308": 3200,
      "433": 3201,
      "quoting_style": 3202,
      "71896": 3203,
      "811": 3204,
      "915": 3205,
      "1769": 3206,
      "993": 3207,
      "bucket_": 3208,
      "1732": 3209,
      "1087": 3210,
      "1619": 3211,
      "1860": 3212,
      "d_make_empty": 3213,
      "967": 3214,
      "1889": 3215,
      "TLS": 3216,
      "2428": 3217,
      "2079": 3218,
      "71695": 3219,
      "1432": 3220,
      "2030": 3221,
      "1336": 3222,
      "845": 3223,
      "1835": 3224,
      "2254": 3225,
      "Un": 3226,
      "2038": 3227,
      "1207": 3228,
      "71302": 3229,
      "HI": 3230,
      "2160": 3231,
      "end27": 3232,
      "2619": 3233,
      "_init": 3234,
      "_error": 3235,
      "1397": 3236,
      "71320": 3237,
      "end26": 3238,
      "2058": 3239,
      "2170": 3240,
      "2354": 3241,
      "69568": 3242,
      "1197": 3243,
      "1487": 3244,
      "1748": 3245,
      "2448": 3246,
      "1474": 3247,
      "1147": 3248,
      "1415": 3249,
      "1838": 3250,
      "1225": 3251,
      "2064": 3252,
      "1399": 3253,
      "1297": 3254,
      "69603": 3255,
      "1065": 3256,
      "1187": 3257,
      "70221": 3258,
      "1206": 3259,
      "1722": 3260,
      "1458": 3261,
      "1319": 3262,
      "631": 3263,
      "4268": 3264,
      "old": 3265,
      "ncmp": 3266,
      "922": 3267,
      "1723": 3268,
      "check_": 3269,
      "method_st": 3270,
      "946": 3271,
      "symcount": 3272,
      "]*),": 3273,
      "su": 3274,
      ")\\": 3275,
      "1289": 3276,
      "first": 3277,
      "i36": 3278,
      "1997": 3279,
      "bucket": 3280,
      "1988": 3281,
      "1590": 3282,
      "1290": 3283,
      "1666": 3284,
      "1966": 3285,
      "2110": 3286,
      "2025": 3287,
      "layout": 3288,
      "2449": 3289,
      "2464": 3290,
      "987": 3291,
      "ST": 3292,
      "2068": 3293,
      "2458": 3294,
      "_IMM": 3295,
      "1729": 3296,
      "output_bfd": 3297,
      "3028": 3298,
      "1734": 3299,
      "2340": 3300,
      "7296": 3301,
      "2140": 3302,
      "1789": 3303,
      "1244": 3304,
      "1738": 3305,
      "956": 3306,
      "2078": 3307,
      ")**": 3308,
      "symbols": 3309,
      "3030": 3310,
      "2032": 3311,
      "dwarf_": 3312,
      "ort_": 3313,
      "mangled": 3314,
      "1980": 3315,
      "1809": 3316,
      "_GPollFD": 3317,
      "1447": 3318,
      "special_": 3319,
      "765": 3320,
      "1409": 3321,
      "1095": 3322,
      "ate": 3323,
      "1526": 3324,
      "ull": 3325,
      "1849": 3326,
      "1096": 3327,
      "2226": 3328,
      "2435": 3329,
      "internal_syment": 3330,
      "1750": 3331,
      "866": 3332,
      "MB": 3333,
      "attributes": 3334,
      "1686": 3335,
      "1489": 3336,
      "1144": 3337,
      "fde": 3338,
      "1926": 3339,
      "2059": 3340,
      "7946": 3341,
      "2469": 3342,
      "end28": 3343,
      "1113": 3344,
      "1426": 3345,
      "_compat": 3346,
      "2087": 3347,
      "1837": 3348,
      "1422": 3349,
      "ix": 3350,
      "2460": 3351,
      "1690": 3352,
      "1597": 3353,
      "entsize": 3354,
      "PR": 3355,
      "LAN": 3356,
      "2349": 3357,
      "word": 3358,
      "line_info": 3359,
      "1759": 3360,
      "EX": 3361,
      "end34": 3362,
      "OFF": 3363,
      "3046": 3364,
      "1509": 3365,
      "610": 3366,
      "1504": 3367,
      "2457": 3368,
      "CREL": 3369,
      "1203": 3370,
      "10625": 3371,
      "005": 3372,
      "731": 3373,
      "external_": 3374,
      "ptr25": 3375,
      "1680": 3376,
      "2260": 3377,
      "ALT": 3378,
      "2099": 3379,
      "1960": 3380,
      "3_": 3381,
      "984": 3382,
      "b128": 3383,
      "1098": 3384,
      "sym_": 3385,
      "2069": 3386,
      "1937": 3387,
      "bfd_h_getx32": 3388,
      "bin": 3389,
      "1909": 3390,
      "_unit": 3391,
      "1913": 3392,
      "1836": 3393,
      "bk": 3394,
      "ct_data": 3395,
      "1927": 3396,
      "1223": 3397,
      "obstack": 3398,
      "1736": 3399,
      "2470": 3400,
      "2054": 3401,
      "966": 3402,
      "1885": 3403,
      "2060": 3404,
      "1580": 3405,
      "_func": 3406,
      "bs": 3407,
      "1522": 3408,
      "0000": 3409,
      "1656": 3410,
      "1609": 3411,
      "2330": 3412,
      "1956": 3413,
      "810": 3414,
      "call12": 3415,
      "coff_section": 3416,
      "2139": 3417,
      "LANG_": 3418,
      "1689": 3419,
      "2238": 3420,
      "evp_pkey_": 3421,
      "call9": 3422,
      "1954": 3423,
      "Debug": 3424,
      "2258": 3425,
      "link_": 3426,
      "1608": 3427,
      "untime": 3428,
      "1491": 3429,
      "1979": 3430,
      "bb3": 3431,
      "i44": 3432,
      "indx": 3433,
      "hig": 3434,
      "1598": 3435,
      "shell_quote": 3436,
      "1184": 3437,
      "ize_": 3438,
      "action": 3439,
      "1012": 3440,
      "2024": 3441,
      "bbre": 3442,
      "runtime": 3443,
      "1859": 3444,
      "sub15": 3445,
      "1367": 3446,
      "2388": 3447,
      "style": 3448,
      "clang": 3449,
      "relax_": 3450,
      "first_": 3451,
      "abbre": 3452,
      "c_and_shell_quote": 3453,
      "c_and_shell_quote_compat": 3454,
      "1887": 3455,
      "M_": 3456,
      "1467": 3457,
      "dyn_": 3458,
      "2228": 3459,
      "dica": 3460,
      "1376": 3461,
      "cmp18": 3462,
      "521": 3463,
      "cl": 3464,
      "cache": 3465,
      "_bfd_get_": 3466,
      "2037": 3467,
      "2180": 3468,
      "slotvec": 3469,
      "955": 3470,
      "signed": 3471,
      "1880": 3472,
      "_fragment": 3473,
      "exact": 3474,
      "common": 3475,
      "ook": 3476,
      "ums": 3477,
      "1115": 3478,
      "2225": 3479,
      "sect": 3480,
      "1912": 3481,
      "1195": 3482,
      "2358": 3483,
      "gid": 3484,
      "2278": 3485,
      "1307": 3486,
      "1498": 3487,
      "1936": 3488,
      "X509_": 3489,
      "2236": 3490,
      "then24": 3491,
      "865": 3492,
      "d_print_": 3493,
      "2279": 3494,
      "Unit": 3495,
      "2029": 3496,
      "2754": 3497,
      "ib": 3498,
      "2380": 3499,
      "found": 3500,
      "1767": 3501,
      "_power": 3502,
      "output_offset": 3503,
      "2430": 3504,
      "2377": 3505,
      "2039": 3506,
      "ule": 3507,
      "demangle_": 3508,
      "1684": 3509,
      "1204": 3510,
      "emi": 3511,
      "1957": 3512,
      "in_reg": 3513,
      "1874": 3514,
      "bfd_set_": 3515,
      "p6": 3516,
      "1884": 3517,
      "\"./": 3518,
      "1298": 3519,
      "1594": 3520,
      "include": 3521,
      "1051": 3522,
      "2288": 3523,
      "conv7": 3524,
      "abo": 3525,
      "2336": 3526,
      "2034": 3527,
      "i57": 3528,
      "1394": 3529,
      "2090": 3530,
      "2386": 3531,
      "_bfd_coff_": 3532,
      "VM": 3533,
      "sec_info": 3534,
      "2050": 3535,
      "chil": 3536,
      "1587": 3537,
      "crea": 3538,
      "1847": 3539,
      "2338": 3540,
      "coff_section_tdata": 3541,
      "2429": 3542,
      "_bfd_generic_": 3543,
      "1284": 3544,
      "1384": 3545,
      "rpl_free": 3546,
      "function": 3547,
      "2409": 3548,
      "2436": 3549,
      "_IO_write": 3550,
      "1256": 3551,
      "Size": 3552,
      "TI": 3553,
      "pat": 3554,
      "DIGIT": 3555,
      "lazy_plt_": 3556,
      "pad": 3557,
      "1546": 3558,
      "2364": 3559,
      "2108": 3560,
      "1989": 3561,
      "1074": 3562,
      "ALTMON_": 3563,
      "1304": 3564,
      "1792": 3565,
      "conv2": 3566,
      "i58": 3567,
      "funcinfo": 3568,
      "2209": 3569,
      "_fai": 3570,
      "hol_entry": 3571,
      "976": 3572,
      "abort": 3573,
      "1709": 3574,
      "_fro": 3575,
      "2369": 3576,
      "symbol_type": 3577,
      "xmalloc": 3578,
      "1007": 3579,
      "1267": 3580,
      "1033": 3581,
      "change": 3582,
      "1984": 3583,
      "2130": 3584,
      "2027": 3585,
      "1494": 3586,
      "DW_OP_LL": 3587,
      "VM_fragment": 3588,
      "DW_OP_LLVM_fragment": 3589,
      "re_match_": 3590,
      "1285": 3591,
      "1455": 3592,
      "reloc_count": 3593,
      "3139": 3594,
      "1461": 3595,
      "1404": 3596,
      "2768": 3597,
      "re_match_context_t": 3598,
      "4294967295": 3599,
      "1266": 3600,
      "float": 3601,
      "2357": 3602,
      "usr": 3603,
      "ou": 3604,
      "_sa": 3605,
      "arch_": 3606,
      "2444": 3607,
      "1770": 3608,
      "late": 3609,
      "2564": 3610,
      "relat": 3611,
      "beg": 3612,
      "old_": 3613,
      "1607": 3614,
      "1456": 3615,
      "2040": 3616,
      "711": 3617,
      "call15": 3618,
      "_core_": 3619,
      "encod": 3620,
      "2089": 3621,
      "_location": 3622,
      "1744": 3623,
      "do_": 3624,
      "AD": 3625,
      "2437": 3626,
      "1577": 3627,
      "933": 3628,
      "class": 3629,
      "2570": 3630,
      "ere": 3631,
      "1466": 3632,
      "2434": 3633,
      "mul17": 3634,
      "986": 3635,
      "DW_LANG_": 3636,
      "2635": 3637,
      "shif": 3638,
      "1387": 3639,
      "imp": 3640,
      "912": 3641,
      "fix": 3642,
      "got_": 3643,
      "1934": 3644,
      "4254": 3645,
      "then21": 3646,
      "Full": 3647,
      "2387": 3648,
      "uage": 3649,
      "753": 3650,
      "1615": 3651,
      "1194": 3652,
      "1097": 3653,
      "produ": 3654,
      "TLS_": 3655,
      "symbol_": 3656,
      "extend": 3657,
      "421": 3658,
      "init_": 3659,
      "lazy_plt_layout": 3660,
      "loca": 3661,
      "2036": 3662,
      "1904": 3663,
      "dge": 3664,
      "1907": 3665,
      "1444": 3666,
      "language": 3667,
      "2290": 3668,
      "2731": 3669,
      "cmp19": 3670,
      "IP": 3671,
      "bfd_elf_version_tree": 3672,
      "canon": 3673,
      "1687": 3674,
      "ct_data_s": 3675,
      "stab_": 3676,
      "crite": 3677,
      "critedge": 3678,
      "producer": 3679,
      "1118": 3680,
      "bfd_getx32": 3681,
      "ashr": 3682,
      "1947": 3683,
      "1990": 3684,
      "1076": 3685,
      "exe": 3686,
      "VAL": 3687,
      "2112": 3688,
      "extract": 3689,
      "compre": 3690,
      "end31": 3691,
      "633": 3692,
      "C99": 3693,
      "errno_location": 3694,
      "965": 3695,
      "__errno_location": 3696,
      "Kind": 3697,
      "ved_": 3698,
      "1544": 3699,
      "DW_LANG_C99": 3700,
      "i47": 3701,
      "ileUnit": 3702,
      "enums": 3703,
      "ssionKind": 3704,
      "DICompileUnit": 3705,
      "runtimeVersion": 3706,
      "emissionKind": 3707,
      "FullDebug": 3708,
      "1567": 3709,
      "rpl_": 3710,
      "4096": 3711,
      "1698": 3712,
      "91779": 3713,
      "_d": 3714,
      "1665": 3715,
      "1101": 3716,
      "1277": 3717,
      "2277": 3718,
      "ignore": 3719,
      "2235": 3720,
      "i128": 3721,
      "1305": 3722,
      "1398": 3723,
      "1306": 3724,
      "_C": 3725,
      "4257": 3726,
      "bfd_set_error": 3727,
      "1547": 3728,
      "sre": 3729,
      "1053": 3730,
      "built": 3731,
      "end35": 3732,
      "_GS": 3733,
      "DW_A": 3734,
      "2047": 3735,
      "dev": 3736,
      "_start": 3737,
      "10542": 3738,
      "elf_property_list": 3739,
      "2447": 3740,
      "1086": 3741,
      "1475": 3742,
      "i59": 3743,
      "1247": 3744,
      "1555": 3745,
      "78281": 3746,
      "2067": 3747,
      "canonical": 3748,
      "adju": 3749,
      "1366": 3750,
      "2459": 3751,
      "1356": 3752,
      "prime": 3753,
      "_SC_": 3754,
      "1583": 3755,
      "1386": 3756,
      "input_bfd": 3757,
      "1507": 3758,
      "1145": 3759,
      "sroa_": 3760,
      "1043": 3761,
      "2389": 3762,
      "bfd_link_callbacks": 3763,
      "layer": 3764,
      "BFD_RELOC_M": 3765,
      "shndx": 3766,
      "1694": 3767,
      "1374": 3768,
      "2425": 3769,
      "1944": 3770,
      "sha": 3771,
      "sign": 3772,
      "call14": 3773,
      "coff_obj_data": 3774,
      "special_section": 3775,
      "er_ctx_st": 3776,
      "2427": 3777,
      "relocation": 3778,
      "wd": 3779,
      "}]*": 3780,
      "1156": 3781,
      "1897": 3782,
      "call20": 3783,
      "1908": 3784,
      "str_": 3785,
      "elf_x86_64_": 3786,
      "710": 3787,
      "call13": 3788,
      "abbrev": 3789,
      "1798": 3790,
      "009": 3791,
      "end29": 3792,
      "nat": 3793,
      "fl": 3794,
      "die": 3795,
      "psinfo": 3796,
      "1192": 3797,
      "1506": 3798,
      "1146": 3799,
      "warn": 3800,
      "vd_": 3801,
      "upper_": 3802,
      "1217": 3803,
      "elf_x86_link": 3804,
      "2097": 3805,
      "2390": 3806,
      "1697": 3807,
      "1645": 3808,
      "plit_": 3809,
      "1496": 3810,
      "BFD_RELOC_S": 3811,
      "sroa_cast": 3812,
      "2588": 3813,
      "2490": 3814,
      "2026": 3815,
      "1303": 3816,
      "_next": 3817,
      "_to": 3818,
      "1508": 3819,
      "1275": 3820,
      "1676": 3821,
      "tobool3": 3822,
      "1175": 3823,
      "archive": 3824,
      "ptr29": 3825,
      "canonicalize_": 3826,
      "2589": 3827,
      "1604": 3828,
      "A_": 3829,
      "_from_": 3830,
      "1407": 3831,
      "build_": 3832,
      "relax_table": 3833,
      "ifi": 3834,
      "direct": 3835,
      "coff_link_hash_entry": 3836,
      "1873": 3837,
      "output_elf_obj_tdata": 3838,
      "2076": 3839,
      "1075": 3840,
      "1A": 3841,
      "1877": 3842,
      "cmp15": 3843,
      "tm": 3844,
      "r_info": 3845,
      "\"\\": 3846,
      "elfcore_": 3847,
      "5017": 3848,
      "last_char": 3849,
      "19967": 3850,
      "iter_": 3851,
      "UE": 3852,
      "1606": 3853,
      "_core": 3854,
      "1346": 3855,
      "TILE": 3856,
      "error_handler": 3857,
      "1747": 3858,
      "2551": 3859,
      "then1": 3860,
      "1219": 3861,
      "outer_": 3862,
      "2552": 3863,
      "_header": 3864,
      "able": 3865,
      "1696": 3866,
      "elf_reloc_": 3867,
      "25000": 3868,
      "2857": 3869,
      "evp_cipher_ctx_st": 3870,
      "elf_strtab_hash_entry": 3871,
      "853": 3872,
      "1777": 3873,
      "2100": 3874,
      "2752": 3875,
      "1977": 3876,
      "tm_": 3877,
      "2304": 3878,
      "rsrc_directory": 3879,
      "2500": 3880,
      ".\\": 3881,
      "1685": 3882,
      "nore": 3883,
      "Of": 3884,
      "1155": 3885,
      "1787": 3886,
      "2009": 3887,
      "shift": 3888,
      "1396": 3889,
      "then28": 3890,
      "dest": 3891,
      "pe_": 3892,
      "prpsinfo": 3893,
      "Elf32_": 3894,
      "1818": 3895,
      "EV": 3896,
      "Elf32_External_": 3897,
      "_core_file": 3898,
      "prote": 3899,
      "BFD_RELOC_N": 3900,
      "64_External_": 3901,
      "Elf64_External_": 3902,
      "812": 3903,
      "sn": 3904,
      "E_": 3905,
      "1674": 3906,
      "21251": 3907,
      "1708": 3908,
      "1465": 3909,
      "2007": 3910,
      "1105": 3911,
      "1695": 3912,
      "19968": 3913,
      "1596": 3914,
      "comp_unit": 3915,
      "low": 3916,
      "22387": 3917,
      "1347": 3918,
      "position": 3919,
      "obj_attribute_list": 3920,
      "2266": 3921,
      "1808": 3922,
      "printf_": 3923,
      "with_": 3924,
      "1655": 3925,
      "1274": 3926,
      "lang_": 3927,
      "2289": 3928,
      "vas": 3929,
      "i60": 3930,
      "OU": 3931,
      "2344": 3932,
      "952": 3933,
      "24568": 3934,
      "case": 3935,
      "lust": 3936,
      "then22": 3937,
      "21759": 3938,
      "1987": 3939,
      "end33": 3940,
      "951": 3941,
      "1385": 3942,
      "1476": 3943,
      "2408": 3944,
      "cmp22": 3945,
      "29878": 3946,
      "45870": 3947,
      "54626": 3948,
      "nsub": 3949,
      "AME": 3950,
      "1603": 3951,
      "2860": 3952,
      "5754": 3953,
      "tobool4": 3954,
      "EVP_": 3955,
      "set_t": 3956,
      "1518": 3957,
      "1042": 3958,
      "2309": 3959,
      "method": 3960,
      "1294": 3961,
      "2308": 3962,
      "bfd_elf_special_section": 3963,
      "1165": 3964,
      "1085": 3965,
      "chunk": 3966,
      "1617": 3967,
      "1807": 3968,
      "76658": 3969,
      "end30": 3970,
      "ved": 3971,
      "5192": 3972,
      "1551": 3973,
      "word_desc": 3974,
      "fput": 3975,
      "tv_": 3976,
      "high": 3977,
      "1867": 3978,
      "_core_data": 3979,
      "752": 3980,
      "1353": 3981,
      "1446": 3982,
      "upper_bound": 3983,
      "long": 3984,
      "1153": 3985,
      "sed": 3986,
      "VALUE": 3987,
      "BFD_RELOC_TILE": 3988,
      "1375": 3989,
      "zeroext": 3990,
      "833": 3991,
      "2456": 3992,
      "i45": 3993,
      "cmp20": 3994,
      "_NL": 3995,
      "coff_symbol": 3996,
      "ir": 3997,
      "1296": 3998,
      "_hook": 3999,
      "2247": 4000,
      "2468": 4001,
      "arange": 4002,
      "canvas": 4003,
      "gnu_": 4004,
      "open": 4005,
      "1286": 4006,
      "alignment_power": 4007,
      "1755": 4008,
      "_filepos": 4009,
      "1623": 4010,
      "1486": 4011,
      "srec_": 4012,
      "2719": 4013,
      "1894": 4014,
      "852": 4015,
      "4264": 4016,
      "tota": 4017,
      "1365": 4018,
      "1265": 4019,
      "end69": 4020,
      "2844": 4021,
      "1082": 4022,
      "fs": 4023,
      "1586": 4024,
      "chk": 4025,
      "parse_": 4026,
      "In": 4027,
      "dyn_relocs": 4028,
      "1967": 4029,
      "coff_symbol_struct": 4030,
      "11292": 4031,
      "1173": 4032,
      "then25": 4033,
      "conf": 4034,
      "assert": 4035,
      "1133": 4036,
      "1917": 4037,
      "vaddr": 4038,
      "2176": 4039,
      "sla": 4040,
      "99135": 4041,
      "et": 4042,
      "child": 4043,
      "end37": 4044,
      "*]*": 4045,
      "2805": 4046,
      "253997": 4047,
      "1185": 4048,
      "028": 4049,
      "ted_": 4050,
      "1605": 4051,
      "1796": 4052,
      "_bfd_error_handler": 4053,
      "vour": 4054,
      "2305": 4055,
      "_section_contents": 4056,
      "2008": 4057,
      "call16": 4058,
      "1063": 4059,
      "end2": 4060,
      "sec_merge_hash_entry": 4061,
      "002": 4062,
      "1545": 4063,
      "1574": 4064,
      "end32": 4065,
      "lcmp": 4066,
      "5477": 4067,
      "1245": 4068,
      "iter_multi": 4069,
      "uleb128": 4070,
      "bfd_assert": 4071,
      "1706": 4072,
      "xt_": 4073,
      "PA": 4074,
      "flg": 4075,
      "5740": 4076,
      "sh_size": 4077,
      "2022": 4078,
      "memory": 4079,
      "TEM": 4080,
      "1345": 4081,
      "2044": 4082,
      "elf_strtab_hash": 4083,
      "2479": 4084,
      "2453": 4085,
      "thdr": 4086,
      "cnt": 4087,
      "2550": 4088,
      "builtin": 4089,
      "refcount": 4090,
      "internal_reloc": 4091,
      "_mp": 4092,
      "end38": 4093,
      "1218": 4094,
      "1423": 4095,
      "2056": 4096,
      "65535": 4097,
      "with": 4098,
      "2098": 4099,
      "1566": 4100,
      "1675": 4101,
      "1083": 4102,
      "1295": 4103,
      "1417": 4104,
      "2298": 4105,
      "wea": 4106,
      "weak": 4107,
      "953": 4108,
      "ch_": 4109,
      "names": 4110,
      "3462": 4111,
      "3463": 4112,
      "1576": 4113,
      "ive_": 4114,
      "1592": 4115,
      "1896": 4116,
      "1898": 4117,
      "2556": 4118,
      "1484": 4119,
      "2363": 4120,
      "i46": 4121,
      "2700": 4122,
      "YY": 4123,
      "_cur": 4124,
      "_cie_": 4125,
      "2077": 4126,
      "p1": 4127,
      "1846": 4128,
      "76012": 4129,
      "1707": 4130,
      "ase": 4131,
      "1013": 4132,
      "1011": 4133,
      "encoding": 4134,
      "1886": 4135,
      "end56": 4136,
      "1895": 4137,
      "_cie_fde": 4138,
      "*],": 4139,
      "overflow": 4140,
      "pk": 4141,
      "end43": 4142,
      "contr": 4143,
      "_sig": 4144,
      "1213": 4145,
      "1853": 4146,
      "LF_": 4147,
      "2554": 4148,
      "owner": 4149,
      "2407": 4150,
      "flavour": 4151,
      "2749": 4152,
      "luster": 4153,
      "control": 4154,
      "2294": 4155,
      "_bfd_x86_": 4156,
      "1505": 4157,
      "_out": 4158,
      "m_s": 4159,
      "dig": 4160,
      "2253": 4161,
      "1255": 4162,
      "its": 4163,
      "1276": 4164,
      "1514": 4165,
      "lobit": 4166,
      "2716": 4167,
      "2366": 4168,
      "2664": 4169,
      "evp_pkey_ctx_st": 4170,
      "1591": 4171,
      "1866": 4172,
      "1704": 4173,
      "raw_": 4174,
      "4766": 4175,
      "2764": 4176,
      "reloca": 4177,
      "gc_mark": 4178,
      "1322": 4179,
      "bfd_h_putx16": 4180,
      "tt": 4181,
      "copy_private": 4182,
      "Sta": 4183,
      "2577": 4184,
      "1143": 4185,
      "end39": 4186,
      "2679": 4187,
      "i68": 4188,
      "1795": 4189,
      "2208": 4190,
      "2544": 4191,
      "intto": 4192,
      "2398": 4193,
      "2147": 4194,
      "BFD_RELOC_AR": 4195,
      "5431": 4196,
      "1114": 4197,
      "006": 4198,
      "1784": 4199,
      "2599": 4200,
      "1919": 4201,
      "end50": 4202,
      "1182": 4203,
      "elf_dyn_relocs": 4204,
      "sec_flg": 4205,
      "1756": 4206,
      "elf_symbol_type": 4207,
      "vel": 4208,
      "2274": 4209,
      "end40": 4210,
      "Elf_External_": 4211,
      "sc": 4212,
      "17732": 4213,
      "ARCH": 4214,
      "of": 4215,
      "relative": 4216,
      "EN": 4217,
      "1774": 4218,
      "2374": 4219,
      "overflow_arg_area_p": 4220,
      "2082": 4221,
      "ls_": 4222,
      "then38": 4223,
      "PT": 4224,
      "_statement_struct": 4225,
      "inttoptr": 4226,
      "orl": 4227,
      "2384": 4228,
      "008": 4229,
      "1998": 4230,
      "2287": 4231,
      "2385": 4232,
      "2307": 4233,
      "2557": 4234,
      "group_": 4235,
      "2003": 4236,
      "Ehdr": 4237,
      "lat": 4238,
      "2548": 4239,
      "093": 4240,
      "1584": 4241,
      "2549": 4242,
      "outer": 4243,
      "2489": 4244,
      "i232": 4245,
      "are": 4246,
      "4688": 4247,
      "1313": 4248,
      "here": 4249,
      "2815": 4250,
      "sh_prom": 4251,
      "2376": 4252,
      "5890": 4253,
      "ar_hdr": 4254,
      "1794": 4255,
      "1406": 4256,
      "section_list": 4257,
      "dynamic": 4258,
      "mm": 4259,
      "1163": 4260,
      "eh_cie_fde": 4261,
      "targ": 4262,
      "2446": 4263,
      "1485": 4264,
      "1819": 4265,
      "1001": 4266,
      "infomap": 4267,
      "2128": 4268,
      "elems": 4269,
      "2297": 4270,
      "2535": 4271,
      "cmp23": 4272,
      "004": 4273,
      "1116": 4274,
      "r_offset": 4275,
      "2020": 4276,
      "a_": 4277,
      "621": 4278,
      "_function": 4279,
      "IC": 4280,
      "high_": 4281,
      "bss": 4282,
      "2406": 4283,
      "hol_c": 4284,
      "1463": 4285,
      "1845": 4286,
      "20368": 4287,
      "al_link_info": 4288,
      "913": 4289,
      "est": 4290,
      "EP": 4291,
      "end36": 4292,
      "1905": 4293,
      "1643": 4294,
      "ibfd": 4295,
      "call18": 4296,
      "d_section": 4297,
      "2256": 4298,
      "then23": 4299,
      "elf_link_": 4300,
      "3669": 4301,
      "_bfd_st": 4302,
      "elf_reloc_cookie": 4303,
      "982": 4304,
      "1103": 4305,
      "027": 4306,
      "1806": 4307,
      "flag_info": 4308,
      "1955": 4309,
      "2367": 4310,
      "stdout": 4311,
      "bytes_": 4312,
      "other": 4313,
      "1575": 4314,
      "BFD_RELOC_A": 4315,
      "yyval": 4316,
      "next_comp": 4317,
      "5164": 4318,
      "1705": 4319,
      "eng": 4320,
      "ers": 4321,
      "_key": 4322,
      "rp_": 4323,
      "ed_name": 4324,
      "8192": 4325,
      "1996": 4326,
      "2480": 4327,
      "N_": 4328,
      "007": 4329,
      "1702": 4330,
      "lar": 4331,
      "quote_": 4332,
      "dd": 4333,
      "2206": 4334,
      "curse": 4335,
      "1112": 4336,
      "1746": 4337,
      "1906": 4338,
      "2109": 4339,
      "1962": 4340,
      "5397": 4341,
      "1595": 4342,
      "1765": 4343,
      "1712": 4344,
      "body1882": 4345,
      "922337": 4346,
      "call24": 4347,
      "038": 4348,
      "pace": 4349,
      "end42": 4350,
      "_data_st": 4351,
      "then26": 4352,
      "pe_I": 4353,
      "1766": 4354,
      "page": 4355,
      "seek": 4356,
      "2587": 4357,
      "ame": 4358,
      "ten": 4359,
      "92233720368": 4360,
      "2356": 4361,
      "def_": 4362,
      "1003": 4363,
      "PP": 4364,
      "1016": 4365,
      "lem": 4366,
      "2207": 4367,
      "2066": 4368,
      "922337203685477": 4369,
      "nelem": 4370,
      "i56": 4371,
      "1776": 4372,
      "_sections": 4373,
      "md": 4374,
      "1797": 4375,
      "1875": 4376,
      "1108": 4377,
      "003": 4378,
      "_bfd_std_section": 4379,
      "1106": 4380,
      "LATE": 4381,
      "end44": 4382,
      "call19": 4383,
      "1405": 4384,
      "parser_": 4385,
      "end47": 4386,
      "1976": 4387,
      "2346": 4388,
      "_GOT": 4389,
      "1072": 4390,
      "tls": 4391,
      "addend": 4392,
      "2347": 4393,
      "then27": 4394,
      "17733": 4395,
      "_local_": 4396,
      "er_st": 4397,
      "yy_": 4398,
      "2871": 4399,
      "2529": 4400,
      "92233720368547758": 4401,
      "10771": 4402,
      "template": 4403,
      "1720": 4404,
      "2813": 4405,
      "22769": 4406,
      "20154": 4407,
      "ava": 4408,
      "1162": 4409,
      "1986": 4410,
      "3670": 4411,
      "2107": 4412,
      "19020": 4413,
      "Ma": 4414,
      "1161": 4415,
      "2224": 4416,
      "mctx": 4417,
      "ow_": 4418,
      "1946": 4419,
      "gex": 4420,
      "backsla": 4421,
      "object_st": 4422,
      "19524": 4423,
      "alg": 4424,
      "27648": 4425,
      "1565": 4426,
      "pB": 4427,
      "1104": 4428,
      "cale": 4429,
      "1975": 4430,
      "1445": 4431,
      "item": 4432,
      "iovec": 4433,
      "TPREL": 4434,
      "call17": 4435,
      "per": 4436,
      "discar": 4437,
      "dup": 4438,
      "end45": 4439,
      "i55": 4440,
      "1876": 4441,
      "2255": 4442,
      "bfd_link_hash_": 4443,
      "1183": 4444,
      "2065": 4445,
      "4245": 4446,
      "43641": 4447,
      "2004": 4448,
      "true2": 4449,
      "user": 4450,
      "1202": 4451,
      "use_": 4452,
      "pe_ILF_": 4453,
      "cast14": 4454,
      "name_": 4455,
      "52395": 4456,
      "2243": 4457,
      "2488": 4458,
      "2496": 4459,
      "1109": 4460,
      "i67": 4461,
      "1355": 4462,
      "2397": 4463,
      "exc": 4464,
      "bfd_putx32": 4465,
      "2478": 4466,
      "sh_type": 4467,
      "1342": 4468,
      "Elf_External_Ver": 4469,
      "4248": 4470,
      "PRO": 4471,
      "lurp_": 4472,
      "main": 4473,
      "bfd_elf": 4474,
      "i43": 4475,
      "2984": 4476,
      "then34": 4477,
      "OPE": 4478,
      "expression": 4479,
      "2658": 4480,
      "1395": 4481,
      "cmp27": 4482,
      "sum": 4483,
      "_GList": 4484,
      "printf_chk": 4485,
      "cpu": 4486,
      "dwarf2_": 4487,
      "STYPE": 4488,
      "1273": 4489,
      "ear": 4490,
      "YYSTYPE": 4491,
      "__f": 4492,
      "prin": 4493,
      "parser": 4494,
      "1573": 4495,
      "star": 4496,
      "nta": 4497,
      "escapes": 4498,
      ".*)": 4499,
      "argc": 4500,
      "globals": 4501,
      "1745": 4502,
      "bad": 4503,
      "2538": 4504,
      "2740": 4505,
      "1804": 4506,
      "end46": 4507,
      "cmp25": 4508,
      "1653": 4509,
      "1585": 4510,
      "then30": 4511,
      "1503": 4512,
      "2536": 4513,
      "arrayidx2": 4514,
      "_class": 4515,
      "1061": 4516,
      "2246": 4517,
      "2285": 4518,
      "Phdr": 4519,
      "backslash_": 4520,
      "2404": 4521,
      "elf_internal_dyn": 4522,
      "*)*)": 4523,
      "hol_cluster": 4524,
      "extended_name": 4525,
      "2518": 4526,
      "1994": 4527,
      "e5": 4528,
      "mbstate_t": 4529,
      "6927": 4530,
      "1073": 4531,
      "create_": 4532,
      "target_": 4533,
      "backslash_escapes": 4534,
      "level": 4535,
      "bfd_elf_version_expr": 4536,
      "TAR": 4537,
      "1775": 4538,
      "2608": 4539,
      "s_per_": 4540,
      "1974": 4541,
      "re_string_": 4542,
      "mbuiter_multi": 4543,
      "1324": 4544,
      "end49": 4545,
      "2532": 4546,
      "8013": 4547,
      "plugin_": 4548,
      "cv": 4549,
      "alloc_die": 4550,
      "2104": 4551,
      "**)*),": 4552,
      "info_ptr": 4553,
      "2284": 4554,
      "1855": 4555,
      "DES": 4556,
      "machine": 4557,
      "1721": 4558,
      "then32": 4559,
      "i66": 4560,
      "26477": 4561,
      "_PCREL": 4562,
      "1201": 4563,
      "32436": 4564,
      "2922": 4565,
      "2319": 4566,
      "_NL_WAB": 4567,
      "1673": 4568,
      "plugin": 4569,
      "bkm_s": 4570,
      "2106": 4571,
      "1062": 4572,
      "2553": 4573,
      "bb1": 4574,
      "sour": 4575,
      "2455": 4576,
      "_CO": 4577,
      "end41": 4578,
      "1142": 4579,
      "4236": 4580,
      "all_": 4581,
      "1785": 4582,
      "2537": 4583,
      "call31": 4584,
      "1683": 4585,
      "2636": 4586,
      "_common": 4587,
      "i104": 4588,
      "body4": 4589,
      "1071": 4590,
      "2096": 4591,
      "proper": 4592,
      "aou": 4593,
      "asn1_object_st": 4594,
      "aouthdr": 4595,
      "1172": 4596,
      "elim": 4597,
      "2959": 4598,
      "ERR_string": 4599,
      "warning": 4600,
      "dele": 4601,
      "conver": 4602,
      "1883": 4603,
      "6313": 4604,
      "ERR_string_data_st": 4605,
      "2275": 4606,
      "2145": 4607,
      "2094": 4608,
      "2467": 4609,
      "_symbols": 4610,
      "bb302": 4611,
      "bkm_scale": 4612,
      "1243": 4613,
      "2748": 4614,
      "xalloc_die": 4615,
      "packages": 4616,
      "ADD": 4617,
      "037": 4618,
      "opera": 4619,
      "1602": 4620,
      "i218": 4621,
      "x509_": 4622,
      "ling": 4623,
      "2204": 4624,
      "1945": 4625,
      "2296": 4626,
      "1823": 4627,
      "then29": 4628,
      "_NAME": 4629,
      "ctors": 4630,
      "end57": 4631,
      "ext_": 4632,
      "_bfd_bool": 4633,
      "1493": 4634,
      "x509_st": 4635,
      "2758": 4636,
      "GNUpackages": 4637,
      "frame": 4638,
      "k_": 4639,
      "1111": 4640,
      "strncmp": 4641,
      "then31": 4642,
      "quote_string": 4643,
      "cie": 4644,
      "531": 4645,
      "VI": 4646,
      "geto": 4647,
      "0_": 4648,
      "ext24": 4649,
      "5312": 4650,
      "2074": 4651,
      "COL": 4652,
      "921": 4653,
      "my_": 4654,
      "ASN1": 4655,
      "2085": 4656,
      "once": 4657,
      "armap": 4658,
      "CRY": 4659,
      "cmp21": 4660,
      "filehdr": 4661,
      "ready_": 4662,
      "argp_state": 4663,
      "dynamic_entry": 4664,
      "2499": 4665,
      "_spec": 4666,
      "vn_": 4667,
      "1786": 4668,
      "end70": 4669,
      "resol": 4670,
      "4685": 4671,
      "931": 4672,
      "uning": 4673,
      "end48": 4674,
      "025": 4675,
      "6130": 4676,
      "ties": 4677,
      "2055": 4678,
      "2477": 4679,
      "properties": 4680,
      "2528": 4681,
      "_to_": 4682,
      "5759": 4683,
      "binutils": 4684,
      "1314": 4685,
      "1644": 4686,
      "1865": 4687,
      "ux_": 4688,
      "CE": 4689,
      "ide": 4690,
      "SizeOf": 4691,
      "2396": 4692,
      "uff": 4693,
      "DISubrange": 4694,
      "1052": 4695,
      "_nodes": 4696,
      "2075": 4697,
      "2639": 4698,
      "2985": 4699,
      "dwarf2_debug": 4700,
      "1631": 4701,
      "2276": 4702,
      "session": 4703,
      "1719": 4704,
      "aram": 4705,
      "tree_storage": 4706,
      "str_tree_storage": 4707,
      "seg": 4708,
      "1553": 4709,
      "cmp24": 4710,
      "2600": 4711,
      "3039": 4712,
      "tobool5": 4713,
      "search": 4714,
      "_code": 4715,
      "linux_": 4716,
      "end63": 4717,
      "tic_": 4718,
      "_symbol_info": 4719,
      "then41": 4720,
      "CM": 4721,
      "ator": 4722,
      "2665": 4723,
      "build_id": 4724,
      "WC": 4725,
      "zalloc": 4726,
      "file_": 4727,
      "elf_internal_verdef": 4728,
      "4352": 4729,
      "date": 4730,
      "predica": 4731,
      "any": 4732,
      "2158": 4733,
      "1233": 4734,
      "4972": 4735,
      "end55": 4736,
      "2345": 4737,
      "end53": 4738,
      "AT": 4739,
      "um_": 4740,
      "2799": 4741,
      "predicate": 4742,
      "linux_prpsinfo": 4743,
      "1373": 4744,
      "nsion": 4745,
      "bfd_getl": 4746,
      "_len": 4747,
      "4260": 4748,
      "092": 4749,
      "i75": 4750,
      "2424": 4751,
      "2086": 4752,
      "2657": 4753,
      "2144": 4754,
      "call23": 4755,
      "1593": 4756,
      "1193": 4757,
      "1323": 4758,
      "cmp29": 4759,
      "1281": 4760,
      "Int": 4761,
      "lookup_": 4762,
      "body663": 4763,
      "now": 4764,
      "CRYPT": 4765,
      "i65": 4766,
      "wordsplit_": 4767,
      "put_error": 4768,
      "ERR_put_error": 4769,
      "dir_": 4770,
      "then33": 4771,
      "1262": 4772,
      "already_": 4773,
      "chr": 4774,
      "Info": 4775,
      "1647": 4776,
      "i53": 4777,
      "7868": 4778,
      "stack_st_": 4779,
      "_b": 4780,
      "7864": 4781,
      "010": 4782,
      "UM": 4783,
      "2375": 4784,
      "1326": 4785,
      "process_input": 4786,
      "arel": 4787,
      "ip_": 4788,
      "naux": 4789,
      "wr": 4790,
      "wra": 4791,
      "edTypes": 4792,
      "retainedTypes": 4793,
      "5473": 4794,
      "ass": 4795,
      "2534": 4796,
      "2133": 4797,
      "1863": 4798,
      "_init_": 4799,
      "2530": 4800,
      "AN": 4801,
      "e_sh": 4802,
      "lim": 4803,
      "2084": 4804,
      "--": 4805,
      "TH": 4806,
      "2760": 4807,
      "siz": 4808,
      "body_crit_edge": 4809,
      "x86_64": 4810,
      "OPEN": 4811,
      "call22": 4812,
      "31931": 4813,
      "fail": 4814,
      "already_link": 4815,
      "2365": 4816,
      "d_print_mod": 4817,
      "paddr": 4818,
      "mbuf": 4819,
      "2095": 4820,
      "lure": 4821,
      "2839": 4822,
      "force_": 4823,
      "bignum_": 4824,
      "i_crit_edge": 4825,
      "2858": 4826,
      "1513": 4827,
      "_r": 4828,
      "2546": 4829,
      "721": 4830,
      "1081": 4831,
      "OS": 4832,
      "2579": 4833,
      "2006": 4834,
      "DAY_": 4835,
      "1416": 4836,
      "then39": 4837,
      "end64": 4838,
      "1282": 4839,
      "st_size": 4840,
      "mage": 4841,
      "1453": 4842,
      "2105": 4843,
      "PAR": 4844,
      "short": 4845,
      "marg": 4846,
      "margin": 4847,
      "7865": 4848,
      "1252": 4849,
      "bufsiz": 4850,
      "cs": 4851,
      "bucket_length": 4852,
      "5399": 4853,
      "156195": 4854,
      "ld_": 4855,
      "sb": 4856,
      "peek": 4857,
      "1473": 4858,
      "_IO_write_ptr": 4859,
      "2990": 4860,
      "then44": 4861,
      "1418": 4862,
      "core_elf_obj_tdata": 4863,
      "/\\": 4864,
      "3493": 4865,
      "081": 4866,
      "vna": 4867,
      "2569": 4868,
      "symtab_": 4869,
      "2750": 4870,
      "ping": 4871,
      "2333": 4872,
      "quotes": 4873,
      "engine": 4874,
      "start_": 4875,
      "1692": 4876,
      "2880": 4877,
      ":\\": 4878,
      "2445": 4879,
      "then37": 4880,
      "stat_": 4881,
      "OPENSS": 4882,
      "_save_": 4883,
      "2394": 4884,
      "2046": 4885,
      "1693": 4886,
      "BFD_RELOC_NDS": 4887,
      "nt_": 4888,
      "enu": 4889,
      "1903": 4890,
      "2678": 4891,
      "pid": 4892,
      "2568": 4893,
      "5753": 4894,
      "__mbstate_t": 4895,
      "tion_type": 4896,
      "2245": 4897,
      "obj_attr": 4898,
      "5858": 4899,
      "bfd_generic_": 4900,
      "DW_TAG_enu": 4901,
      "byte_": 4902,
      "meration_type": 4903,
      "avail": 4904,
      "8_": 4905,
      "disable": 4906,
      "Con": 4907,
      "_bfd_link_": 4908,
      "rray": 4909,
      "src_": 4910,
      "trip": 4911,
      "2699": 4912,
      "Add": 4913,
      "DW_TAG_enumeration_type": 4914,
      "cmp31": 4915,
      "2018": 4916,
      "2466": 4917,
      "ource": 4918,
      "1110": 4919,
      "2628": 4920,
      "4243": 4921,
      "_IO_read": 4922,
      "1515": 4923,
      "inc6": 4924,
      "2306": 4925,
      "BFD_RELOC_PP": 4926,
      "is_link": 4927,
      "2134": 4928,
      "the_": 4929,
      "tls_": 4930,
      "elide_": 4931,
      "*)*],": 4932,
      "1663": 4933,
      "construct": 4934,
      "then157": 4935,
      "ures": 4936,
      "group_st": 4937,
      "ec_group_st": 4938,
      "1328": 4939,
      "1171": 4940,
      "1641": 4941,
      "cmp26": 4942,
      "2659": 4943,
      "2045": 4944,
      "_bfd_no": 4945,
      "ARCH64_": 4946,
      "state_": 4947,
      "2222": 4948,
      "tobool9": 4949,
      "2355": 4950,
      "2395": 4951,
      "definition": 4952,
      "2954": 4953,
      "stderr": 4954,
      "ihex": 4955,
      "operator": 4956,
      "1393": 4957,
      "elf_i386_": 4958,
      "ust": 4959,
      "029": 4960,
      "outer_quotes": 4961,
      "254048": 4962,
      ";\\": 4963,
      "026": 4964,
      "2547": 4965,
      "bignum_ctx": 4966,
      "1985": 4967,
      "2701": 4968,
      "3105": 4969,
      "i335": 4970,
      "1715": 4971,
      "then35": 4972,
      "sq": 4973,
      "2738": 4974,
      "elide_outer_quotes": 4975,
      "obfd": 4976,
      "1041": 4977,
      "1283": 4978,
      "evp_md_": 4979,
      "evp_md_ctx_st": 4980,
      "end65": 4981,
      "cmp32": 4982,
      "2704": 4983,
      "10739": 4984,
      "gf_": 4985,
      "bin_str": 4986,
      "1462": 4987,
      "1492": 4988,
      "ar_": 4989,
      "raw": 4990,
      "1652": 4991,
      "_bfd_data": 4992,
      "1329": 4993,
      "_cur_": 4994,
      "1822": 4995,
      "4247": 4996,
      "where": 4997,
      "_bfd_bool_bfd_": 4998,
      "2728": 4999,
      "1333": 5000,
      "2640": 5001,
      "p_type": 5002,
      "1433": 5003,
      "2787": 5004,
      "artdata": 5005,
      "2321": 5006,
      "test": 5007,
      "om_": 5008,
      "vi": 5009,
      "2676": 5010,
      "bi_": 5011,
      "adjust": 5012,
      "_fail": 5013,
      "gp": 5014,
      "1633": 5015,
      "arrayidx1": 5016,
      "091": 5017,
      "false599": 5018,
      "TS": 5019,
      "1031": 5020,
      "1452": 5021,
      "2668": 5022,
      "1772": 5023,
      "_bfd_copy_private": 5024,
      "_sign": 5025,
      "elf_x86_link_hash_table": 5026,
      "1483": 5027,
      "2866": 5028,
      "linux": 5029,
      "DIGITS": 5030,
      "_ciph": 5031,
      "2634": 5032,
      "elf_internal_verneed": 5033,
      "ETAR": 5034,
      "MONETAR": 5035,
      "1131": 5036,
      "ssed_": 5037,
      "1805": 5038,
      "1443": 5039,
      "2684": 5040,
      "end68": 5041,
      "1343": 5042,
      "ptr24": 5043,
      "remo": 5044,
      "2373": 5045,
      "lang_output_section": 5046,
      "needed_list": 5047,
      "c_escape": 5048,
      "_i386": 5049,
      "xrealloc": 5050,
      "lines": 5051,
      "1973": 5052,
      "udiv": 5053,
      "1263": 5054,
      "ssl3": 5055,
      "2272": 5056,
      "1572": 5057,
      "atal": 5058,
      "2033": 5059,
      "2717": 5060,
      "1383": 5061,
      "quotearg_n": 5062,
      "LD": 5063,
      "2295": 5064,
      "error_return": 5065,
      "2680": 5066,
      "044": 5067,
      "20890": 5068,
      "_bfd_canonicalize_": 5069,
      "2205": 5070,
      "2960": 5071,
      "LT": 5072,
      "rect": 5073,
      "54018": 5074,
      "1648": 5075,
      "2005": 5076,
      "2756": 5077,
      "xs": 5078,
      "dif": 5079,
      "2759": 5080,
      "section_flags": 5081,
      "1221": 5082,
      "end67": 5083,
      "call26": 5084,
      "_stat": 5085,
      "end61": 5086,
      "751": 5087,
      "bfd_get_": 5088,
      "ep_": 5089,
      "1021": 5090,
      "2153": 5091,
      "]],": 5092,
      "memcheck": 5093,
      "i80": 5094,
      "3106": 5095,
      "2141": 5096,
      "then42": 5097,
      "cmp35": 5098,
      "bb2": 5099,
      "cmp37": 5100,
      "soft": 5101,
      "reg_save_": 5102,
      "reg_save_area": 5103,
      "1403": 5104,
      "lazy_plt": 5105,
      "cmp28": 5106,
      "1215": 5107,
      "1382": 5108,
      "1482": 5109,
      "1341": 5110,
      "end54": 5111,
      "unro": 5112,
      "2509": 5113,
      "_bfd_x86_elf_": 5114,
      "2654": 5115,
      "70841": 5116,
      "short_": 5117,
      "54644": 5118,
      "5163": 5119,
      "i51": 5120,
      "seen": 5121,
      "_IMM16_": 5122,
      "_sec_info": 5123,
      "1915": 5124,
      "call27": 5125,
      "BI": 5126,
      "1718": 5127,
      "2497": 5128,
      "2637": 5129,
      "best": 5130,
      "72147": 5131,
      "2660": 5132,
      "1191": 5133,
      "2083": 5134,
      "end51": 5135,
      "context_": 5136,
      "1372": 5137,
      "_NL_MONETAR": 5138,
      "BFD_RELOC_AARCH64_": 5139,
      "_NL_MONETARY_": 5140,
      "2780": 5141,
      "ASN1_VALUE": 5142,
      "1352": 5143,
      "end52": 5144,
      "ity": 5145,
      "1092": 5146,
      "builtin_type": 5147,
      "1995": 5148,
      "_IMM16_X": 5149,
      "already_linked": 5150,
      "1293": 5151,
      "bfd_link_needed_list": 5152,
      "11352": 5153,
      "2868": 5154,
      "pass": 5155,
      "no_": 5156,
      "2508": 5157,
      "end58": 5158,
      "1402": 5159,
      "2580": 5160,
      "ASN1_VALUE_st": 5161,
      "10130": 5162,
      "2987": 5163,
      "6960": 5164,
      "5614": 5165,
      "2924": 5166,
      "used": 5167,
      "escaping": 5168,
      "2283": 5169,
      "job": 5170,
      "_ino": 5171,
      "calloc": 5172,
      "s_v": 5173,
      "freq": 5174,
      "1002": 5175,
      "26551": 5176,
      "call25": 5177,
      "location": 5178,
      "32404": 5179,
      "mbs": 5180,
      "2017": 5181,
      "prefix": 5182,
      "cmp41": 5183,
      "3904": 5184,
      "2879": 5185,
      "tobool8": 5186,
      "ASN1_I": 5187,
      "2465": 5188,
      "1965": 5189,
      "tex": 5190,
      "_insn": 5191,
      "s_size": 5192,
      "preser": 5193,
      "_bfd_set_": 5194,
      "2405": 5195,
      "_command": 5196,
      "uid": 5197,
      "1141": 5198,
      "pc_": 5199,
      "objalloc": 5200,
      "1253": 5201,
      "2789": 5202,
      "i136": 5203,
      "read_uleb128": 5204,
      "1923": 5205,
      "2796": 5206,
      "6461": 5207,
      "3484": 5208,
      "2562": 5209,
      "then40": 5210,
      "file_name": 5211,
      "ource_": 5212,
      "2739": 5213,
      "2736": 5214,
      "i52": 5215,
      "slurp_": 5216,
      "2950": 5217,
      "compressed_": 5218,
      "iled": 5219,
      "3008": 5220,
      "merge_": 5221,
      "elf_x86_non_": 5222,
      "_failure": 5223,
      "elf_x86_non_lazy_plt_layout": 5224,
      "strings": 5225,
      "sec_flags": 5226,
      "uparam": 5227,
      "link_order": 5228,
      "sh_flags": 5229,
      "bl": 5230,
      "2638": 5231,
      "1672": 5232,
      "1242": 5233,
      "266362": 5234,
      "glob": 5235,
      "recor": 5236,
      "dec13": 5237,
      "then45": 5238,
      "_bfd_window": 5239,
      "i137": 5240,
      "dc7": 5241,
      "gz_": 5242,
      "can_": 5243,
      "gz_header": 5244,
      "1802": 5245,
      "3033": 5246,
      "0x": 5247,
      "end77": 5248,
      "lru": 5249,
      "40100": 5250,
      "TEM_st": 5251,
      "ASN1_ITEM_st": 5252,
      "1533": 5253,
      "2838": 5254,
      "FM": 5255,
      "1451": 5256,
      "2709": 5257,
      "forma": 5258,
      "cmp30": 5259,
      "5760": 5260,
      "CS": 5261,
      "add4": 5262,
      "ll_iter": 5263,
      "unroll_iter": 5264,
      "zone": 5265,
      "3329": 5266,
      "2763": 5267,
      "1181": 5268,
      "2423": 5269,
      "2605": 5270,
      "round": 5271,
      "2223": 5272,
      "1302": 5273,
      ".*": 5274,
      "2484": 5275,
      "_get_": 5276,
      "cmp33": 5277,
      "call28": 5278,
      "allocsize": 5279,
      "arrayidx7": 5280,
      "8009": 5281,
      "2949": 5282,
      "1843": 5283,
      "end79": 5284,
      "8547": 5285,
      "IGN": 5286,
      "2472": 5287,
      "conv1": 5288,
      "1782": 5289,
      "printable": 5290,
      "]]*": 5291,
      "true611": 5292,
      "2604": 5293,
      "BY": 5294,
      "State": 5295,
      "1761": 5296,
      "quotearg_n_": 5297,
      "all_c_and_shell_quote_compat": 5298,
      "831": 5299,
      "1363": 5300,
      "2671": 5301,
      "ptr10": 5302,
      "bed": 5303,
      "isec": 5304,
      "trel": 5305,
      "quotearg": 5306,
      "DEN": 5307,
      "2689": 5308,
      "true604": 5309,
      "sdiv": 5310,
      "1291": 5311,
      "2116": 5312,
      "i88": 5313,
      "910": 5314,
      "_ent": 5315,
      "3486": 5316,
      "i148": 5317,
      "filepos": 5318,
      "2131": 5319,
      "MAX": 5320,
      "2944": 5321,
      "254282": 5322,
      "stamp": 5323,
      "lea": 5324,
      "ler": 5325,
      "2732": 5326,
      "loopexit36": 5327,
      "Elf_Int": 5328,
      "Elf_Internal_": 5329,
      "2596": 5330,
      "1361": 5331,
      "exec": 5332,
      "cmp39": 5333,
      "_copy": 5334,
      "call32": 5335,
      "ho": 5336,
      "i33": 5337,
      "2691": 5338,
      "i105": 5339,
      "1272": 5340,
      "2486": 5341,
      "2487": 5342,
      "i124": 5343,
      "p_vaddr": 5344,
      "i81": 5345,
      "call33": 5346,
      "2974": 5347,
      "bfd_h_getx_signed_": 5348,
      "end91": 5349,
      "2734": 5350,
      "ield_": 5351,
      "i108": 5352,
      "add3": 5353,
      "2293": 5354,
      "2124": 5355,
      "1953": 5356,
      "bfd_b": 5357,
      "pe_ILF_vars": 5358,
      "stem": 5359,
      "dynindx": 5360,
      "ac": 5361,
      "ctype": 5362,
      "gz_header_s": 5363,
      "2755": 5364,
      "elf_section_list": 5365,
      "H_": 5366,
      "i62": 5367,
      "t_st": 5368,
      "DU": 5369,
      "2218": 5370,
      "then48": 5371,
      "itten": 5372,
      "end59": 5373,
      "gf_s": 5374,
      "1231": 5375,
      "1392": 5376,
      "each": 5377,
      "i63": 5378,
      "store_": 5379,
      "1662": 5380,
      "2848": 5381,
      "brmerge": 5382,
      "3803": 5383,
      "2073": 5384,
      "lang_output_section_statement_struct": 5385,
      "n_authors": 5386,
      "BFD_RELOC_R": 5387,
      "CON": 5388,
      "2504": 5389,
      "2122": 5390,
      "map_entry": 5391,
      "2571": 5392,
      "i78": 5393,
      "2935": 5394,
      "keep_": 5395,
      "2797": 5396,
      "i165": 5397,
      "LI": 5398,
      "3000": 5399,
      "1552": 5400,
      "tern_": 5401,
      "2964": 5402,
      "demangle_operator": 5403,
      "ary": 5404,
      "851": 5405,
      "2897": 5406,
      "calls": 5407,
      "plt_entry": 5408,
      "1931": 5409,
      "BFD_RELOC_TILEG": 5410,
      "true602": 5411,
      "CTX": 5412,
      "dum": 5413,
      "10107": 5414,
      "then197": 5415,
      "2157": 5416,
      "1543": 5417,
      "_keymap_entry": 5418,
      "2582": 5419,
      "3561": 5420,
      "1943": 5421,
      "i90": 5422,
      "BN_": 5423,
      "dst_": 5424,
      "1661": 5425,
      "_IO_save_": 5426,
      "zeros": 5427,
      "1983": 5428,
      "then72": 5429,
      "i147": 5430,
      "2578": 5431,
      "2292": 5432,
      "getopt": 5433,
      "resolved_": 5434,
      "i42": 5435,
      "2101": 5436,
      "2527": 5437,
      "comps": 5438,
      "2475": 5439,
      "htt": 5440,
      "SET": 5441,
      "2555": 5442,
      "AM": 5443,
      "_comps": 5444,
      "2832": 5445,
      "2115": 5446,
      "regu": 5447,
      "arrayidx3": 5448,
      "2854": 5449,
      "symp": 5450,
      "end66": 5451,
      "coff_debug_": 5452,
      "dat": 5453,
      "2632": 5454,
      "2188": 5455,
      "Image": 5456,
      "i216": 5457,
      "i107": 5458,
      "tern": 5459,
      "size_": 5460,
      "num_comps": 5461,
      "2594": 5462,
      "2498": 5463,
      "demangle_operator_info": 5464,
      "real": 5465,
      "13340": 5466,
      "2729": 5467,
      "early": 5468,
      "idden": 5469,
      "lx": 5470,
      "scan": 5471,
      "locale": 5472,
      "2616": 5473,
      "2737": 5474,
      "1793": 5475,
      "71241": 5476,
      "9249": 5477,
      "then51": 5478,
      "tek": 5479,
      "pstr": 5480,
      "bb8": 5481,
      "dec3": 5482,
      "tuning": 5483,
      "ument": 5484,
      "then36": 5485,
      "v3_": 5486,
      "tekhex": 5487,
      "2114": 5488,
      "kind": 5489,
      "algor": 5490,
      "1091": 5491,
      "2505": 5492,
      "2744": 5493,
      "ab": 5494,
      "ept_": 5495,
      "lush": 5496,
      "ory_": 5497,
      "_fn": 5498,
      "rtu": 5499,
      "43669": 5500,
      "2023": 5501,
      "argument": 5502,
      "2859": 5503,
      "2543": 5504,
      "asn1": 5505,
      "rp": 5506,
      "i84": 5507,
      "1521": 5508,
      "1471": 5509,
      "md_st": 5510,
      "wordsplit_node": 5511,
      "4269": 5512,
      "1413": 5513,
      "safe": 5514,
      "3809": 5515,
      "2607": 5516,
      "region": 5517,
      "call29": 5518,
      "2730": 5519,
      "evp_md_st": 5520,
      "2091": 5521,
      "s2": 5522,
      "1151": 5523,
      "hidden": 5524,
      "2735": 5525,
      "2597": 5526,
      "then54": 5527,
      "less": 5528,
      "36607": 5529,
      "relax": 5530,
      "call35": 5531,
      "n_s": 5532,
      "elf_internal_vernaux": 5533,
      "correct": 5534,
      "2574": 5535,
      "then66": 5536,
      "end130": 5537,
      "n_bucket": 5538,
      "gexp": 5539,
      "i166": 5540,
      "2888": 5541,
      "num_read": 5542,
      "pattern_": 5543,
      "_state_st": 5544,
      "1716": 5545,
      "C_I": 5546,
      "CK": 5547,
      "71381": 5548,
      "pr_": 5549,
      "bfd_put": 5550,
      "_NL_CTYPE_IN": 5551,
      "teg": 5552,
      "fits": 5553,
      "s_via": 5554,
      "mad": 5555,
      "synta": 5556,
      "FMT": 5557,
      "3478": 5558,
      "2629": 5559,
      "2690": 5560,
      "regs": 5561,
      "qui": 5562,
      "*/\\": 5563,
      "3200": 5564,
      "2522": 5565,
      "crc": 5566,
      "om": 5567,
      "1733": 5568,
      "swap": 5569,
      "tobool6": 5570,
      "bufsize": 5571,
      "default_quoting_options": 5572,
      "KEEP": 5573,
      "quotearg_n_options": 5574,
      "i184": 5575,
      "2938": 5576,
      "69550": 5577,
      "bad_": 5578,
      "2154": 5579,
      "color": 5580,
      "40132": 5581,
      "linkonce": 5582,
      "tobool7": 5583,
      "arrayidx4": 5584,
      "p_paddr": 5585,
      "*)*)(": 5586,
      "i155": 5587,
      "35001": 5588,
      "3100": 5589,
      "2103": 5590,
      "2062": 5591,
      "...)*,": 5592,
      "1918": 5593,
      "then50": 5594,
      "7762": 5595,
      "argp_fmtstream_": 5596,
      "end84": 5597,
      "28024": 5598,
      "origin": 5599,
      "ec_point": 5600,
      "2473": 5601,
      "e_ph": 5602,
      "elf_x86_lazy_plt_layout": 5603,
      "_find_": 5604,
      "realloca": 5605,
      "_set_": 5606,
      "fits_in_": 5607,
      "1952": 5608,
      "_stat_info": 5609,
      "70192": 5610,
      "2849": 5611,
      "2193": 5612,
      "69528": 5613,
      "i79": 5614,
      "i167": 5615,
      "res_": 5616,
      "i217": 5617,
      "eps_via": 5618,
      "eps_via_nodes": 5619,
      "emit_": 5620,
      "aft": 5621,
      "i109": 5622,
      "_i386_insn": 5623,
      "ptr11": 5624,
      "sh_entsize": 5625,
      "2598": 5626,
      "GE": 5627,
      "descsz": 5628,
      "2016": 5629,
      "2624": 5630,
      "1646": 5631,
      "_un": 5632,
      "pending_buf": 5633,
      "ec_point_st": 5634,
      "then43": 5635,
      "cmp34": 5636,
      "2630": 5637,
      "reallocarray": 5638,
      "_crea": 5639,
      "1321": 5640,
      "2806": 5641,
      "then49": 5642,
      "call34": 5643,
      "end239": 5644,
      "2291": 5645,
      "suff": 5646,
      "end72": 5647,
      "fits_in_gp": 5648,
      "1703": 5649,
      "msg": 5650,
      "end60": 5651,
      "1327": 5652,
      "1362": 5653,
      "sub_": 5654,
      "1563": 5655,
      "1833": 5656,
      "1642": 5657,
      "2184": 5658,
      "2669": 5659,
      "BFD_RELOC_X": 5660,
      "i74": 5661,
      "i103": 5662,
      "2052": 5663,
      "1241": 5664,
      "_bfd_abort": 5665,
      "OB": 5666,
      "2693": 5667,
      "2161": 5668,
      "2162": 5669,
      "2590": 5670,
      "bb4": 5671,
      "gnu_properties": 5672,
      "1682": 5673,
      "1972": 5674,
      "2962": 5675,
      "2566": 5676,
      "bits_per_": 5677,
      "i99": 5678,
      "3776": 5679,
      "bfd_getx_signed_": 5680,
      "2494": 5681,
      "32768": 5682,
      "2670": 5683,
      "locale_": 5684,
      "1442": 5685,
      "1933": 5686,
      "relro": 5687,
      "ill": 5688,
      "i69": 5689,
      "strto": 5690,
      "2156": 5691,
      "execu": 5692,
      "2402": 5693,
      "10619": 5694,
      "i93": 5695,
      "verdef": 5696,
      "1531": 5697,
      "2422": 5698,
      "2958": 5699,
      "then59": 5700,
      "end8_crit_edge": 5701,
      "_id": 5702,
      "i140": 5703,
      "_failing": 5704,
      "i145": 5705,
      "sert_": 5706,
      "9223372036854775807": 5707,
      "i106": 5708,
      "4231": 5709,
      "dicator": 5710,
      "end74": 5711,
      "ue": 5712,
      "/*": 5713,
      "multip": 5714,
      "feat": 5715,
      "1783": 5716,
      "1893": 5717,
      "2601": 5718,
      "elf_internal_ehdr": 5719,
      "4229": 5720,
      "1325": 5721,
      "_bfd_elf_get_": 5722,
      "_bfd_elf_add_": 5723,
      "2565": 5724,
      "failed": 5725,
      "106716": 5726,
      "3072": 5727,
      "has": 5728,
      "2119": 5729,
      "_IO_buf_": 5730,
      "_freeres_": 5731,
      "CMS_": 5732,
      "sqrt": 5733,
      "4928": 5734,
      "1773": 5735,
      "protect": 5736,
      "821": 5737,
      "226497": 5738,
      "2476": 5739,
      "2507": 5740,
      "i111": 5741,
      "2063": 5742,
      "pping": 5743,
      "i133": 5744,
      "1441": 5745,
      "1713": 5746,
      "rounded": 5747,
      "features": 5748,
      "2831": 5749,
      "5035": 5750,
      "aw": 5751,
      "i169": 5752,
      "BFD_RELOC_NDS32_": 5753,
      "1542": 5754,
      "1753": 5755,
      "2152": 5756,
      "st_shndx": 5757,
      "divide": 5758,
      "1992": 5759,
      "fxs": 5760,
      "fxsr": 5761,
      "i91": 5762,
      "ence": 5763,
      "2609": 5764,
      "2814": 5765,
      "pattern_buffer": 5766,
      "bfd_alloc": 5767,
      "body5": 5768,
      "_ctx": 5769,
      "2506": 5770,
      "2816": 5771,
      "043": 5772,
      "package": 5773,
      "Address": 5774,
      "1210": 5775,
      "cise": 5776,
      "sse2": 5777,
      "rpl_option": 5778,
      "turn": 5779,
      "tobool10": 5780,
      "mmx": 5781,
      "correctly": 5782,
      "x87": 5783,
      "OPENSSL": 5784,
      "1743": 5785,
      "unsafe": 5786,
      "i117": 5787,
      "mag": 5788,
      "infs": 5789,
      "precise": 5790,
      "nans": 5791,
      "false8": 5792,
      "trapping": 5793,
      "\"=\"+": 5794,
      "fpmad": 5795,
      "protector": 5796,
      "_IO_write_end": 5797,
      "call30": 5798,
      "1562": 5799,
      "i102": 5800,
      "p_flags": 5801,
      "i199": 5802,
      "1292": 5803,
      "sh_addr": 5804,
      "2934": 5805,
      "_ptr_ptr": 5806,
      "BU": 5807,
      "2930": 5808,
      "symtab_upper_bound": 5809,
      "__sig": 5810,
      "i219": 5811,
      "3130": 5812,
      "HA": 5813,
      "cmp57": 5814,
      "1649": 5815,
      "xi": 5816,
      "COLLATE": 5817,
      "Base": 5818,
      "2043": 5819,
      "DW_AT_": 5820,
      "s1": 5821,
      "cmp38": 5822,
      "tmpcast": 5823,
      "2650": 5824,
      "_file_": 5825,
      "OUT": 5826,
      "1691": 5827,
      "1671": 5828,
      "linker_": 5829,
      "2165": 5830,
      "tm_zone": 5831,
      "_fp": 5832,
      "yy_buffer": 5833,
      "_width": 5834,
      "nest": 5835,
      "bytes_read": 5836,
      "i92": 5837,
      "i212": 5838,
      "2889": 5839,
      "3035": 5840,
      "OPENSSL_s": 5841,
      "dent": 5842,
      "ssl3_state_st": 5843,
      "fr": 5844,
      "body3": 5845,
      "1121": 5846,
      "then_crit_edge": 5847,
      "2151": 5848,
      "gp_offset_p": 5849,
      "2093": 5850,
      "_NL_CTYPE_OUT": 5851,
      "_NL_CTYPE_INDIGITS": 5852,
      "_NL_CTYPE_OUTDIGIT": 5853,
      "sh_info": 5854,
      "1414": 5855,
      "frag": 5856,
      "sh_link": 5857,
      "BFD_RELOC_I": 5858,
      "71528": 5859,
      "2957": 5860,
      "_indicator": 5861,
      "_rl_": 5862,
      "compress": 5863,
      "2835": 5864,
      "Shdr": 5865,
      "FR": 5866,
      "76007": 5867,
      "i110": 5868,
      "then55": 5869,
      "20484": 5870,
      "2702": 5871,
      "es_": 5872,
      "i114": 5873,
      ");\\": 5874,
      "tar_stat_info": 5875,
      "pe_obj_data": 5876,
      "3136": 5877,
      "i261": 5878,
      "2909": 5879,
      "3032": 5880,
      "then53": 5881,
      "1803": 5882,
      "fill": 5883,
      "54383": 5884,
      "demangle_builtin_type": 5885,
      "i122": 5886,
      "resource_": 5887,
      "redirect": 5888,
      "pagesize": 5889,
      "11304": 5890,
      "79273": 5891,
      "best_f": 5892,
      "i82": 5893,
      "end88": 5894,
      "2978": 5895,
      "armap_": 5896,
      "3050": 5897,
      "regular": 5898,
      "_LO": 5899,
      "call77": 5900,
      "syntax": 5901,
      "call38": 5902,
      "3477": 5903,
      "bb5": 5904,
      "2327": 5905,
      "2113": 5906,
      "command_name": 5907,
      "call37": 5908,
      "st_mode": 5909,
      "2767": 5910,
      "true9": 5911,
      "begin": 5912,
      "i264": 5913,
      "ssl_session": 5914,
      "224176": 5915,
      "cmp40": 5916,
      "2663": 5917,
      "3520": 5918,
      "i143": 5919,
      "1763": 5920,
      "2586": 5921,
      "2595": 5922,
      "70850": 5923,
      "224037": 5924,
      "042": 5925,
      "i85": 5926,
      "xor4": 5927,
      "i76": 5928,
      "cmp36": 5929,
      "2932": 5930,
      "re_pattern_buffer": 5931,
      "symtab_hdr": 5932,
      "eh_frame_hdr": 5933,
      "2242": 5934,
      "end263": 5935,
      "222981": 5936,
      "_core_file_failing": 5937,
      "i97": 5938,
      "pla": 5939,
      "2072": 5940,
      "2983": 5941,
      "then47": 5942,
      "2824": 5943,
      "1331": 5944,
      "71574": 5945,
      "73850": 5946,
      "ATION": 5947,
      "2997": 5948,
      "bb45": 5949,
      "i123": 5950,
      "7750": 5951,
      "pm": 5952,
      "call39": 5953,
      "2019": 5954,
      "fix_": 5955,
      "1316": 5956,
      "bb33": 5957,
      "MO": 5958,
      "source": 5959,
      "2790": 5960,
      "230011": 5961,
      "1881": 5962,
      "225049": 5963,
      "i159": 5964,
      "i142": 5965,
      "2433": 5966,
      "fold": 5967,
      "233277": 5968,
      "2053": 5969,
      "020": 5970,
      "timestamp": 5971,
      "70636": 5972,
      "i182": 5973,
      "78270": 5974,
      "noti": 5975,
      "1701": 5976,
      "71526": 5977,
      "i98": 5978,
      "cal": 5979,
      "1731": 5980,
      "93157": 5981,
      "2196": 5982,
      "2770": 5983,
      "2174": 5984,
      "bsd_": 5985,
      "i95": 5986,
      "2411": 5987,
      "86_": 5988,
      "3120": 5989,
      "3348": 5990,
      "99136": 5991,
      "TEN": 5992,
      "1892": 5993,
      "70467": 5994,
      "FTS": 5995,
      "i83": 5996,
      "elt": 5997,
      "2118": 5998,
      "dynver": 5999,
      "3712": 6000,
      "i214": 6001,
      "2166": 6002,
      "i135": 6003,
      "2864": 6004,
      "cmp47": 6005,
      "i112": 6006,
      "add5": 6007,
      "total": 6008,
      "_option": 6009,
      "302790": 6010,
      "1516": 6011,
      "re_string_context_": 6012,
      "re_string_context_at": 6013,
      "3057": 6014,
      "298490": 6015,
      "292337": 6016,
      "low_": 6017,
      "then46": 6018,
      "ssl_session_st": 6019,
      "i118": 6020,
      "volat": 6021,
      "assign": 6022,
      "volatile": 6023,
      "3395": 6024,
      "saved_": 6025,
      "engine_st": 6026,
      "peel": 6027,
      "arrayidx8": 6028,
      "_fatal": 6029,
      "CORE": 6030,
      "end96": 6031,
      "minisym": 6032,
      "i31": 6033,
      "headers": 6034,
      "i138": 6035,
      "i151": 6036,
      "2951": 6037,
      "section_count": 6038,
      "4303": 6039,
      "i100": 6040,
      "get_section_contents": 6041,
      "1412": 6042,
      "true7": 6043,
      "ide_symbol": 6044,
      "i125": 6045,
      "2900": 6046,
      "nar": 6047,
      "sym_hash": 6048,
      "bfd_malloc": 6049,
      "adler": 6050,
      "elem": 6051,
      "IZ": 6052,
      "i86": 6053,
      "2939": 6054,
      "hi": 6055,
      "1982": 6056,
      "order_": 6057,
      "2526": 6058,
      "symbol_info": 6059,
      "bp": 6060,
      "i176": 6061,
      "4032": 6062,
      "_NL_COLLATE": 6063,
      "yyv": 6064,
      "evp_cipher_st": 6065,
      "_node": 6066,
      "3006": 6067,
      "!\"": 6068,
      "3099": 6069,
      "end73": 6070,
      "2774": 6071,
      "2890": 6072,
      "0C": 6073,
      "2326": 6074,
      "2707": 6075,
      "conv5": 6076,
      "ptr8": 6077,
      "re_char": 6078,
      "ssl_ctx_st": 6079,
      "2303": 6080,
      "1762": 6081,
      "call46": 6082,
      "symndx": 6083,
      "1411": 6084,
      "1421": 6085,
      "1842": 6086,
      "tobool13": 6087,
      "conv4": 6088,
      "3939": 6089,
      "bb6": 6090,
      "re_charset_t": 6091,
      "2779": 6092,
      "2443": 6093,
      "2899": 6094,
      "3708": 6095,
      "i132": 6096,
      "static_": 6097,
      "}],": 6098,
      "cursor": 6099,
      "gc_sections": 6100,
      "3885": 6101,
      "2167": 6102,
      "1742": 6103,
      "__pad": 6104,
      "2485": 6105,
      "end71": 6106,
      "reloc_type": 6107,
      "sect_ptr": 6108,
      "__sigset_t": 6109,
      "\"}": 6110,
      "jor": 6111,
      "verilog": 6112,
      "1752": 6113,
      "1993": 6114,
      "then56": 6115,
      "extended_name_table": 6116,
      "2788": 6117,
      "2155": 6118,
      "dest_": 6119,
      "rawsize": 6120,
      "i201": 6121,
      "pen": 6122,
      "1902": 6123,
      "diff": 6124,
      "ces": 6125,
      "i71": 6126,
      "false6": 6127,
      "pattern": 6128,
      "_bfd_find_": 6129,
      "4191": 6130,
      "71764": 6131,
      "WAR": 6132,
      "srec_data": 6133,
      "i153": 6134,
      "35591": 6135,
      "1561": 6136,
      "2677": 6137,
      "_status": 6138,
      "hist": 6139,
      "i127": 6140,
      "i200": 6141,
      "24807": 6142,
      "separ": 6143,
      "2451": 6144,
      "2683": 6145,
      "2173": 6146,
      "i134": 6147,
      "i94": 6148,
      "2202": 6149,
      "2840": 6150,
      "i61": 6151,
      "i73": 6152,
      "1371": 6153,
      "2769": 6154,
      "2908": 6155,
      "scn": 6156,
      "1611": 6157,
      "6848": 6158,
      "end169": 6159,
      "RES": 6160,
      "_bfd_coff_swap_": 6161,
      "_match": 6162,
      "unresolved_": 6163,
      "i186": 6164,
      "files": 6165,
      "8134": 6166,
      "i70": 6167,
      "5898": 6168,
      "body7": 6169,
      "ssl3_": 6170,
      "config": 6171,
      "format_": 6172,
      "space": 6173,
      "reloc_upper_bound": 6174,
      "dt_": 6175,
      "done": 6176,
      "i120": 6177,
      "3029": 6178,
      "bb10": 6179,
      "vmato": 6180,
      "1901": 6181,
      "3495": 6182,
      "BFD_RELOC_ARM_": 6183,
      "har": 6184,
      "1810": 6185,
      "1251": 6186,
      "tobool11": 6187,
      "oad": 6188,
      "vers": 6189,
      "2800": 6190,
      "fputc": 6191,
      "coff_fin": 6192,
      "cri": 6193,
      "i77": 6194,
      "2203": 6195,
      "then63": 6196,
      "bb180": 6197,
      "2163": 6198,
      "i130": 6199,
      "3940": 6200,
      "7827": 6201,
      "getopt_data": 6202,
      "dynstr": 6203,
      "minisymbol": 6204,
      "i149": 6205,
      "then259": 6206,
      "1381": 6207,
      "expressionS": 6208,
      "DIRE": 6209,
      "st_info": 6210,
      "elf_fin": 6211,
      "end87": 6212,
      "2102": 6213,
      "3328": 6214,
      "2282": 6215,
      "2159": 6216,
      "i_shdr": 6217,
      "1541": 6218,
      "r_type": 6219,
      "2452": 6220,
      "3905": 6221,
      "2649": 6222,
      "2092": 6223,
      "wide_": 6224,
      "155668": 6225,
      "i115": 6226,
      "call40": 6227,
      "3009": 6228,
      "ext1": 6229,
      "2179": 6230,
      "varinfo": 6231,
      "re_back": 6232,
      "2182": 6233,
      "saf": 6234,
      "SC": 6235,
      "2328": 6236,
      "91780": 6237,
      "7574": 6238,
      "enc_": 6239,
      "then52": 6240,
      "tv_sec": 6241,
      "i146": 6242,
      "endptr": 6243,
      "cont": 6244,
      "5466": 6245,
      "__ctype": 6246,
      "2869": 6247,
      "conv6": 6248,
      "_section_data": 6249,
      "ref_cache_entry": 6250,
      "re_backref_cache_entry": 6251,
      "4146": 6252,
      "2807": 6253,
      "3034": 6254,
      "body25": 6255,
      "4195": 6256,
      "2125": 6257,
      "2183": 6258,
      "i185": 6259,
      "conv3": 6260,
      "cmd_": 6261,
      "end75": 6262,
      "2146": 6263,
      "2169": 6264,
      "1862": 6265,
      "3070": 6266,
      "i113": 6267,
      "i284": 6268,
      "BFD_RELOC_CR": 6269,
      "1271": 6270,
      "3040": 6271,
      "3456": 6272,
      "bfd_link_hash_common": 6273,
      "se_": 6274,
      "17728": 6275,
      "decomp": 6276,
      "2123": 6277,
      "ICATION": 6278,
      "_NL_MONETARY_DU": 6279,
      "i157": 6280,
      "1852": 6281,
      "i259": 6282,
      "lma": 6283,
      "2195": 6284,
      "2137": 6285,
      "cmp46": 6286,
      "2937": 6287,
      "3941": 6288,
      "1431": 6289,
      "3364": 6290,
      "i150": 6291,
      "demangle_builtin_type_info": 6292,
      "bfd_link_hash_common_entry": 6293,
      "2168": 6294,
      "2197": 6295,
      "OL": 6296,
      "2948": 6297,
      "266295": 6298,
      "HI16": 6299,
      "2187": 6300,
      "as_": 6301,
      "3036": 6302,
      "categ": 6303,
      "__fprintf_chk": 6304,
      "0F": 6305,
      "2199": 6306,
      "adjust_": 6307,
      "acc": 6308,
      "3060": 6309,
      "isymbuf": 6310,
      "end240": 6311,
      "v3_ext_": 6312,
      "PCREL": 6313,
      "_stop": 6314,
      "3807": 6315,
      "6912": 6316,
      "018": 6317,
      "4170": 6318,
      "3059": 6319,
      "4781": 6320,
      "use_rela": 6321,
      "bfd_h_getx16": 6322,
      "cmp43": 6323,
      "2968": 6324,
      "2653": 6325,
      "3058": 6326,
      "stab_type": 6327,
      "Min": 6328,
      "objalloc_": 6329,
      "bfd_iovec": 6330,
      "elf_sy": 6331,
      "mbuf_": 6332,
      "elf_symbuf_": 6333,
      "IZE": 6334,
      "vmatoa_": 6335,
      "2263": 6336,
      "2969": 6337,
      "yyvsp": 6338,
      "4318": 6339,
      "_cust": 6340,
      "_SE": 6341,
      "2261": 6342,
      "2383": 6343,
      "end434": 6344,
      "mp_": 6345,
      "2575": 6346,
      "del": 6347,
      "1261": 6348,
      "nl": 6349,
      "end101": 6350,
      "_bfd_ar": 6351,
      "_step": 6352,
      "bj": 6353,
      "3725": 6354,
      "_context": 6355,
      "_point": 6356,
      "_reloc_": 6357,
      "2013": 6358,
      "then98": 6359,
      "2907": 6360,
      "2989": 6361,
      "bkref_": 6362,
      "suffix": 6363,
      "daux": 6364,
      "i96": 6365,
      "end99": 6366,
      "http": 6367,
      "3079": 6368,
      "2561": 6369,
      "3147": 6370,
      "Che": 6371,
      "be_": 6372,
      "1942": 6373,
      "2883": 6374,
      "3434": 6375,
      "2135": 6376,
      "norecurse": 6377,
      "_bfd_elf_add_dynamic_entry": 6378,
      "Check": 6379,
      "i160": 6380,
      "amb": 6381,
      "1502": 6382,
      "2870": 6383,
      "7859": 6384,
      "1681": 6385,
      "a_st": 6386,
      "run": 6387,
      "3132": 6388,
      "s_from": 6389,
      "_v": 6390,
      "2324": 6391,
      "factors": 6392,
      "ined_": 6393,
      "sequ": 6394,
      "6528": 6395,
      "d_make_comp": 6396,
      "osition": 6397,
      "BFD_RELOC_TILEGX": 6398,
      "decomposition": 6399,
      "{\\": 6400,
      "i87": 6401,
      "3435": 6402,
      "78480": 6403,
      "91819": 6404,
      "1582": 6405,
      "i41": 6406,
      "2936": 6407,
      "elf_final_link_info": 6408,
      "EXTR": 6409,
      "2836": 6410,
      "34246": 6411,
      "TIF": 6412,
      "decomposition_step": 6413,
      "2393": 6414,
      "etree_": 6415,
      "2545": 6416,
      "3140": 6417,
      "ish_": 6418,
      "1991": 6419,
      "c_unlocked": 6420,
      "DIRECT": 6421,
      "discard": 6422,
      "red": 6423,
      "var_": 6424,
      "_spa": 6425,
      "opts": 6426,
      "end78": 6427,
      "fileinfo": 6428,
      "_GSource": 6429,
      "2310": 6430,
      "hash_tuning": 6431,
      "3850": 6432,
      "coff_final_link_info": 6433,
      "ambig": 6434,
      "mk": 6435,
      "call36": 6436,
      "3090": 6437,
      "call56": 6438,
      "2999": 6439,
      "call53": 6440,
      "2998": 6441,
      "1301": 6442,
      "1751": 6443,
      "cmp44": 6444,
      "2129": 6445,
      "MAP_": 6446,
      "alt": 6447,
      "cmp48": 6448,
      "3851": 6449,
      "ssage": 6450,
      "dup_": 6451,
      "5412": 6452,
      "2687": 6453,
      "2482": 6454,
      "2988": 6455,
      "3916": 6456,
      "httpd_": 6457,
      "2495": 6458,
      "2675": 6459,
      "2584": 6460,
      "2325": 6461,
      "DW_ATE": 6462,
      "3392": 6463,
      "2850": 6464,
      "i215": 6465,
      "inflate": 6466,
      "2117": 6467,
      "mtime": 6468,
      "2911": 6469,
      "version_et": 6470,
      "2906": 6471,
      "lineno_count": 6472,
      "1351": 6473,
      "demangle_failure": 6474,
      "dynamic_symbol": 6475,
      "1820": 6476,
      "3202": 6477,
      "i158": 6478,
      "late_": 6479,
      "2353": 6480,
      "2136": 6481,
      "DENTIF": 6482,
      "2252": 6483,
      "out_": 6484,
      "BIO_": 6485,
      "DENTIFICATION": 6486,
      "core_data": 6487,
      "3080": 6488,
      "2175": 6489,
      "K_": 6490,
      "end81": 6491,
      "2795": 6492,
      "3098": 6493,
      "i172": 6494,
      "ugid": 6495,
      "2233": 6496,
      "direction": 6497,
      "etree_union": 6498,
      "1391": 6499,
      "1710": 6500,
      "2372": 6501,
      "i303": 6502,
      "the_bfd": 6503,
      "ag": 6504,
      "i121": 6505,
      "int_": 6506,
      "2194": 6507,
      "sigaction": 6508,
      "2940": 6509,
      "2656": 6510,
      "bfd_elf_section_reloc_": 6511,
      "ssl_method_st": 6512,
      "bfd_elf_section_reloc_data": 6513,
      "2778": 6514,
      "bfd_section_": 6515,
      "1511": 6516,
      "1963": 6517,
      "tz": 6518,
      "end85": 6519,
      "st_dev": 6520,
      "system": 6521,
      "rat": 6522,
      "num_entries": 6523,
      "linfo": 6524,
      "bb28": 6525,
      "1481": 6526,
      "cmp49": 6527,
      "2970": 6528,
      "then65": 6529,
      "_alloc": 6530,
      "1651": 6531,
      "2777": 6532,
      "2127": 6533,
      "2592": 6534,
      "2322": 6535,
      "pkcs": 6536,
      "2946": 6537,
      "2643": 6538,
      "elp": 6539,
      "1951": 6540,
      "ifier": 6541,
      "2148": 6542,
      "message": 6543,
      "2979": 6544,
      "2138": 6545,
      "VE": 6546,
      "_par": 6547,
      "2696": 6548,
      "KEY_": 6549,
      "yy_buffer_state": 6550,
      "3077": 6551,
      "may": 6552,
      "cmp42": 6553,
      "3897": 6554,
      "strcase": 6555,
      "bb201": 6556,
      "_CODE": 6557,
      "elf_x86_64": 6558,
      "wc_": 6559,
      "1512": 6560,
      "target_index": 6561,
      "2172": 6562,
      "2185": 6563,
      "low_pc": 6564,
      "8526": 6565,
      "cleanup431": 6566,
      "TENS": 6567,
      "HE": 6568,
      "bfd_getx16": 6569,
      "extractvalue": 6570,
      "conv8": 6571,
      "i152": 6572,
      "inp": 6573,
      "type13": 6574,
      "then64": 6575,
      "BFD_RELOC_PPC_": 6576,
      "BFD_RELOC_IA": 6577,
      "end83": 6578,
      "end105": 6579,
      "auxent": 6580,
      "avail_out": 6581,
      "i220": 6582,
      "rl": 6583,
      "2273": 6584,
      "3648": 6585,
      "i72": 6586,
      "idate": 6587,
      "s_used": 6588,
      "016": 6589,
      "2567": 6590,
      "ati": 6591,
      "category": 6592,
      "GO": 6593,
      "2147483": 6594,
      "HW": 6595,
      "2697": 6596,
      "3068": 6597,
      "sub16": 6598,
      "i203": 6599,
      "(*": 6600,
      "024": 6601,
      "6251": 6602,
      "Elf32_External_Ehdr": 6603,
      "Elf64_External_Ehdr": 6604,
      "4729": 6605,
      "4273": 6606,
      "call42": 6607,
      "s_unlocked": 6608,
      "i190": 6609,
      "re_fail": 6610,
      "filedata": 6611,
      "2186": 6612,
      "re_fail_stack": 6613,
      "2695": 6614,
      "2672": 6615,
      "pc_relative": 6616,
      "Fwd": 6617,
      "DIFlagFwd": 6618,
      "drb": 6619,
      "Decl": 6620,
      "DIFlagFwdDecl": 6621,
      "1872": 6622,
      "2271": 6623,
      "noreturn": 6624,
      "recurse": 6625,
      "1781": 6626,
      "top_": 6627,
      "str_idx": 6628,
      "2343": 6629,
      "end111": 6630,
      "1916": 6631,
      "2403": 6632,
      "row": 6633,
      "69529": 6634,
      "Sy": 6635,
      "_ar": 6636,
      "_add": 6637,
      "2241": 6638,
      "2281": 6639,
      "tent": 6640,
      "5762": 6641,
      "argp_child": 6642,
      "_to_howto": 6643,
      "call43": 6644,
      "2727": 6645,
      "3840": 6646,
      "__c": 6647,
      "2071": 6648,
      "2698": 6649,
      "3472": 6650,
      "i224": 6651,
      "cand": 6652,
      "2856": 6653,
      "candidate": 6654,
      "tobool14": 6655,
      "amt": 6656,
      "}*": 6657,
      "end86": 6658,
      "flush_pending": 6659,
      "cep": 6660,
      "2837": 6661,
      "end102": 6662,
      "elt_": 6663,
      "2461": 6664,
      "sh_offset": 6665,
      "4707": 6666,
      "_getopt_data": 6667,
      "try_": 6668,
      "2666": 6669,
      "85282": 6670,
      "2808": 6671,
      "35569": 6672,
      "PARC_": 6673,
      "3007": 6674,
      "2674": 6675,
      "sg": 6676,
      "sprintf": 6677,
      "newfunc": 6678,
      "_hex": 6679,
      "store_ctx_st": 6680,
      "4508": 6681,
      "else733": 6682,
      "i119": 6683,
      "end62": 6684,
      "2947": 6685,
      "wordsplit": 6686,
      "2573": 6687,
      "nce": 6688,
      "iostream": 6689,
      "3148": 6690,
      "7183": 6691,
      "options_from": 6692,
      "quoting_options_from": 6693,
      "ignore_": 6694,
      "quoting_options_from_style": 6695,
      "i174": 6696,
      "boo": 6697,
      "3082": 6698,
      "1791": 6699,
      "2884": 6700,
      "i162": 6701,
      "byteorder": 6702,
      "2977": 6703,
      "nslot": 6704,
      "2189": 6705,
      "curr": 6706,
      "DWAR": 6707,
      "3069": 6708,
      "DWARF": 6709,
      "FO": 6710,
      "line_filepos": 6711,
      "2980": 6712,
      "mac": 6713,
      "st_ino": 6714,
      "2733": 6715,
      "2877": 6716,
      "then61": 6717,
      "_inc": 6718,
      "usage": 6719,
      "end345": 6720,
      "_fre": 6721,
      "2878": 6722,
      "i197": 6723,
      "call51": 6724,
      "1961": 6725,
      "2014": 6726,
      "then85": 6727,
      "next40": 6728,
      "bb18": 6729,
      "Bas": 6730,
      "3048": 6731,
      "5925": 6732,
      "skip": 6733,
      "3078": 6734,
      "bb7": 6735,
      "_IDENTIFICATION": 6736,
      "_NL_N": 6737,
      "_NL_IDENTIFICATION": 6738,
      "einfo": 6739,
      "end92": 6740,
      "70842": 6741,
      "highe": 6742,
      "039": 6743,
      "2955": 6744,
      "_mode": 6745,
      "3171": 6746,
      "Basic": 6747,
      "29472": 6748,
      "2171": 6749,
      "45909": 6750,
      "total_": 6751,
      "4149": 6752,
      "5750": 6753,
      "72033": 6754,
      "4212": 6755,
      "executable": 6756,
      "3441": 6757,
      "i222": 6758,
      "1891": 6759,
      "_sty": 6760,
      "chars": 6761,
      "descpos": 6762,
      "i173": 6763,
      "DIBasic": 6764,
      "DIBasicType": 6765,
      "1501": 6766,
      "field": 6767,
      "cmp50": 6768,
      "nbytes": 6769,
      "2667": 6770,
      "76006": 6771,
      "atible": 6772,
      "then100": 6773,
      "tobool16": 6774,
      "aouthdr_": 6775,
      "71242": 6776,
      "seq": 6777,
      "then69": 6778,
      "private_bfd_data": 6779,
      "2329": 6780,
      "2834": 6781,
      "IMA": 6782,
      "2786": 6783,
      "5751": 6784,
      "}>,": 6785,
      "sec_info_type": 6786,
      "bufp": 6787,
      "3235": 6788,
      "X509_algor": 6789,
      "X509_algor_st": 6790,
      "ong": 6791,
      "cmp52": 6792,
      "cmp51": 6793,
      "3180": 6794,
      "dummy_": 6795,
      "9105": 6796,
      "col": 6797,
      "cmp56": 6798,
      "4224": 6799,
      "conv9": 6800,
      "10000": 6801,
      "7431": 6802,
      "mline": 6803,
      "vt": 6804,
      "2902": 6805,
      "2694": 6806,
      "2855": 6807,
      "arrayidx5": 6808,
      "0E": 6809,
      "i116": 6810,
      "6939": 6811,
      "69551": 6812,
      "true3": 6813,
      "2178": 6814,
      "extractelement": 6815,
      "raw_syment": 6816,
      "limit": 6817,
      "nn": 6818,
      "mpz_": 6819,
      "2323": 6820,
      "highest": 6821,
      "arrayidx9": 6822,
      "nown": 6823,
      "i177": 6824,
      "2262": 6825,
      "6009": 6826,
      "59181": 6827,
      "node_idx": 6828,
      "i89": 6829,
      "nno": 6830,
      "335544": 6831,
      "secinfo": 6832,
      "sec_merge_sec_info": 6833,
      "iters": 6834,
      "plus_": 6835,
      "call48": 6836,
      "2708": 6837,
      "71382": 6838,
      "true1": 6839,
      "51184": 6840,
      "6263": 6841,
      "NT": 6842,
      "ror": 6843,
      "_bfd_make_": 6844,
      "2177": 6845,
      "x509_store_ctx_st": 6846,
      "i101": 6847,
      "2576": 6848,
      "x86_fp": 6849,
      "x86_fp80": 6850,
      "_bfd_write_": 6851,
      "5243": 6852,
      "i154": 6853,
      "end542": 6854,
      "3164": 6855,
      "041": 6856,
      "3264": 6857,
      "70193": 6858,
      "2143": 6859,
      "032": 6860,
      "1616": 6861,
      "2898": 6862,
      "p_file": 6863,
      "highest_data": 6864,
      "`%": 6865,
      "2362": 6866,
      "4730": 6867,
      "CRYPTO_": 6868,
      "1581": 6869,
      "2966": 6870,
      "served": 6871,
      "ount": 6872,
      "70301": 6873,
      "amount": 6874,
      "user_": 6875,
      "by_name": 6876,
      "24817": 6877,
      "TIME": 6878,
      "with_flags": 6879,
      "RS": 6880,
      "i194": 6881,
      "i161": 6882,
      "asn1_type": 6883,
      "85304": 6884,
      "end143": 6885,
      "5757": 6886,
      "({": 6887,
      "2421": 6888,
      "_mp_d": 6889,
      "i131": 6890,
      "2352": 6891,
      "2809": 6892,
      "5748": 6893,
      "247411": 6894,
      "arch_mach": 6895,
      "fputs_unlocked": 6896,
      "changed": 6897,
      "i144": 6898,
      "authtab": 6899,
      "036": 6900,
      "2952": 6901,
      "5768": 6902,
      "p_filesz": 6903,
      "hp": 6904,
      "2525": 6905,
      "2686": 6906,
      "shell": 6907,
      "cry": 6908,
      "i178": 6909,
      "i263": 6910,
      "i168": 6911,
      "dirstream": 6912,
      "2314": 6913,
      "call44": 6914,
      "i21": 6915,
      "regexp": 6916,
      "asn1_type_st": 6917,
      "i231": 6918,
      "1571": 6919,
      "5743": 6920,
      "unu": 6921,
      "BFD_RELOC_SPARC_": 6922,
      "43121": 6923,
      "then92": 6924,
      "bb296": 6925,
      "mu": 6926,
      "2910": 6927,
      "6336": 6928,
      "debug_info": 6929,
      ",\\": 6930,
      "gc": 6931,
      "2742": 6932,
      "3064": 6933,
      "CTX_": 6934,
      "3088": 6935,
      "argv0": 6936,
      "2198": 6937,
      "extra_": 6938,
      "CC": 6939,
      "5952": 6940,
      "long_": 6941,
      "2081": 6942,
      "magic": 6943,
      "i244": 6944,
      "alt_": 6945,
      "cond2": 6946,
      "bn_": 6947,
      "__dirstream": 6948,
      "nslots": 6949,
      "2903": 6950,
      "5761": 6951,
      "2316": 6952,
      "2986": 6953,
      "2963": 6954,
      "3762": 6955,
      "cmp64": 6956,
      "i180": 6957,
      "nca": 6958,
      "2725": 6959,
      "bra": 6960,
      "next_entry": 6961,
      "BFD_RELOC_SH": 6962,
      ".*)\\": 6963,
      "drs": 6964,
      "017": 6965,
      "ws": 6966,
      "2493": 6967,
      "i204": 6968,
      "sure": 6969,
      "2626": 6970,
      "6144": 6971,
      "3244": 6972,
      "end100": 6973,
      "tobool12": 6974,
      "i187": 6975,
      "2953": 6976,
      "2904": 6977,
      "_comdat": 6978,
      "cmp45": 6979,
      "i236": 6980,
      "2142": 6981,
      "_IS": 6982,
      "10806": 6983,
      "1401": 6984,
      "end157": 6985,
      "2720": 6986,
      "esym": 6987,
      "3049": 6988,
      "abbrev_info": 6989,
      "wrap": 6990,
      "tring": 6991,
      "global_": 6992,
      "fwrite": 6993,
      "i179": 6994,
      "then79": 6995,
      "DATA": 6996,
      "3108": 6997,
      "4266": 6998,
      "6397": 6999,
      "5746": 7000,
      "6516": 7001,
      "4480": 7002,
      "doc": 7003,
      "end172": 7004,
      "2976": 7005,
      "phdrs": 7006,
      "dyno": 7007,
      "6213": 7008,
      "dynobj": 7009,
      "then62": 7010,
      "2149": 7011,
      "()*": 7012,
      "verse": 7013,
      "2894": 7014,
      "then78": 7015,
      "29889": 7016,
      "3584": 7017,
      "5755": 7018,
      "_section_by_name": 7019,
      "eh_frame_": 7020,
      "elf_x86_link_hash_entry": 7021,
      "bb20": 7022,
      "i139": 7023,
      "3822": 7024,
      "6511": 7025,
      "tobool30": 7026,
      "numa": 7027,
      "_signal": 7028,
      "drbg": 7029,
      "3137": 7030,
      "i193": 7031,
      "_unlocked": 7032,
      "true138": 7033,
      "bb179": 7034,
      "lict": 7035,
      "decvt": 7036,
      "_codecvt": 7037,
      "work": 7038,
      "wide_data": 7039,
      "015": 7040,
      "ous": 7041,
      "seu": 7042,
      "4031": 7043,
      "elf_sect_ptr": 7044,
      "bfd_putl": 7045,
      "035": 7046,
      "9252": 7047,
      "i129": 7048,
      "1921": 7049,
      "2391": 7050,
      "have_": 7051,
      "10649": 7052,
      "left14": 7053,
      "numaux": 7054,
      "ty": 7055,
      "conflict": 7056,
      "16384": 7057,
      "2644": 7058,
      "empty_": 7059,
      "1861": 7060,
      "2887": 7061,
      "then58": 7062,
      "true187": 7063,
      "desc_": 7064,
      "input_section": 7065,
      "3817": 7066,
      "4288": 7067,
      "2531": 7068,
      "mb_cur_": 7069,
      "ORY": 7070,
      "mb_cur_max": 7071,
      "3254": 7072,
      "2745": 7073,
      "2896": 7074,
      "_bfd_slurp_": 7075,
      "call55": 7076,
      "2784": 7077,
      "5741": 7078,
      "bfd_h_getx64": 7079,
      "65536": 7080,
      "nature": 7081,
      "1981": 7082,
      "fd_": 7083,
      "try": 7084,
      "body18": 7085,
      "_pid": 7086,
      "rsrc_resource_": 7087,
      "right17": 7088,
      "rsrc_resource_name": 7089,
      "3149": 7090,
      "LAS": 7091,
      "2631": 7092,
      "2845": 7093,
      "MP": 7094,
      "V_": 7095,
      "i126": 7096,
      "then74": 7097,
      "second": 7098,
      "1601": 7099,
      "2802": 7100,
      "3037": 7101,
      "5747": 7102,
      "2994": 7103,
      "array_": 7104,
      "2111": 7105,
      "1621": 7106,
      "2885": 7107,
      "34376": 7108,
      "rand_": 7109,
      "Major": 7110,
      "2706": 7111,
      "Minor": 7112,
      "1941": 7113,
      "upp": 7114,
      "2641": 7115,
      "Elf32_External_Phdr": 7116,
      "Elf64_External_Phdr": 7117,
      "4275": 7118,
      "120362": 7119,
      "broad": 7120,
      "24860": 7121,
      "broadcast": 7122,
      "4608": 7123,
      "26144": 7124,
      "2886": 7125,
      "print_symbol": 7126,
      "253942": 7127,
      "_mp_size": 7128,
      "25696": 7129,
      "*)*)*,": 7130,
      "conv13": 7131,
      "true142": 7132,
      "body36": 7133,
      "cket_": 7134,
      "3968": 7135,
      "*>": 7136,
      "i188": 7137,
      "2021": 7138,
      "memory_": 7139,
      "i207": 7140,
      "i238": 7141,
      "ix_": 7142,
      "2492": 7143,
      "2993": 7144,
      "26652": 7145,
      "bfd_hash_": 7146,
      "4118": 7147,
      "2846": 7148,
      "29457": 7149,
      "elfcore_write_": 7150,
      "1510": 7151,
      "3054": 7152,
      "_statement_": 7153,
      "i183": 7154,
      "4416": 7155,
      "and5": 7156,
      "1841": 7157,
      "end106": 7158,
      "_loc": 7159,
      "true191": 7160,
      "_new": 7161,
      "end127": 7162,
      "call41": 7163,
      "i230": 7164,
      "bb29": 7165,
      "4706": 7166,
      "end90": 7167,
      "2042": 7168,
      "3096": 7169,
      "carsym": 7170,
      "cplus_": 7171,
      "setlocale_": 7172,
      "_data_list": 7173,
      "undefined_": 7174,
      "ibt_": 7175,
      "setlocale_null": 7176,
      "24861": 7177,
      "27276": 7178,
      "rva": 7179,
      "5315": 7180,
      "high_pc": 7181,
      "field_": 7182,
      "2876": 7183,
      "50372": 7184,
      "deps": 7185,
      "cmp62": 7186,
      "debug_section": 7187,
      "i260": 7188,
      "ped": 7189,
      "backup_": 7190,
      "000000": 7191,
      "266271": 7192,
      "_input_": 7193,
      "ests": 7194,
      "51540": 7195,
      "1911": 7196,
      "3138": 7197,
      "2645": 7198,
      "bfd_h_putx64": 7199,
      "extension": 7200,
      "brea": 7201,
      "op_": 7202,
      "2606": 7203,
      "end93": 7204,
      "59512": 7205,
      "i_ehdr": 7206,
      "str_tree_storage_idx": 7207,
      "one_": 7208,
      "2483": 7209,
      "Info_st": 7210,
      "i253": 7211,
      "top": 7212,
      "4800": 7213,
      "BFD_RELOC_IA64_": 7214,
      "2001": 7215,
      "4091": 7216,
      "bb184": 7217,
      "2743": 7218,
      "3169": 7219,
      "3089": 7220,
      "then60": 7221,
      "check_relocs": 7222,
      "i288": 7223,
      "_spacep": 7224,
      "_spacepad": 7225,
      "3811": 7226,
      "5764": 7227,
      "is_right_quote": 7228,
      "outer_quoting_style": 7229,
      "force_outer_quoting_style": 7230,
      "UM_": 7231,
      "2051": 7232,
      "3476": 7233,
      "2181": 7234,
      "_GSList": 7235,
      "i248": 7236,
      "2925": 7237,
      "i163": 7238,
      "2192": 7239,
      "GE_": 7240,
      "srel": 7241,
      "2302": 7242,
      "3473": 7243,
      "get_DW_": 7244,
      "archive_head": 7245,
      "want_": 7246,
      "true286": 7247,
      "230062": 7248,
      "CKCORE": 7249,
      "3190": 7250,
      "1711": 7251,
      "NU": 7252,
      "i175": 7253,
      "6464": 7254,
      "ptr3": 7255,
      "6016": 7256,
      "4_": 7257,
      "14877": 7258,
      "i209": 7259,
      "6400": 7260,
      "date_": 7261,
      "jump": 7262,
      "bfd_section_already_linked": 7263,
      "ui": 7264,
      "lang_input": 7265,
      "3187": 7266,
      "_finish_": 7267,
      "DTPREL": 7268,
      "2463": 7269,
      "_GE": 7270,
      "cmp58": 7271,
      "2655": 7272,
      "2603": 7273,
      "3016": 7274,
      "EXTRA_": 7275,
      "3128": 7276,
      "2705": 7277,
      "2002": 7278,
      "decode": 7279,
      "6112": 7280,
      "cmp55": 7281,
      "armap_timestamp": 7282,
      "5153": 7283,
      "rd": 7284,
      "2201": 7285,
      "ssl_ciph": 7286,
      "124628": 7287,
      "_style_": 7288,
      "EH_": 7289,
      "line_number": 7290,
      "4672": 7291,
      "bla": 7292,
      "3110": 7293,
      "2602": 7294,
      "3104": 7295,
      "call49": 7296,
      "version_etc_": 7297,
      "vda": 7298,
      "body146": 7299,
      "splat": 7300,
      "1771": 7301,
      "2724": 7302,
      "2646": 7303,
      "_NL_CTYPE_EXTRA_": 7304,
      "_NL_CTYPE_EXTRA_MAP_": 7305,
      "dynamic_sections": 7306,
      "5654": 7307,
      "regist": 7308,
      "12905": 7309,
      "2011": 7310,
      "compressed_size": 7311,
      "nid": 7312,
      "128592": 7313,
      "lex": 7314,
      "12303": 7315,
      "ec_key_st": 7316,
      "way": 7317,
      "dwarf_vmatoa_": 7318,
      "i305": 7319,
      "4160": 7320,
      "2975": 7321,
      "r_symndx": 7322,
      "close_": 7323,
      "IPS_": 7324,
      "}>*": 7325,
      "**),": 7326,
      "prstat": 7327,
      "lazy_ibt_": 7328,
      "bfd_getl_signed_": 7329,
      "209407": 7330,
      "2825": 7331,
      "2012": 7332,
      "_IO_read_ptr": 7333,
      "i141": 7334,
      "i301": 7335,
      "cmp72": 7336,
      "76175": 7337,
      "194825": 7338,
      "protected": 7339,
      "inser": 7340,
      "BFD_RELOC_TILEGX_IMM16_X": 7341,
      "(<{": 7342,
      "8131": 7343,
      "maybe_": 7344,
      "2905": 7345,
      "13317": 7346,
      "2703": 7347,
      "this": 7348,
      "exclude": 7349,
      "far": 7350,
      "hunk": 7351,
      "PO": 7352,
      "2614": 7353,
      "unc_": 7354,
      "non_lazy_plt": 7355,
      "EH_PE": 7356,
      "3067": 7357,
      "3094": 7358,
      "end114": 7359,
      "then68": 7360,
      "6656": 7361,
      "ly_": 7362,
      "3056": 7363,
      "_info_st": 7364,
      "119346": 7365,
      "118290": 7366,
      "2015": 7367,
      "6530": 7368,
      "i249": 7369,
      "*]": 7370,
      "i211": 7371,
      "te_section": 7372,
      "127323": 7373,
      "true16": 7374,
      "p_align": 7375,
      "130481": 7376,
      "6032": 7377,
      "ed_directory": 7378,
      "is_linked_directory": 7379,
      "7720": 7380,
      "shr4": 7381,
      "outsymbols": 7382,
      "196958": 7383,
      "cond18": 7384,
      "107255": 7385,
      "line_info_table": 7386,
      "get_DW_EH_PE": 7387,
      "get_DW_EH_PE_width": 7388,
      "223032": 7389,
      "trunca": 7390,
      "tobool15": 7391,
      "2126": 7392,
      "conv10": 7393,
      "3103": 7394,
      "false601": 7395,
      "cmp86": 7396,
      "2996": 7397,
      "optarg": 7398,
      "224227": 7399,
      ".);\\": 7400,
      "Context": 7401,
      "3097": 7402,
      "BFD_RELOC_CKCORE": 7403,
      "_o": 7404,
      "memsz": 7405,
      "i156": 7406,
      "i281": 7407,
      "52086": 7408,
      "17504": 7409,
      "arrayidx14": 7410,
      "i257": 7411,
      "relptr": 7412,
      "37033": 7413,
      "pending_out": 7414,
      "224088": 7415,
      "2401": 7416,
      "arrayidx10": 7417,
      "3101": 7418,
      "end151": 7419,
      "9313": 7420,
      "load_": 7421,
      "7182": 7422,
      "ws_": 7423,
      "call47": 7424,
      "225100": 7425,
      "acter": 7426,
      "prefix_": 7427,
      "2967": 7428,
      "6208": 7429,
      "3038": 7430,
      "body16": 7431,
      "166737": 7432,
      "i221": 7433,
      "on_": 7434,
      "mbchar": 7435,
      "tobool17": 7436,
      "2191": 7437,
      "i279": 7438,
      "2766": 7439,
      "bb14": 7440,
      "p_memsz": 7441,
      "insertelement": 7442,
      "call63": 7443,
      "233328": 7444,
      "sofar": 7445,
      "cmp53": 7446,
      "6080": 7447,
      "bfd_get_section_by_name": 7448,
      "030": 7449,
      "i164": 7450,
      "conv12": 7451,
      "urem": 7452,
      "cy": 7453,
      "15693": 7454,
      "bb15": 7455,
      "end95": 7456,
      "_tls": 7457,
      "next_out": 7458,
      "bb310": 7459,
      "226548": 7460,
      "groups": 7461,
      "5771": 7462,
      "2642": 7463,
      "i202": 7464,
      "end124": 7465,
      "2623": 7466,
      "i338": 7467,
      "3004": 7468,
      "cleanup422": 7469,
      "BFD_RELOC_AARCH64_TLS": 7470,
      "3107": 7471,
      "cmp76": 7472,
      "2633": 7473,
      "lang_statement_": 7474,
      "elfclass": 7475,
      "23110": 7476,
      "set_section_contents": 7477,
      "xstr": 7478,
      "end683": 7479,
      "rodata": 7480,
      "d_append_string": 7481,
      "ADDRES": 7482,
      "ADDRESS_": 7483,
      "3150": 7484,
      "msec": 7485,
      "blk": 7486,
      "1410": 7487,
      "bfd_build_id": 7488,
      "5798": 7489,
      "false291": 7490,
      "tobool19": 7491,
      "4544": 7492,
      "i277": 7493,
      "6488": 7494,
      "unsigned": 7495,
      "2462": 7496,
      "5632": 7497,
      "sub22": 7498,
      "bb12": 7499,
      "3470": 7500,
      "i276": 7501,
      "tach": 7502,
      "1816": 7503,
      "2563": 7504,
      "49842": 7505,
      "scnhdr": 7506,
      "i299": 7507,
      "3160": 7508,
      "sort_": 7509,
      "program_header": 7510,
      "regions": 7511,
      "areltdata": 7512,
      "objalloc_chunk": 7513,
      "_bfd_ar_spacepad": 7514,
      "true5": 7515,
      "malloc_": 7516,
      "292388": 7517,
      "TEMP": 7518,
      "CIP": 7519,
      "1741": 7520,
      "bfd_seek": 7521,
      "nop_": 7522,
      "arrayidx28": 7523,
      "_IO_read_end": 7524,
      "7597": 7525,
      "false5": 7526,
      "298541": 7527,
      "302841": 7528,
      "_hex_value": 7529,
      "3259": 7530,
      "end116": 7531,
      "2611": 7532,
      "5120": 7533,
      "5184": 7534,
      "fil": 7535,
      "i250": 7536,
      "signal": 7537,
      "cmp54": 7538,
      "call45": 7539,
      "then109": 7540,
      "call66": 7541,
      "2721": 7542,
      "26492": 7543,
      "51635": 7544,
      "BFD_RELOC_ARC_": 7545,
      "break": 7546,
      "'\\": 7547,
      "2041": 7548,
      "statement": 7549,
      "update_": 7550,
      "2442": 7551,
      "then70": 7552,
      "6976": 7553,
      "29084": 7554,
      "nnel": 7555,
      "4819": 7556,
      "LE_": 7557,
      "dtor": 7558,
      "32471": 7559,
      "2798": 7560,
      "program_name": 7561,
      "internal_auxent": 7562,
      "ify_": 7563,
      "1910": 7564,
      "1813": 7565,
      "3417": 7566,
      "sequence": 7567,
      "3702": 7568,
      "2647": 7569,
      "254010": 7570,
      "then108": 7571,
      "26869": 7572,
      "pkcs7": 7573,
      "3344": 7574,
      "2585": 7575,
      "2775": 7576,
      "orted": 7577,
      "254291": 7578,
      "6272": 7579,
      "2945": 7580,
      "235121": 7581,
      "max_bucket_length": 7582,
      "i292": 7583,
      "42348": 7584,
      "change_": 7585,
      "YMB": 7586,
      "StateCheck": 7587,
      "TEMPLATE": 7588,
      "2342": 7589,
      "sym_hashes": 7590,
      "3083": 7591,
      "itional_": 7592,
      "12924": 7593,
      "x_ehdr": 7594,
      "write_data": 7595,
      "_create": 7596,
      "build": 7597,
      "final_": 7598,
      "INFO": 7599,
      "retur": 7600,
      "i298": 7601,
      "i269": 7602,
      "6017": 7603,
      "then94": 7604,
      "VIDE": 7605,
      "i226": 7606,
      "pr_stack": 7607,
      "cmp63": 7608,
      "7040": 7609,
      "true11": 7610,
      "_special_": 7611,
      "5056": 7612,
      "then89": 7613,
      "2524": 7614,
      "56255": 7615,
      "PROVIDE": 7616,
      "3175": 7617,
      "end104": 7618,
      "72022": 7619,
      "5350": 7620,
      "t_data": 7621,
      "lang_statement_union": 7622,
      "KCS": 7623,
      "_lookup": 7624,
      "i285": 7625,
      "n_entries": 7626,
      "virtu": 7627,
      "i206": 7628,
      "then102": 7629,
      "sh_name": 7630,
      "50477": 7631,
      "49851": 7632,
      "51126": 7633,
      "Elf_External_Versym": 7634,
      "4864": 7635,
      "prstatus": 7636,
      "tobool616": 7637,
      "_NL_ADDRESS_": 7638,
      "valref": 7639,
      "2776": 7640,
      "2828": 7641,
      "blocks": 7642,
      "6507": 7643,
      "1613": 7644,
      "sym_ptr_ptr": 7645,
      "CRYPTO": 7646,
      "discard_": 7647,
      "2965": 7648,
      "2593": 7649,
      "5207": 7650,
      "i192": 7651,
      "i170": 7652,
      "body11": 7653,
      "048": 7654,
      "3792": 7655,
      "78469": 7656,
      "6592": 7657,
      "PH": 7658,
      "(\\": 7659,
      "3118": 7660,
      "2533": 7661,
      "DEBU": 7662,
      "LOT": 7663,
      "true10": 7664,
      "elf_x86_plt": 7665,
      "byte_idx": 7666,
      "4977": 7667,
      "function_": 7668,
      "neare": 7669,
      "lt_": 7670,
      "ptr9": 7671,
      "inc19": 7672,
      "call50": 7673,
      "bio_": 7674,
      "i171": 7675,
      "2311": 7676,
      "cmp65": 7677,
      "6784": 7678,
      "with_arg": 7679,
      "i15": 7680,
      "3796": 7681,
      "3146": 7682,
      "Ke": 7683,
      "VER": 7684,
      "3813": 7685,
      "false9": 7686,
      "conv11": 7687,
      "5248": 7688,
      "i262": 7689,
      "3805": 7690,
      "4992": 7691,
      "processing": 7692,
      "ptr7": 7693,
      "true8": 7694,
      "hasher": 7695,
      "end121": 7696,
      "bfd_zalloc": 7697,
      "nondef": 7698,
      "object_": 7699,
      "nondeflt_": 7700,
      "tables": 7701,
      "bb22": 7702,
      "true18": 7703,
      "i316": 7704,
      "33036": 7705,
      "2481": 7706,
      "1914": 7707,
      "2542": 7708,
      "_GOTP": 7709,
      "nearest_": 7710,
      "conv21": 7711,
      "plica": 7712,
      "ar_hdr_fn": 7713,
      "File": 7714,
      "pkey": 7715,
      "elf_internal_verdaux": 7716,
      "ASN1_TEMPLATE": 7717,
      "notice_": 7718,
      "ASN1_TEMPLATE_st": 7719,
      "56876": 7720,
      "ImageBase": 7721,
      "6720": 7722,
      "_GString": 7723,
      "2682": 7724,
      "4424": 7725,
      "safe_": 7726,
      "4333": 7727,
      "preg": 7728,
      "2804": 7729,
      "then57": 7730,
      "conv445": 7731,
      "2830": 7732,
      "method_": 7733,
      "3119": 7734,
      "2648": 7735,
      "_ent_t": 7736,
      "re_fail_stack_ent_t": 7737,
      "time_": 7738,
      "3195": 7739,
      "5376": 7740,
      "2829": 7741,
      "_insert": 7742,
      "arelt_data": 7743,
      "TS_": 7744,
      "i195": 7745,
      "i323": 7746,
      "2441": 7747,
      "_obstack": 7748,
      "i246": 7749,
      "2874": 7750,
      "stash": 7751,
      "exit6": 7752,
      "sec_merge_hash": 7753,
      "ify": 7754,
      "2895": 7755,
      "body50": 7756,
      "table_entry": 7757,
      "dynsymcount": 7758,
      "pkt": 7759,
      "033": 7760,
      "tobool29": 7761,
      "i282": 7762,
      "line_ptr": 7763,
      "cleanup1353": 7764,
      "37632": 7765,
      "i295": 7766,
      "arrayidx18": 7767,
      "_prev": 7768,
      "in1": 7769,
      "3957": 7770,
      "_names": 7771,
      "object_p": 7772,
      "i196": 7773,
      "cmp67": 7774,
      "unused": 7775,
      "X86_": 7776,
      "end89": 7777,
      "3827": 7778,
      "i227": 7779,
      "2867": 7780,
      "3085": 7781,
      "_sch_": 7782,
      "34829": 7783,
      "bfd_getb": 7784,
      "i208": 7785,
      "then75": 7786,
      "phi6": 7787,
      "237189": 7788,
      "quotearg_buffer": 7789,
      "3808": 7790,
      "cat": 7791,
      "elf_external_": 7792,
      "elf_external_linux_prpsinfo": 7793,
      "2812": 7794,
      "3087": 7795,
      "cond49": 7796,
      "bi_buf": 7797,
      "5440": 7798,
      "DIRECTORY": 7799,
      "3086": 7800,
      "i191": 7801,
      "2765": 7802,
      "2941": 7803,
      "2892": 7804,
      "3758": 7805,
      "input_bfds": 7806,
      "cmd_argument": 7807,
      "3174": 7808,
      "vis": 7809,
      "242150": 7810,
      "_INT_": 7811,
      "parser_control": 7812,
      "3258": 7813,
      "pred": 7814,
      "re_sub_": 7815,
      "re_sub_match_": 7816,
      "236177": 7817,
      "2031": 7818,
      "namesz": 7819,
      "wrap_": 7820,
      "call60": 7821,
      "mach_o": 7822,
      "nsec": 7823,
      "xfree": 7824,
      "unknown": 7825,
      "236316": 7826,
      "_GOTOFF": 7827,
      "34320": 7828,
      "false_error": 7829,
      "with_arg_f": 7830,
      "3170": 7831,
      "238637": 7832,
      "35451": 7833,
      "_inner": 7834,
      "_Chunk": 7835,
      "tion_": 7836,
      "2847": 7837,
      "F_VALUE": 7838,
      "i189": 7839,
      "i228": 7840,
      "i181": 7841,
      "end76": 7842,
      "...)*": 7843,
      "1814": 7844,
      "245421": 7845,
      ">\\": 7846,
      "cert_st": 7847,
      "multiple_": 7848,
      "i324": 7849,
      "2315": 7850,
      "body21": 7851,
      "_IO_write_": 7852,
      "strcaseeq": 7853,
      "_IO_write_base": 7854,
      "2956": 7855,
      "proc": 7856,
      "2920": 7857,
      "3047": 7858,
      "elf_machine": 7859,
      "_IO_save_base": 7860,
      "_initial": 7861,
      "call_": 7862,
      "2625": 7863,
      "2882": 7864,
      "26822": 7865,
      "i234": 7866,
      "d_print_comp_inner": 7867,
      "templates": 7868,
      "4199": 7869,
      "i254": 7870,
      "invalid": 7871,
      "compar": 7872,
      "wil": 7873,
      "symver": 7874,
      "_clo": 7875,
      "42351": 7876,
      "bfd_strtab": 7877,
      "body6": 7878,
      "33038": 7879,
      "bfd_strtab_hash": 7880,
      "cb": 7881,
      "ong_": 7882,
      "end120": 7883,
      "orph": 7884,
      "true14": 7885,
      "template_": 7886,
      "glib": 7887,
      "3819": 7888,
      "58356": 7889,
      "TLS_G": 7890,
      "written": 7891,
      "OBJ": 7892,
      "dh": 7893,
      "1971": 7894,
      "2392": 7895,
      "38062": 7896,
      "i317": 7897,
      "i302": 7898,
      "bfd_link_order_": 7899,
      "bfd_link_order_reloc": 7900,
      "3135": 7901,
      "dwarf1_": 7902,
      "lru_next": 7903,
      "i331": 7904,
      "SSL_": 7905,
      "3044": 7906,
      "cleanup375": 7907,
      "d_print_template": 7908,
      "*)\\": 7909,
      "3177": 7910,
      "ptr5": 7911,
      "3909": 7912,
      "7830": 7913,
      "BFD_RELOC_ME": 7914,
      "DEBUG_": 7915,
      "3168": 7916,
      "3055": 7917,
      "convert_": 7918,
      "i322": 7919,
      "end110": 7920,
      "i330": 7921,
      "pu": 7922,
      "i267": 7923,
      "2221": 7924,
      "cmp70": 7925,
      "2827": 7926,
      "true74": 7927,
      "77693": 7928,
      "i270": 7929,
      "2927": 7930,
      "3698": 7931,
      "_number": 7932,
      "2842": 7933,
      "bfd_bread": 7934,
      "5696": 7935,
      "i293": 7936,
      "32323": 7937,
      "end139": 7938,
      "3084": 7939,
      "67686": 7940,
      "304702": 7941,
      "310628": 7942,
      "ving_": 7943,
      "tobool55": 7944,
      "arrayidx16": 7945,
      "section_htab": 7946,
      "i210": 7947,
      "dot": 7948,
      "316005": 7949,
      "ge_p": 7950,
      "then88": 7951,
      "_bfd_pe": 7952,
      "_space": 7953,
      "bfd_putx64": 7954,
      "bb13": 7955,
      "ndx_": 7956,
      "2685": 7957,
      "i272": 7958,
      "2572": 7959,
      "raw_syment_count": 7960,
      "lang_input_statement_struct": 7961,
      "form": 7962,
      "1817": 7963,
      "1821": 7964,
      "putc": 7965,
      "orphan": 7966,
      "_bfd_get_dynamic_": 7967,
      "Main": 7968,
      "conv15": 7969,
      "224322": 7970,
      "CODE": 7971,
      "106931": 7972,
      "ptr17": 7973,
      "2681": 7974,
      "native_": 7975,
      "2382": 7976,
      "end80": 7977,
      "iv40": 7978,
      "_bfd_define": 7979,
      "3126": 7980,
      "i213": 7981,
      "ossl": 7982,
      "end213": 7983,
      "3660": 7984,
      "false1497": 7985,
      "dynamic_list": 7986,
      "3117": 7987,
      "fcmp": 7988,
      "flinfo": 7989,
      "i223": 7990,
      "wmargin": 7991,
      "3469": 7992,
      "__ALTMON_": 7993,
      "_NL_AB": 7994,
      "233562": 7995,
      "ABMON_": 7996,
      "_NL_WMON_": 7997,
      "_NL_WALTMON_": 7998,
      "coff_link_hash_table": 7999,
      "_NL_WABMON_": 8000,
      "_NL_WABALTMON_": 8001,
      "_NL_NUM_": 8002,
      "_NL_IDENTIFICATION_": 8003,
      "_NL_ABALTMON_": 8004,
      "_NL_NUM_L": 8005,
      "call70": 8006,
      "%..": 8007,
      "pef_": 8008,
      "i327": 8009,
      "env": 8010,
      "not_": 8011,
      "elf_link_local_": 8012,
      "multiple_definition": 8013,
      "elf_link_local_dynamic_entry": 8014,
      "5688": 8015,
      "aug": 8016,
      "construct_": 8017,
      "preserve": 8018,
      "v3_ext_method": 8019,
      "3114": 8020,
      "3186": 8021,
      "CKE": 8022,
      "ay": 8023,
      "3403": 8024,
      "226782": 8025,
      "DIR": 8026,
      "then76": 8027,
      "conf_": 8028,
      "230296": 8029,
      "reserved": 8030,
      "5568": 8031,
      "223266": 8032,
      "2219": 8033,
      "27602": 8034,
      "225334": 8035,
      "call61": 8036,
      "5708": 8037,
      "3124": 8038,
      "i245": 8039,
      "224461": 8040,
      "lru_prev": 8041,
      "SIZE": 8042,
      "thin_": 8043,
      "body76": 8044,
      "_fir": 8045,
      "regmatch": 8046,
      "8108": 8047,
      "asect": 8048,
      "redu": 8049,
      "elfcore_write_note": 8050,
      "7045": 8051,
      "9223372036854775808": 8052,
      "0D": 8053,
      "alway": 8054,
      "mpn_": 8055,
      "3095": 8056,
      "st_value": 8057,
      "this_": 8058,
      "dynsym": 8059,
      "token_": 8060,
      "TRIN": 8061,
      "10245": 8062,
      "040": 8063,
      "end109": 8064,
      "tobool34": 8065,
      "tv_nsec": 8066,
      "_option_": 8067,
      "2981": 8068,
      "then167": 8069,
      "thin_archive": 8070,
      "3076": 8071,
      "4736": 8072,
      "_lock": 8073,
      "bb21": 8074,
      "_bfd_canonicalize_dynamic_": 8075,
      "8386": 8076,
      "3002": 8077,
      "3451": 8078,
      "Al": 8079,
      "3686": 8080,
      "33554432": 8081,
      "call57": 8082,
      "2010": 8083,
      "mbs_": 8084,
      "2317": 8085,
      "end103": 8086,
      "2843": 8087,
      "is_thin_archive": 8088,
      "_bfd_bool_bfd_false_error": 8089,
      "4301": 8090,
      "3246": 8091,
      "state_st": 8092,
      "_pub": 8093,
      "return_": 8094,
      "port": 8095,
      "3485": 8096,
      "string_size": 8097,
      "3995": 8098,
      "allow_": 8099,
      "266306": 8100,
      "TLS_I": 8101,
      "ir_": 8102,
      "3250": 8103,
      "ptr51": 8104,
      "exit5": 8105,
      "arch_info": 8106,
      "_GMain": 8107,
      "i2666": 8108,
      "303075": 8109,
      "BFD_RELOC_TILEPRO": 8110,
      "use_rela_p": 8111,
      "3166": 8112,
      "3466": 8113,
      "base_": 8114,
      "298775": 8115,
      "292622": 8116,
      "after_": 8117,
      "3129": 8118,
      "ug": 8119,
      "P_S": 8120,
      "current_": 8121,
      "call78": 8122,
      "dirs": 8123,
      "_bfd_is_": 8124,
      "3165": 8125,
      "3347": 8126,
      "s_tail": 8127,
      "67717": 8128,
      "adjusted": 8129,
      "4642": 8130,
      "i329": 8131,
      "ts": 8132,
      "stop": 8133,
      "then82": 8134,
      "_local_label": 8135,
      "my_archive": 8136,
      "CRYPTO_free": 8137,
      "i283": 8138,
      "best_fit": 8139,
      "13405": 8140,
      "cmp59": 8141,
      "2772": 8142,
      "is_local_label": 8143,
      "167772": 8144,
      "wpa": 8145,
      "coff_comdat": 8146,
      "coff_comdat_info": 8147,
      "bb9": 8148,
      "allocated": 8149,
      "virtual_": 8150,
      "3398": 8151,
      "text_": 8152,
      "4821": 8153,
      "7614": 8154,
      "else2": 8155,
      "i296": 8156,
      "3249": 8157,
      "loaded": 8158,
      "bfd_getx64": 8159,
      "equ": 8160,
      "tobool21": 8161,
      "4300": 8162,
      "3204": 8163,
      "5979": 8164,
      "1812": 8165,
      "3127": 8166,
      "34587": 8167,
      "end695": 8168,
      "ICR": 8169,
      "i333": 8170,
      "3634": 8171,
      "elf_internal_linux_prpsinfo": 8172,
      "uleb128_size": 8173,
      "RELA": 8174,
      "3134": 8175,
      "i321": 8176,
      "2751": 8177,
      "reloc_section": 8178,
      "set_loc": 8179,
      "digs": 8180,
      "fn": 8181,
      "2851": 8182,
      "7941": 8183,
      "2215": 8184,
      "15827": 8185,
      "optind": 8186,
      "nearest_line": 8187,
      "i278": 8188,
      "cmp61": 8189,
      "BFD_RELOC_390": 8190,
      "_custom_": 8191,
      "IOS": 8192,
      "mchar": 8193,
      "i266": 8194,
      "_bfd_get_section_contents": 8195,
      "TO": 8196,
      "cset": 8197,
      "i243": 8198,
      "2865": 8199,
      "i312": 8200,
      "string_len": 8201,
      "45917": 8202,
      "rel_filepos": 8203,
      "aout_ar": 8204,
      "aout_ar_data": 8205,
      "ate_": 8206,
      "2692": 8207,
      "Char": 8208,
      "lay_": 8209,
      "3878": 8210,
      "7922": 8211,
      "reloc_type_lookup": 8212,
      "i239": 8213,
      "7164": 8214,
      "__cl": 8215,
      "2361": 8216,
      "2893": 8217,
      "day": 8218,
      "38400": 8219,
      "then142": 8220,
      "3144": 8221,
      "cmp66": 8222,
      "then67": 8223,
      "4466": 8224,
      "arrayidx20": 8225,
      "i342": 8226,
      "tend": 8227,
      "namelen": 8228,
      "3628": 8229,
      "stab_info": 8230,
      "91820": 8231,
      "me_": 8232,
      "trl": 8233,
      "1815": 8234,
      "2341": 8235,
      "from_": 8236,
      "6443": 8237,
      "ptr15": 8238,
      "4022": 8239,
      "7085": 8240,
      "else17": 8241,
      "uparams": 8242,
      "namedata": 8243,
      "relocate_section": 8244,
      "elf_link_virtual_": 8245,
      "elf_link_virtual_table_entry": 8246,
      "5504": 8247,
      "34863": 8248,
      "inc709": 8249,
      "i318": 8250,
      "i275": 8251,
      "3873": 8252,
      "cond16": 8253,
      "3145": 8254,
      "end119": 8255,
      "linker": 8256,
      "1_byte": 8257,
      "read_1_byte": 8258,
      "quote_string_len": 8259,
      "3196": 8260,
      "MS": 8261,
      "call52": 8262,
      "3193": 8263,
      "6269": 8264,
      "call54": 8265,
      "_free_": 8266,
      "LT_": 8267,
      "data_struct": 8268,
      "3073": 8269,
      "3685": 8270,
      "rpl_f": 8271,
      "bb84": 8272,
      "putc_unlocked": 8273,
      "assert_": 8274,
      "2785": 8275,
      "))\\": 8276,
      "fts": 8277,
      "3302": 8278,
      "DTP": 8279,
      "_sec": 8280,
      "lookup_section_flags": 8281,
      "1B": 8282,
      "He": 8283,
      "body97": 8284,
      "_cer": 8285,
      "33070": 8286,
      "output_has_": 8287,
      "begun": 8288,
      "obj_attrs_": 8289,
      "bsd_core_data": 8290,
      "output_has_begun": 8291,
      "2913": 8292,
      "3715": 8293,
      "subs": 8294,
      "i291": 8295,
      "lead": 8296,
      "end167": 8297,
      "ptr2": 8298,
      "2771": 8299,
      "ority": 8300,
      "37891": 8301,
      "stra": 8302,
      "_GOT_": 8303,
      "12901": 8304,
      "2652": 8305,
      "5888": 8306,
      "39020": 8307,
      "cccc": 8308,
      "41200": 8309,
      "relative_": 8310,
      "lazy_ibt_plt": 8311,
      "4034": 8312,
      "OPENSSL_sk": 8313,
      "3361": 8314,
      "2794": 8315,
      "34354": 8316,
      "3895": 8317,
      "8397": 8318,
      "more": 8319,
      "sn_": 8320,
      "2511": 8321,
      "3661": 8322,
      "opcode": 8323,
      "71252": 8324,
      "bfd_bwrite": 8325,
      "4643": 8326,
      "dhandle": 8327,
      "i306": 8328,
      "ith": 8329,
      "is_local_label_name": 8330,
      "3471": 8331,
      "33072": 8332,
      "lto_": 8333,
      "5945": 8334,
      "strchr": 8335,
      "duplica": 8336,
      "4194": 8337,
      "cnum": 8338,
      "minfo": 8339,
      "mount": 8340,
      "param": 8341,
      "Wr": 8342,
      "crt": 8343,
      "eh_": 8344,
      "i229": 8345,
      "call62": 8346,
      "minator": 8347,
      "41631": 8348,
      "n_buckets_used": 8349,
      "3116": 8350,
      "i300": 8351,
      "i280": 8352,
      "grok_": 8353,
      "_valid": 8354,
      "3524": 8355,
      "tobool18": 8356,
      "61922": 8357,
      "total_out": 8358,
      "help": 8359,
      "i304": 8360,
      "2211": 8361,
      "endor": 8362,
      "99130": 8363,
      "==": 8364,
      "3251": 8365,
      "luser": 8366,
      "10652": 8367,
      "3075": 8368,
      "3464": 8369,
      "5252": 8370,
      "7325": 8371,
      "3226": 8372,
      "_std": 8373,
      "IMAGE_": 8374,
      "4323": 8375,
      "2415": 8376,
      "53264": 8377,
      "i233": 8378,
      "3074": 8379,
      "3820": 8380,
      "3189": 8381,
      "cp_": 8382,
      "i198": 8383,
      "fflush": 8384,
      "0287": 8385,
      "i297": 8386,
      "5368": 8387,
      "BN": 8388,
      "ont": 8389,
      "2419": 8390,
      "38094": 8391,
      "_pad": 8392,
      "create": 8393,
      "3109": 8394,
      "_colon": 8395,
      "refere": 8396,
      "fini": 8397,
      "014": 8398,
      "C64_": 8399,
      "sreloc": 8400,
      "35483": 8401,
      "i247": 8402,
      "vfile": 8403,
      "xreallocarray": 8404,
      "ptr1": 8405,
      "tobool23": 8406,
      "_bfd_elfcore_": 8407,
      "acluser": 8408,
      "crtbegin": 8409,
      "En": 8410,
      "arrayidx6": 8411,
      "37664": 8412,
      "79849": 8413,
      "i286": 8414,
      "call59": 8415,
      "true19": 8416,
      "ed_file": 8417,
      "3825": 8418,
      "42382": 8419,
      "n_scnum": 8420,
      "sinfo": 8421,
      "2061": 8422,
      "3877": 8423,
      "elf32_": 8424,
      "CAL": 8425,
      "1801": 8426,
      "3826": 8427,
      "stable": 8428,
      "Option": 8429,
      "Written": 8430,
      "3157": 8431,
      "ptr14": 8432,
      "3066": 8433,
      "3318": 8434,
      "section_contents": 8435,
      "end170": 8436,
      "i256": 8437,
      "ks": 8438,
      "rror": 8439,
      "2301": 8440,
      "end200": 8441,
      "2773": 8442,
      "2992": 8443,
      "2875": 8444,
      "dopr": 8445,
      "domain": 8446,
      "i314": 8447,
      "_vtable": 8448,
      "EW_": 8449,
      "3815": 8450,
      "elf_sections": 8451,
      "num_elf_sections": 8452,
      "_bias": 8453,
      "3234": 8454,
      "end138": 8455,
      "end133": 8456,
      "49095": 8457,
      "symtab_section": 8458,
      "58389": 8459,
      "save": 8460,
      "_NL_NUM_LC_": 8461,
      "wn": 8462,
      "_bfd_dopr": 8463,
      "indexentry": 8464,
      "string_appendn": 8465,
      "EVP_P": 8466,
      "openr_": 8467,
      "3176": 8468,
      "call75": 8469,
      "then73": 8470,
      "s_s": 8471,
      "5587": 8472,
      "ation": 8473,
      "then101": 8474,
      "3217": 8475,
      "3744": 8476,
      "_indirect": 8477,
      "save_g": 8478,
      "72161": 8479,
      "timeval": 8480,
      "__printf_chk": 8481,
      "version_string": 8482,
      "_mark": 8483,
      "3439": 8484,
      "add_symbols": 8485,
      "offs": 8486,
      "puts": 8487,
      "stack_st_X509": 8488,
      "6101": 8489,
      "AP": 8490,
      "6441": 8491,
      "3208": 8492,
      "extern": 8493,
      "i268": 8494,
      "3829": 8495,
      "3875": 8496,
      "7200": 8497,
      "cmp68": 8498,
      "6000": 8499,
      "bb26": 8500,
      "BFD_RELOC_MICR": 8501,
      "BFD_RELOC_NIOS": 8502,
      "constructor": 8503,
      "seudo": 8504,
      "alter": 8505,
      "2942": 8506,
      "pansion": 8507,
      "pipe": 8508,
      "_GMainContext": 8509,
      "only_": 8510,
      "3232": 8511,
      "expansion": 8512,
      "7907": 8513,
      "arrayidx41": 8514,
      "n_buckets": 8515,
      "ptr12": 8516,
      "2873": 8517,
      "3795": 8518,
      "7857": 8519,
      "PKCS": 8520,
      "lp": 8521,
      "ift_": 8522,
      "3053": 8523,
      "section_from_": 8524,
      "VIEW_": 8525,
      "rva_bias": 8526,
      "VIEW_INFO": 8527,
      "2416": 8528,
      "then86": 8529,
      "7465": 8530,
      "cmp74": 8531,
      "3479": 8532,
      "then71": 8533,
      "then112": 8534,
      "d_name": 8535,
      "PLT": 8536,
      "nsyms": 8537,
      "x2": 8538,
      "16158": 8539,
      "*)*]": 8540,
      "10833": 8541,
      "uparam_name": 8542,
      "6944": 8543,
      "archive_next": 8544,
      "place": 8545,
      "012": 8546,
      "i345": 8547,
      "end222": 8548,
      "addrinfo": 8549,
      "cur_idx": 8550,
      "Key": 8551,
      "i255": 8552,
      "pt_": 8553,
      "disas": 8554,
      "ISC": 8555,
      "tobool26": 8556,
      "_funcs": 8557,
      "3567": 8558,
      "3806": 8559,
      "uffix": 8560,
      "true6": 8561,
      "i310": 8562,
      "2627": 8563,
      "3824": 8564,
      "then80": 8565,
      "sh_xfree": 8566,
      "7532": 8567,
      "3239": 8568,
      "3207": 8569,
      "2503": 8570,
      "3675": 8571,
      "archived_file": 8572,
      "next_archived_file": 8573,
      "openr_next_archived_file": 8574,
      "6553": 8575,
      "PU": 8576,
      "line_state": 8577,
      "2312": 8578,
      "3350": 8579,
      "then104": 8580,
      "true4": 8581,
      "_li": 8582,
      "i237": 8583,
      "3236": 8584,
      "4939": 8585,
      "link_hash_": 8586,
      "2811": 8587,
      "2914": 8588,
      "3061": 8589,
      "3491": 8590,
      "3777": 8591,
      "old_offset": 8592,
      "anc": 8593,
      "list_": 8594,
      "leb128": 8595,
      "_section_from_": 8596,
      "7168": 8597,
      "3631": 8598,
      "7850": 8599,
      "cond10": 8600,
      "ssl_cipher_st": 8601,
      "real_": 8602,
      "4978": 8603,
      "else6": 8604,
      "_comple": 8605,
      "rsrc_write_data": 8606,
      "_bfd_elf_strtab": 8607,
      "prime_index": 8608,
      "tls_type": 8609,
      "rand_drbg": 8610,
      "call71": 8611,
      "update": 8612,
      "247236": 8613,
      "imit": 8614,
      "_sch_i": 8615,
      "end132": 8616,
      "end123": 8617,
      "2901": 8618,
      "7826": 8619,
      "body54": 8620,
      "R_X86_": 8621,
      "1851": 8622,
      "2973": 8623,
      "5336": 8624,
      "cmp60": 8625,
      "cmp98": 8626,
      "78323": 8627,
      "3359": 8628,
      "PACKE": 8629,
      "4506": 8630,
      "1871": 8631,
      "end144": 8632,
      "5653": 8633,
      "synt": 8634,
      "arrayidx24": 8635,
      "conv25": 8636,
      "final_link": 8637,
      "4171": 8638,
      "FOR": 8639,
      "Sub": 8640,
      "3577": 8641,
      "ields": 8642,
      "del_f": 8643,
      "3257": 8644,
      "2313": 8645,
      "to_type": 8646,
      "40088": 8647,
      "sock": 8648,
      "sizeof_headers": 8649,
      "3154": 8650,
      "OM": 8651,
      "i225": 8652,
      "14695": 8653,
      "3062": 8654,
      "3199": 8655,
      "add39": 8656,
      "99131": 8657,
      "_section_hook": 8658,
      "ined": 8659,
      "cmp77": 8660,
      "3519": 8661,
      "i339": 8662,
      "_n_": 8663,
      "2214": 8664,
      "constra": 8665,
      "rsrc": 8666,
      "_cies": 8667,
      "3351": 8668,
      "pe_print_": 8669,
      "7563": 8670,
      "ri": 8671,
      "107374": 8672,
      "call92": 8673,
      "_save": 8674,
      "3021": 8675,
      "tls1_": 8676,
      "_sch_istable": 8677,
      "1831": 8678,
      "ec_method_st": 8679,
      "6131": 8680,
      "_vma": 8681,
      "_short": 8682,
      "3707": 8683,
      "conv14": 8684,
      "_rl": 8685,
      "000000e": 8686,
      "13406": 8687,
      "source_": 8688,
      "backup_base": 8689,
      "end113": 8690,
      "cmp107": 8691,
      "bb17": 8692,
      "down": 8693,
      "counter": 8694,
      "empty_symbol": 8695,
      "fmul": 8696,
      "search_": 8697,
      "shuff": 8698,
      "_symbol_": 8699,
      "hook": 8700,
      "2331": 8701,
      "strstart": 8702,
      "18012": 8703,
      "st_uid": 8704,
      "ted_section_contents": 8705,
      "relocated_section_contents": 8706,
      "3167": 8707,
      "9114": 8708,
      "EState": 8709,
      "i274": 8710,
      "nlink": 8711,
      "BFD_RELOC_XTENS": 8712,
      "3627": 8713,
      "name_ptr": 8714,
      "2661": 8715,
      "howto_table": 8716,
      "_CODEVIEW_INFO": 8717,
      "3814": 8718,
      "tobool20": 8719,
      "_IO_save_end": 8720,
      "ptr6": 8721,
      "4513": 8722,
      "hash_f": 8723,
      "1C": 8724,
      "true25": 8725,
      "BFIN": 8726,
      "15197": 8727,
      "1811": 8728,
      "then84": 8729,
      "memchr": 8730,
      "sum_": 8731,
      "_CON": 8732,
      "3065": 8733,
      "3483": 8734,
      "5824": 8735,
      "body35": 8736,
      "_restyle": 8737,
      "c_and_shell_escape": 8738,
      "quotearg_buffer_restyle": 8739,
      "cp_options": 8740,
      "shuffle": 8741,
      "quotearg_buffer_restyled": 8742,
      "4788": 8743,
      "2621": 8744,
      "verref": 8745,
      "snprintf": 8746,
      "5284": 8747,
      "memcmp": 8748,
      "7165": 8749,
      "Table": 8750,
      "3260": 8751,
      "native": 8752,
      "i308": 8753,
      "2351": 8754,
      "constraint": 8755,
      "i242": 8756,
      "7838": 8757,
      "optim": 8758,
      "thread_": 8759,
      "end521": 8760,
      "A_S": 8761,
      "i252": 8762,
      "27579": 8763,
      "3512": 8764,
      "019": 8765,
      "i320": 8766,
      "cmp88": 8767,
      "3821": 8768,
      "eq_f": 8769,
      "7635": 8770,
      "plt0": 8771,
      "bfd_arch_": 8772,
      "bfd_putx16": 8773,
      "DEBUG_DIRECTORY": 8774,
      "IMAGE_DEBUG_DIRECTORY": 8775,
      "EE": 8776,
      "org": 8777,
      "i341": 8778,
      "uc": 8779,
      "3779": 8780,
      "end753": 8781,
      "_fileno": 8782,
      "quotearg_n_style": 8783,
      "_wide_data": 8784,
      "_unused": 8785,
      "_old_offset": 8786,
      "cmd": 8787,
      "mux": 8788,
      "2833": 8789,
      "_IO_read_": 8790,
      "_IO_backup_base": 8791,
      "st_gid": 8792,
      "_flags2": 8793,
      "_cur_column": 8794,
      "_IO_buf_end": 8795,
      "_IO_buf_base": 8796,
      "_freeres_buf": 8797,
      "_freeres_list": 8798,
      "__pad5": 8799,
      "_vtable_offset": 8800,
      "_markers": 8801,
      "_shortbuf": 8802,
      "_unused2": 8803,
      "_IO_read_base": 8804,
      "end112": 8805,
      "true21": 8806,
      "dwarf_vmatoa_1": 8807,
      "4698": 8808,
      "indent": 8809,
      "call64": 8810,
      "record_": 8811,
      "end126": 8812,
      "3357": 8813,
      "cplus_demangle": 8814,
      "2521": 8815,
      "i287": 8816,
      "end166": 8817,
      "2862": 8818,
      "iver": 8819,
      "inet": 8820,
      "rem2": 8821,
      "3393": 8822,
      "cn": 8823,
      "kept_": 8824,
      "32326": 8825,
      "18442": 8826,
      "3522": 8827,
      "cipher_": 8828,
      "2995": 8829,
      "ugid16": 8830,
      "arrayidx19": 8831,
      "BFD_RELOC_V": 8832,
      "asection": 8833,
      "end107": 8834,
      "3317": 8835,
      "is_name": 8836,
      "247485": 8837,
      "write_armap": 8838,
      "first_entry": 8839,
      "TLS_LD": 8840,
      "truncate_": 8841,
      "synthe": 8842,
      "3271": 8843,
      "23326": 8844,
      "then144": 8845,
      "SizeOfHe": 8846,
      "2519": 8847,
      "2971": 8848,
      "3912": 8849,
      "true57": 8850,
      "my": 8851,
      "add13": 8852,
      "roup": 8853,
      "4294967296": 8854,
      "3407": 8855,
      "defs": 8856,
      "just_": 8857,
      "Align": 8858,
      "i290": 8859,
      "end94": 8860,
      "3501": 8861,
      "_lma": 8862,
      "3125": 8863,
      "2541": 8864,
      "i337": 8865,
      "trad": 8866,
      "6046": 8867,
      "bucket_contents": 8868,
      "ified": 8869,
      "cript": 8870,
      "lnot": 8871,
      "2513": 8872,
      "cmp69": 8873,
      "offsets": 8874,
      "17729": 8875,
      "anch": 8876,
      "3178": 8877,
      "7844": 8878,
      "grok": 8879,
      "i313": 8880,
      "34564": 8881,
      "2216": 8882,
      "cmp90": 8883,
      "3783": 8884,
      "true75": 8885,
      "s_len": 8886,
      "3353": 8887,
      "26732": 8888,
      "resp": 8889,
      "_hide_symbol": 8890,
      "sizeof_dyn": 8891,
      "synthetic_": 8892,
      "sgot": 8893,
      "i325": 8894,
      "22333": 8895,
      "tobool38": 8896,
      "ents": 8897,
      "19016": 8898,
      "cache_ptr": 8899,
      "3354": 8900,
      "3358": 8901,
      "_hist": 8902,
      "lhash_": 8903,
      "27176": 8904,
      "i357": 8905,
      "18790": 8906,
      "priv": 8907,
      "body23": 8908,
      "start_address": 8909,
      "towc": 8910,
      "bb19": 8911,
      "rsa_st": 8912,
      "5603": 8913,
      "i328": 8914,
      "3856": 8915,
      "39320": 8916,
      "body48": 8917,
      "stand": 8918,
      "synthetic_symtab": 8919,
      "7653": 8920,
      "FA": 8921,
      "i382": 8922,
      "3390": 8923,
      "coll": 8924,
      "3230": 8925,
      "266283": 8926,
      "3394": 8927,
      "3709": 8928,
      "then110": 8929,
      "4027": 8930,
      "discarded": 8931,
      "ossl_": 8932,
      "body20": 8933,
      "reloc_name_": 8934,
      "Subsystem": 8935,
      "reloc_name_lookup": 8936,
      "2581": 8937,
      "7899": 8938,
      "need_": 8939,
      "7603": 8940,
      "gc_mark_": 8941,
      "construct_extended_name_table": 8942,
      "i340": 8943,
      "3969": 8944,
      "true39": 8945,
      "strip_": 8946,
      "arrayidx12": 8947,
      "open_": 8948,
      "dtors": 8949,
      "utf": 8950,
      "filename_ptr": 8951,
      "crtend": 8952,
      "BFD_RELOC_PPC64_": 8953,
      "BFD_RELOC_RISC": 8954,
      "collect": 8955,
      "BFD_RELOC_TILEPRO_IMM16_X": 8956,
      "3163": 8957,
      "rec": 8958,
      "end580": 8959,
      "conv55": 8960,
      "warn_": 8961,
      "2617": 8962,
      "3468": 8963,
      "_section_info": 8964,
      "sh_addralign": 8965,
      "i265": 8966,
      "i343": 8967,
      "end147": 8968,
      "cmp257": 8969,
      "then118": 8970,
      "skip_": 8971,
      "__ctype_b": 8972,
      "4291": 8973,
      "sort": 8974,
      "end137": 8975,
      "rand_drbg_st": 8976,
      "nor": 8977,
      "body12": 8978,
      "semb": 8979,
      "3045": 8980,
      "4059": 8981,
      "elf_i386": 8982,
      "priority": 8983,
      "ONE": 8984,
      "end142": 8985,
      "ptr20": 8986,
      "sizes": 8987,
      "_tv": 8988,
      "19520": 8989,
      "56615": 8990,
      "standar": 8991,
      "codes": 8992,
      "end97": 8993,
      "end367": 8994,
      "2783": 8995,
      "48070": 8996,
      "bracket_": 8997,
      "Cha": 8998,
      "arname": 8999,
      "3438": 9000,
      "tags": 9001,
      "tobool28": 9002,
      "_NL_TIME": 9003,
      "_NL_MONETARY_DUO_": 9004,
      "truncate_arname": 9005,
      "2618": 9006,
      "3830": 9007,
      "locsymcount": 9008,
      "__ctype_b_loc": 9009,
      "i258": 9010,
      "3449": 9011,
      "3778": 9012,
      "strcpy": 9013,
      "plt_got": 9014,
      "info_ptr_end": 9015,
      "elf_symbuf_head": 9016,
      "wpacke": 9017,
      "EC_": 9018,
      "i205": 9019,
      "2412": 9020,
      "2872": 9021,
      "5342": 9022,
      "cmp82": 9023,
      "3935": 9024,
      "argmem": 9025,
      "tobool25": 9026,
      "varia": 9027,
      "argmemonly": 9028,
      "20150": 9029,
      "3674": 9030,
      "22765": 9031,
      "descdata": 9032,
      "align_power": 9033,
      "then114": 9034,
      "then855": 9035,
      "Content": 9036,
      "variant": 9037,
      "3369": 9038,
      "simp": 9039,
      "3474": 9040,
      "4753": 9041,
      "wpacket_st": 9042,
      "3385": 9043,
      "hu": 9044,
      "2491": 9045,
      "end232": 9046,
      "cmp103": 9047,
      "2762": 9048,
      "2615": 9049,
      "3832": 9050,
      "067": 9051,
      "5418": 9052,
      "foll": 9053,
      "tobool22": 9054,
      "i319": 9055,
      "053": 9056,
      "2523": 9057,
      "3574": 9058,
      "body402": 9059,
      "266356": 9060,
      "2231": 9061,
      "for_": 9062,
      "tobool24": 9063,
      "n_numaux": 9064,
      "record": 9065,
      "3380": 9066,
      "4055": 9067,
      "_bfd_read_": 9068,
      "_list_of_": 9069,
      "gc_mark_hook": 9070,
      "es_executable": 9071,
      "_core_file_failing_command": 9072,
      "es_executable_p": 9073,
      "3194": 9074,
      "i251": 9075,
      "tate": 9076,
      "call67": 9077,
      "BFD_RELOC_16": 9078,
      "_NC": 9079,
      "3209": 9080,
      "3496": 9081,
      "extp": 9082,
      "leading_": 9083,
      "4684": 9084,
      "i381": 9085,
      "2213": 9086,
      "BFD_RELOC_FR": 9087,
      "X509_name": 9088,
      "i294": 9089,
      "cmp100": 9090,
      "3158": 9091,
      "end193": 9092,
      "exit4": 9093,
      "arrayidx31": 9094,
      "else9": 9095,
      "__assert_": 9096,
      "child_": 9097,
      "__assert_fail": 9098,
      "3179": 9099,
      "3237": 9100,
      "cmp83": 9101,
      "2943": 9102,
      "%.,": 9103,
      "i334": 9104,
      "IPS": 9105,
      "3622": 9106,
      "MAN": 9107,
      "_1": 9108,
      "2220": 9109,
      "2471": 9110,
      "add7": 9111,
      "body40": 9112,
      "header_": 9113,
      "after": 9114,
      "i307": 9115,
      "i346": 9116,
      "i326": 9117,
      "3430": 9118,
      "3857": 9119,
      "2673": 9120,
      "4090": 9121,
      "body17": 9122,
      "call76": 9123,
      "2853": 9124,
      "def_regular": 9125,
      "7173": 9126,
      "3286": 9127,
      "3726": 9128,
      "i332": 9129,
      "i315": 9130,
      "and_cleanup": 9131,
      "3113": 9132,
      "ter_": 9133,
      "3201": 9134,
      "end134": 9135,
      "3499": 9136,
      "end165": 9137,
      "end181": 9138,
      "add25": 9139,
      "outrel": 9140,
      "create_token_": 9141,
      "plt_entry_size": 9142,
      "create_token_tree": 9143,
      "3482": 9144,
      "blksize": 9145,
      "cl_": 9146,
      "i235": 9147,
      "2610": 9148,
      "3420": 9149,
      "35576": 9150,
      "cond426": 9151,
      "ren": 9152,
      "7847": 9153,
      "unref": 9154,
      "cleanup130": 9155,
      "ossl_state": 9156,
      "3198": 9157,
      "end173": 9158,
      "ptr16": 9159,
      "inliner_info": 9160,
      "then159": 9161,
      "6921": 9162,
      "attr_": 9163,
      "52391": 9164,
      "s9": 9165,
      "POIN": 9166,
      "2502": 9167,
      "3182": 9168,
      "maxpagesize": 9169,
      "3623": 9170,
      "then95": 9171,
      "true12": 9172,
      "671088": 9173,
      "3123": 9174,
      "end537": 9175,
      "_requi": 9176,
      "SHA": 9177,
      "call83": 9178,
      "pre55": 9179,
      "2515": 9180,
      "3422": 9181,
      "tableidx": 9182,
      "norm": 9183,
      "2792": 9184,
      "3355": 9185,
      "_core_file_pid": 9186,
      "_core_file_failing_signal": 9187,
      "inetutils": 9188,
      "2810": 9189,
      "65381": 9190,
      "conv43": 9191,
      "i311": 9192,
      "ABS": 9193,
      "3293": 9194,
      "3786": 9195,
      "3632": 9196,
      "236249": 9197,
      "7607": 9198,
      "TRAN": 9199,
      "dwarf_debug_section": 9200,
      "bfd_elf32_": 9201,
      "e_phnum": 9202,
      "end160": 9203,
      "cmp87": 9204,
      "27644": 9205,
      "3001": 9206,
      "3774": 9207,
      "tobool27": 9208,
      "cmp73": 9209,
      "end711": 9210,
      "3245": 9211,
      "then151": 9212,
      "4011": 9213,
      "7889": 9214,
      "253953": 9215,
      "mbr": 9216,
      "o_": 9217,
      "11592": 9218,
      "3391": 9219,
      "43637": 9220,
      "3372": 9221,
      "name1": 9222,
      "false4": 9223,
      "bb27": 9224,
      "7832": 9225,
      "7082": 9226,
      "rdx": 9227,
      "3188": 9228,
      "bfd_sym": 9229,
      "7766": 9230,
      "sym_count": 9231,
      "execstack": 9232,
      "11227": 9233,
      "disassemb": 9234,
      "ain": 9235,
      "ity_": 9236,
      "then443": 9237,
      "4214": 9238,
      "85289": 9239,
      "cached": 9240,
      "section_last": 9241,
      "_obstack_": 9242,
      "7160": 9243,
      "7205": 9244,
      "7691": 9245,
      "SOR": 9246,
      "T_N": 9247,
      "end163": 9248,
      "ptr26": 9249,
      "3444": 9250,
      "3672": 9251,
      "247451": 9252,
      "rndx_": 9253,
      "12600": 9254,
      "flaginfo": 9255,
      "generic_link": 9256,
      "3133": 9257,
      "_argp_fmtstream_": 9258,
      "3465": 9259,
      "3716": 9260,
      "unwin": 9261,
      "EVP_CIP": 9262,
      "external": 9263,
      "i355": 9264,
      "2928": 9265,
      "3879": 9266,
      "6930": 9267,
      "true28": 9268,
      "deflate": 9269,
      "3356": 9270,
      "Elf_External_Verdef": 9271,
      "2982": 9272,
      "bb16": 9273,
      "strtab_hdr": 9274,
      "67070": 9275,
      "end108": 9276,
      "3636": 9277,
      "65370": 9278,
      "_split_": 9279,
      "75001": 9280,
      "_start_stop": 9281,
      "7110": 9282,
      "GH": 9283,
      "3400": 9284,
      "3942": 9285,
      "6920": 9286,
      "94951": 9287,
      "Do": 9288,
      "end128": 9289,
      "3063": 9290,
      "3443": 9291,
      "87575": 9292,
      "expand": 9293,
      "_NAME_": 9294,
      "again": 9295,
      "3161": 9296,
      "oct": 9297,
      "3431": 9298,
      "add1": 9299,
      "bb11": 9300,
      "x86_64_": 9301,
      "2514": 9302,
      "6850": 9303,
      "7724": 9304,
      "71841": 9305,
      "call68": 9306,
      "7089": 9307,
      "67165": 9308,
      "4519": 9309,
      "4213": 9310,
      "_fd": 9311,
      "enc_method": 9312,
      "bb30": 9313,
      "right_quote6": 9314,
      "left_quote5": 9315,
      "lsda": 9316,
      "bfd_h_getx_signed_32": 9317,
      "ssl3_enc_method": 9318,
      "3205": 9319,
      "27175": 9320,
      "3563": 9321,
      "then96": 9322,
      "MOV": 9323,
      "OLIC": 9324,
      "(*(.": 9325,
      "i240": 9326,
      "end148": 9327,
      "3093": 9328,
      "3961": 9329,
      "3663": 9330,
      "cond78": 9331,
      "7569": 9332,
      "elf64_": 9333,
      "eh_frame_sec_info": 9334,
      "unresolved_reloc": 9335,
      "rndx_ext": 9336,
      "*\\": 9337,
      "7665": 9338,
      "end155": 9339,
      "3800": 9340,
      "then77": 9341,
      "7897": 9342,
      "4364": 9343,
      "tobool37": 9344,
      "arrayidx17": 9345,
      "66010": 9346,
      "bfd_link_hash_lookup": 9347,
      "7157": 9348,
      "then90": 9349,
      "7891": 9350,
      "70853": 9351,
      "GOT": 9352,
      "call58": 9353,
      "3337": 9354,
      "conv17": 9355,
      "66679": 9356,
      "order_st": 9357,
      "array_element": 9358,
      "cipher_order_st": 9359,
      "7648": 9360,
      "7903": 9361,
      "67634": 9362,
      "TRANS": 9363,
      "013": 9364,
      "mis": 9365,
      "3013": 9366,
      "then125": 9367,
      "true42": 9368,
      "17223": 9369,
      "end161": 9370,
      "3031": 9371,
      "3934": 9372,
      "cleanup92": 9373,
      "div3": 9374,
      "i336": 9375,
      "3184": 9376,
      "3155": 9377,
      "menta": 9378,
      "end98": 9379,
      "ptr31": 9380,
      "3500": 9381,
      "ranges": 9382,
      "DESC_": 9383,
      "8141": 9384,
      "_key_st": 9385,
      "i241": 9386,
      "3005": 9387,
      "7060": 9388,
      "prev_": 9389,
      "_recor": 9390,
      "3375": 9391,
      "2753": 9392,
      "7719": 9393,
      "debug_method_": 9394,
      "i273": 9395,
      "i347": 9396,
      "cond14": 9397,
      "tobool60": 9398,
      "put_indicator": 9399,
      "cert": 9400,
      "_core_file_match": 9401,
      "n_sclass": 9402,
      "narrow": 9403,
      "inflateStateCheck": 9404,
      "_core_file_matches_executable_p": 9405,
      "enc": 9406,
      "tobool52": 9407,
      "scrat": 9408,
      "just_syms": 9409,
      "Vi": 9410,
      "udata": 9411,
      "ptr59": 9412,
      "dep": 9413,
      "4445": 9414,
      "false3": 9415,
      "3903": 9416,
      "then83": 9417,
      "_GNU": 9418,
      "129954": 9419,
      "va_list": 9420,
      "3423": 9421,
      "group_section": 9422,
      "4298": 9423,
      "call65": 9424,
      "2217": 9425,
      "end199": 9426,
      "7689": 9427,
      "ight": 9428,
      "saved": 9429,
      "71237": 9430,
      "rtual": 9431,
      "Virtual": 9432,
      "conn": 9433,
      "body368": 9434,
      "PAGE": 9435,
      "add37": 9436,
      "3334": 9437,
      "10927": 9438,
      "3706": 9439,
      "F_R": 9440,
      "disassemble": 9441,
      "4181": 9442,
      "_HI": 9443,
      "pred_": 9444,
      "bb37": 9445,
      "short_options": 9446,
      "mbrtowc": 9447,
      "3115": 9448,
      "3460": 9449,
      "6918": 9450,
      "7524": 9451,
      "237122": 9452,
      "merge_sections": 9453,
      "is_sym": 9454,
      "TER": 9455,
      "copy_link_hash_": 9456,
      "copy_link_hash_symbol_type": 9457,
      "i289": 9458,
      "3540": 9459,
      "3823": 9460,
      "then116": 9461,
      "236110": 9462,
      "debug_name": 9463,
      "wcs": 9464,
      "color_indicator": 9465,
      "034": 9466,
      "4261": 9467,
      "2251": 9468,
      "4095": 9469,
[...]
